<unk>	0
<s>	0
</s>	0
▁t	-0
he	-1
▁a	-2
▁the	-3
in	-4
▁s	-5
nd	-6
▁w	-7
re	-8
▁o	-9
▁m	-10
▁b	-11
▁f	-12
ou	-13
ha	-14
er	-15
ll	-16
▁l	-17
▁and	-18
or	-19
▁c	-20
is	-21
it	-22
ed	-23
ar	-24
▁d	-25
es	-26
ing	-27
en	-28
▁of	-29
▁to	-30
on	-31
▁T	-32
▁he	-33
▁h	-34
ow	-35
▁I	-36
▁n	-37
▁p	-38
an	-39
▁A	-40
▁g	-41
om	-42
as	-43
at	-44
▁in	-45
hat	-46
gh	-47
▁th	-48
le	-49
ot	-50
▁y	-51
ve	-52
ld	-53
ut	-54
--	-55
▁ha	-56
et	-57
ay	-58
ght	-59
▁r	-60
▁The	-61
id	-62
ce	-63
ur	-64
st	-65
▁e	-66
ith	-67
ir	-68
▁you	-69
ad	-70
▁W	-71
▁on	-72
se	-73
▁be	-74
▁we	-75
▁st	-76
▁And	-77
im	-78
▁S	-79
▁that	-80
▁u	-81
▁my	-82
ke	-83
am	-84
ight	-85
▁B	-86
ill	-87
▁for	-88
oo	-89
▁with	-90
▁L	-91
▁me	-92
ver	-93
▁is	-94
il	-95
ch	-96
ck	-97
▁it	-98
▁'	-99
ain	-100
al	-101
▁her	-102
▁k	-103
▁H	-104
▁--	-105
▁his	-106
▁fr	-107
▁all	-108
ly	-109
▁li	-110
▁not	-111
▁wh	-112
▁an	-113
▁P	-114
▁as	-115
▁se	-116
▁O	-117
her	-118
And	-119
th	-120
ore	-121
▁re	-122
ent	-123
hen	-124
▁F	-125
ro	-126
▁"	-127
ra	-128
em	-129
▁was	-130
ri	-131
▁M	-132
un	-133
▁de	-134
and	-135
ess	-136
▁kn	-137
▁from	-138
ast	-139
ind	-140
▁lo	-141
▁sh	-142
▁at	-143
ome	-144
▁G	-145
ear	-146
all	-147
red	-148
ong	-149
ge	-150
est	-151
▁C	-152
▁him	-153
▁they	-154
▁sp	-155
▁she	-156
▁sa	-157
ea	-158
our	-159
own	-160
▁sha	-161
el	-162
ould	-163
ter	-164
▁bl	-165
▁wor	-166
here	-167
ood	-168
▁your	-169
ie	-170
▁by	-171
if	-172
▁up	-173
ep	-174
▁hear	-175
▁our	-176
old	-177
▁D	-178
ame	-179
▁fl	-180
one	-181
ound	-182
▁but	-183
▁their	-184
▁are	-185
▁v	-186
▁E	-187
ine	-188
▁ne	-189
▁no	-190
ath	-191
▁have	-192
▁thou	-193
ers	-194
▁so	-195
ide	-196
ion	-197
▁or	-198
▁But	-199
▁N	-200
us	-201
▁fa	-202
▁man	-203
▁ro	-204
ake	-205
▁br	-206
ul	-207
han	-208
ell	-209
▁will	-210
ak	-211
um	-212
ust	-213
▁cl	-214
▁when	-215
ue	-216
ard	-217
The	-218
▁Po	-219
▁do	-220
▁K	-221
▁sw	-222
lf	-223
hi	-224
▁R	-225
▁one	-226
rou	-227
▁thy	-228
od	-229
▁us	-230
▁this	-231
▁Poem	-232
▁LI	-233
KE	-234
▁LIKE	-235
orn	-236
ven	-237
▁know	-238
ic	-239
wn	-240
ack	-241
ings	-242
▁there	-243
▁out	-244
▁pl	-245
▁them	-246
▁Th	-247
tle	-248
ark	-249
are	-250
▁ag	-251
▁were	-252
ord	-253
hed	-254
▁tr	-255
ss	-256
▁To	-257
fe	-258
▁like	-259
▁go	-260
▁For	-261
▁Y	-262
▁love	-263
ts	-264
ure	-265
▁j	-266
▁ever	-267
pp	-268
ade	-269
▁day	-270
▁who	-271
ook	-272
▁shall	-273
▁gre	-274
urn	-275
ves	-276
▁had	-277
pt	-278
▁down	-279
ass	-280
nder	-281
qu	-282
▁He	-283
▁can	-284
▁al	-285
▁where	-286
nt	-287
other	-288
▁bre	-289
ant	-290
▁what	-291
▁mo	-292
au	-293
ry	-294
▁An	-295
ho	-296
▁more	-297
▁again	-298
ng	-299
▁said	-300
▁hand	-301
▁le	-302
▁thee	-303
ate	-304
ft	-305
ab	-306
▁ey	-307
▁whi	-308
ol	-309
op	-310
▁men	-311
▁heart	-312
ies	-313
rough	-314
ive	-315
▁That	-316
▁com	-317
.'	-318
▁ar	-319
way	-320
ist	-321
▁sl	-322
ime	-323
▁gr	-324
▁We	-325
fore	-326
eet	-327
ire	-328
▁am	-329
▁In	-330
ig	-331
▁King	-332
ered	-333
ise	-334
ved	-335
▁come	-336
▁upon	-337
ance	-338
▁su	-339
▁light	-340
▁ab	-341
ittle	-342
▁fo	-343
ice	-344
▁gl	-345
▁When	-346
▁night	-347
ink	-348
ous	-349
out	-350
▁They	-351
▁tw	-352
aid	-353
self	-354
▁God	-355
."	-356
ose	-357
▁see	-358
▁(	-359
ish	-360
▁dre	-361
▁through	-362
ag	-363
▁if	-364
▁sm	-365
ick	-366
ree	-367
▁little	-368
▁pr	-369
less	-370
to	-371
▁.	-372
▁un	-373
ull	-374
▁sc	-375
ows	-376
ave	-377
▁ye	-378
ite	-379
▁own	-380
led	-381
▁life	-382
But	-383
ted	-384
▁old	-385
▁would	-386
▁than	-387
ness	-388
▁ear	-389
▁never	-390
▁now	-391
▁over	-392
▁made	-393
▁long	-394
▁bo	-395
ather	-396
ps	-397
▁came	-398
▁lea	-399
▁wat	-400
▁too	-401
ower	-402
ct	-403
ful	-404
▁cr	-405
ud	-406
ang	-407
ears	-408
▁great	-409
▁dark	-410
ew	-411
▁may	-412
▁eyes	-413
▁world	-414
ther	-415
aw	-416
ach	-417
▁str	-418
▁1	-419
ove	-420
▁then	-421
▁some	-422
▁let	-423
ace	-424
▁into	-425
▁4	-426
▁af	-427
▁So	-428
age	-429
▁Then	-430
,'	-431
ars	-432
To	-433
igh	-434
▁call	-435
▁With	-436
▁On	-437
▁cha	-438
▁sun	-439
▁good	-440
▁har	-441
▁qu	-442
eath	-443
hild	-444
ied	-445
▁wa	-446
▁has	-447
▁away	-448
▁back	-449
▁time	-450
▁ke	-451
▁look	-452
▁J	-453
ond	-454
▁before	-455
▁nor	-456
For	-457
ble	-458
▁should	-459
▁sk	-460
sw	-461
▁which	-462
ac	-463
ort	-464
▁As	-465
That	-466
▁pass	-467
▁wind	-468
▁Ar	-469
▁say	-470
!"	-471
rom	-472
▁make	-473
▁U	-474
▁sil	-475
▁child	-476
les	-477
alk	-478
▁yet	-479
▁3	-480
ving	-481
▁`	-482
▁face	-483
ier	-484
▁dr	-485
▁dead	-486
▁word	-487
irst	-488
▁must	-489
art	-490
ild	-491
iss	-492
ount	-493
▁It	-494
▁mine	-495
▁St	-496
den	-497
ee	-498
▁ri	-499
▁last	-500
▁sea	-501
▁turn	-502
llow	-503
ost	-504
▁sle	-505
ield	-506
ff	-507
▁did	-508
▁fall	-509
▁work	-510
▁war	-511
▁well	-512
▁could	-513
de	-514
▁sou	-515
▁Where	-516
ence	-517
▁land	-518
▁There	-519
ale	-520
▁You	-521
ap	-522
ty	-523
▁wr	-524
▁Q	-525
ail	-526
ons	-527
▁end	-528
land	-529
▁every	-530
anc	-531
▁gold	-532
▁stre	-533
lot	-534
▁head	-535
▁She	-536
▁hat	-537
▁answ	-538
oke	-539
ren	-540
▁tra	-541
ms	-542
▁pro	-543
▁here	-544
ool	-545
oud	-546
▁round	-547
▁heard	-548
▁those	-549
▁pre	-550
▁sweet	-551
ock	-552
ward	-553
▁its	-554
▁way	-555
▁Be	-556
▁Or	-557
,"	-558
▁morn	-559
▁dream	-560
▁still	-561
ity	-562
Th	-563
ation	-564
▁left	-565
▁under	-566
▁knight	-567
ung	-568
▁Of	-569
hing	-570
▁vo	-571
ling	-572
▁des	-573
▁rest	-574
ank	-575
▁die	-576
▁wom	-577
▁take	-578
▁first	-579
▁new	-580
▁might	-581
per	-582
▁Nor	-583
▁after	-584
az	-585
▁cle	-586
▁till	-587
row	-588
ough	-589
ueen	-590
▁If	-591
ried	-592
ross	-593
▁deep	-594
▁these	-595
iv	-596
▁po	-597
ouse	-598
▁only	-599
▁things	-600
Of	-601
▁far	-602
▁mother	-603
▁thought	-604
aught	-605
▁how	-606
▁chan	-607
▁death	-608
▁other	-609
ince	-610
▁Who	-611
ought	-612
▁song	-613
ey	-614
pen	-615
▁bro	-616
▁half	-617
▁saw	-618
oth	-619
uck	-620
▁once	-621
▁hands	-622
▁while	-623
thur	-624
▁lay	-625
xt	-626
▁Queen	-627
▁earth	-628
hes	-629
▁My	-630
▁fair	-631
▁soul	-632
ken	-633
▁fe	-634
▁many	-635
▁went	-636
▁done	-637
▁maid	-638
ber	-639
ched	-640
▁beg	-641
▁Lord	-642
He	-643
In	-644
we	-645
▁pe	-646
▁off	-647
▁sn	-648
▁Arthur	-649
ile	-650
ten	-651
ip	-652
▁What	-653
▁give	-654
▁V	-655
▁keep	-656
▁find	-657
ors	-658
▁ho	-659
▁con	-660
▁bet	-661
iend	-662
▁gra	-663
▁per	-664
▁white	-665
▁seem	-666
amp	-667
ory	-668
▁stand	-669
▁each	-670
▁such	-671
ase	-672
ign	-673
▁hour	-674
▁friend	-675
▁any	-676
▁about	-677
▁two	-678
ancelot	-679
uch	-680
ause	-681
▁knew	-682
▁wait	-683
▁ac	-684
▁bel	-685
▁mar	-686
▁mind	-687
me	-688
ub	-689
▁ste	-690
▁gu	-691
▁Eng	-692
▁-	-693
ife	-694
▁cre	-695
▁found	-696
?"	-697
▁co	-698
▁car	-699
ek	-700
ets	-701
With	-702
▁dra	-703
▁From	-704
▁ser	-705
sh	-706
▁even	-707
▁beh	-708
▁wild	-709
▁Lancelot	-710
▁By	-711
▁tell	-712
▁break	-713
oy	-714
▁alone	-715
ike	-716
mer	-717
Then	-718
▁star	-719
te	-720
ady	-721
eak	-722
▁play	-723
▁sleep	-724
▁father	-725
▁All	-726
▁tre	-727
▁run	-728
▁hold	-729
▁His	-730
ither	-731
ged	-732
▁Sir	-733
▁care	-734
▁feet	-735
▁shad	-736
akes	-737
ills	-738
▁hea	-739
▁lost	-740
▁blood	-741
os	-742
▁tou	-743
▁fell	-744
▁sing	-745
So	-746
ins	-747
▁ask	-748
▁ch	-749
▁set	-750
▁years	-751
▁2	-752
ary	-753
ple	-754
▁name	-755
pe	-756
pl	-757
▁dis	-758
ci	-759
▁Till	-760
▁days	-761
▁follow	-762
oom	-763
▁Whi	-764
▁low	-765
▁sky	-766
▁fire	-767
▁full	-768
▁whom	-769
get	-770
ird	-771
not	-772
ment	-773
▁open	-774
▁past	-775
▁stri	-776
ls	-777
▁true	-778
ash	-779
awn	-780
▁Our	-781
▁fore	-782
?'	-783
▁bu	-784
▁rose	-785
ze	-786
ian	-787
▁en	-788
▁che	-789
▁fear	-790
▁comes	-791
▁fight	-792
owers	-793
▁think	-794
▁voice	-795
its	-796
und	-797
▁wo	-798
▁cour	-799
▁Is	-800
able	-801
▁ple	-802
▁pain	-803
ting	-804
▁rem	-805
▁thro	-806
▁house	-807
▁0	-808
▁lord	-809
▁cloud	-810
▁side	-811
bs	-812
She	-813
air	-814
Be	-815
earn	-816
▁Man	-817
▁morning	-818
eneath	-819
orm	-820
ret	-821
orse	-822
light	-823
▁high	-824
▁black	-825
As	-826
▁No	-827
▁Now	-828
▁home	-829
▁leave	-830
▁~	-831
▁ex	-832
▁dust	-833
alm	-834
ern	-835
ilt	-836
rie	-837
▁Br	-838
ople	-839
▁bra	-840
▁ret	-841
▁hast	-842
▁hath	-843
▁meet	-844
▁among	-845
▁water	-846
sel	-847
pped	-848
▁bar	-849
vil	-850
▁cur	-851
▁been	-852
▁behind	-853
eds	-854
ump	-855
▁cry	-856
!)	-857
eace	-858
ever	-859
owed	-860
▁eye	-861
▁kiss	-862
▁took	-863
▁answered	-864
▁Tr	-865
▁hel	-866
▁talk	-867
▁wall	-868
▁field	-869
▁right	-870
▁golden	-871
hy	-872
▁At	-873
imes	-874
▁Her	-875
▁ere	-876
▁red	-877
▁ver	-878
attle	-879
▁loved	-880
▁Sp	-881
▁pri	-882
▁road	-883
▁seen	-884
We	-885
ange	-886
ring	-887
ying	-888
cause	-889
▁Pr	-890
▁three	-891
My	-892
iled	-893
▁Ear	-894
▁whe	-895
▁touch	-896
ans	-897
eth	-898
men	-899
▁te	-900
▁hall	-901
▁much	-902
▁rain	-903
▁knows	-904
II	-905
▁dro	-906
▁gone	-907
▁wood	-908
▁river	-909
the	-910
▁dou	-911
aster	-912
▁roll	-913
▁thine	-914
▁cannot	-915
ared	-916
▁Hea	-917
▁bab	-918
▁char	-919
▁em	-920
▁Let	-921
▁slow	-922
▁stood	-923
▁words	-924
ats	-925
▁Ch	-926
▁im	-927
▁sec	-928
▁none	-929
ont	-930
▁ad	-931
▁dri	-932
▁died	-933
▁pray	-934
bl	-935
elt	-936
ope	-937
ween	-938
▁Not	-939
▁hard	-940
▁speak	-941
▁watch	-942
med	-943
aint	-944
▁sum	-945
▁above	-946
▁sword	-947
▁woman	-948
▁against	-949
▁brother	-950
Who	-951
ift	-952
inn	-953
ute	-954
ions	-955
outh	-956
orrow	-957
▁arms	-958
▁king	-959
▁live	-960
iver	-961
ters	-962
▁cra	-963
▁fly	-964
▁hon	-965
▁tri	-966
▁power	-967
day	-968
▁Sha	-969
▁bur	-970
▁kind	-971
▁5	-972
▁De	-973
ains	-974
▁mus	-975
▁best	-976
▁dear	-977
be	-978
cl	-979
ens	-980
▁gi	-981
What	-982
▁clear	-983
▁people	-984
▁return	-985
▁though	-986
Or	-987
▁Yet	-988
tered	-989
▁foot	-990
▁moon	-991
▁learn	-992
▁tears	-993
▁beneath	-994
uth	-995
There	-996
▁This	-997
man	-998
▁Oh	-999
▁aw	-1000
ious	-1001
▁unt	-1002
▁cast	-1003
▁most	-1004
▁sail	-1005
bt	-1006
ush	-1007
▁ra	-1008
▁art	-1009
▁blind	-1010
▁himself	-1011
oof	-1012
ppy	-1013
▁dawn	-1014
▁door	-1015
▁mark	-1016
▁bound	-1017
▁place	-1018
irth	-1019
sand	-1020
yond	-1021
▁Thy	-1022
asure	-1023
▁Gods	-1024
▁less	-1025
▁walk	-1026
▁Heaven	-1027
▁answer	-1028
On	-1029
St	-1030
head	-1031
ress	-1032
▁How	-1033
▁arm	-1034
▁sit	-1035
▁cold	-1036
▁flower	-1037
ert	-1038
▁joy	-1039
▁pur	-1040
▁use	-1041
owing	-1042
▁gave	-1043
▁bring	-1044
▁young	-1045
▁called	-1046
▁silent	-1047
ots	-1048
ature	-1049
▁strong	-1050
▁thousand	-1051
!'	-1052
▁ru	-1053
arden	-1054
▁fool	-1055
▁faith	-1056
gg	-1057
els	-1058
ily	-1059
▁told	-1060
▁whis	-1061
▁Death	-1062
▁count	-1063
▁crown	-1064
..	-1065
▁Bo	-1066
ways	-1067
▁fre	-1068
▁lie	-1069
▁why	-1070
▁nothing	-1071
atch	-1072
iles	-1073
well	-1074
▁near	-1075
▁same	-1076
▁peace	-1077
▁women	-1078
▁ve	-1079
▁lau	-1080
▁son	-1081
▁shame	-1082
▁sound	-1083
ix	-1084
▁free	-1085
▁seas	-1086
▁stars	-1087
▁breath	-1088
▁heaven	-1089
▁knights	-1090
fl	-1091
der	-1092
night	-1093
▁Thou	-1094
▁burn	-1095
▁very	-1096
undred	-1097
▁along	-1098
ody	-1099
omet	-1100
▁sat	-1101
▁wife	-1102
▁being	-1103
▁court	-1104
▁myself	-1105
▁shadow	-1106
ah	-1107
oun	-1108
unn	-1109
dden	-1110
▁win	-1111
▁since	-1112
apt	-1113
ult	-1114
cked	-1115
read	-1116
▁bit	-1117
▁thus	-1118
▁shore	-1119
▁flowers	-1120
ane	-1121
ces	-1122
eas	-1123
ger	-1124
ates	-1125
ened	-1126
▁air	-1127
▁get	-1128
my	-1129
cks	-1130
for	-1131
▁hum	-1132
▁sad	-1133
▁thr	-1134
under	-1135
▁part	-1136
▁year	-1137
▁spoke	-1138
▁trail	-1139
▁within	-1140
▁children	-1141
All	-1142
als	-1143
ised	-1144
▁One	-1145
▁comm	-1146
▁sick	-1147
▁beyond	-1148
up	-1149
From	-1150
▁put	-1151
illed	-1152
▁sold	-1153
ict	-1154
let	-1155
▁Bl	-1156
▁gent	-1157
▁sure	-1158
aughter	-1159
aked	-1160
▁mer	-1161
▁pride	-1162
▁sight	-1163
▁desire	-1164
oop	-1165
uty	-1166
▁Do	-1167
ourn	-1168
▁mid	-1169
ering	-1170
▁heat	-1171
▁forth	-1172
▁horse	-1173
▁noble	-1174
▁smile	-1175
▁across	-1176
▁England	-1177
Not	-1178
▁flo	-1179
▁bird	-1180
▁laid	-1181
▁cried	-1182
▁sudden	-1183
▁between	-1184
iam	-1185
nds	-1186
sed	-1187
ides	-1188
lish	-1189
▁pay	-1190
oment	-1191
▁hills	-1192
▁turned	-1193
so	-1194
ixt	-1195
▁ran	-1196
▁tow	-1197
▁Love	-1198
▁blue	-1199
▁forg	-1200
▁grie	-1201
▁late	-1202
▁Which	-1203
▁moment	-1204
:'	-1205
ia	-1206
irit	-1207
▁help	-1208
▁close	-1209
▁mount	-1210
▁music	-1211
▁stream	-1212
▁hundred	-1213
av	-1214
ks	-1215
umb	-1216
ones	-1217
▁col	-1218
▁bear	-1219
▁born	-1220
▁hair	-1221
▁path	-1222
▁times	-1223
▁English	-1224
▁without	-1225
XX	-1226
ced	-1227
kes	-1228
▁Re	-1229
▁et	-1230
ired	-1231
▁lips	-1232
▁rode	-1233
selves	-1234
▁spake	-1235
▁worth	-1236
▁summer	-1237
hip	-1238
lin	-1239
They	-1240
▁bea	-1241
▁loo	-1242
▁held	-1243
▁read	-1244
rought	-1245
▁Earth	-1246
▁doubt	-1247
▁trust	-1248
▁breast	-1249
bed	-1250
oll	-1251
▁Cl	-1252
▁Un	-1253
enty	-1254
▁fle	-1255
▁tak	-1256
eside	-1257
When	-1258
ines	-1259
ngth	-1260
▁pra	-1261
▁sin	-1262
ained	-1263
utter	-1264
▁feel	-1265
▁poor	-1266
▁truth	-1267
▁wrong	-1268
▁Mother	-1269
Her	-1270
ote	-1271
▁happy	-1272
▁strange	-1273
ated	-1274
▁got	-1275
atter	-1276
▁mean	-1277
▁broken	-1278
▁maiden	-1279
▁brought	-1280
,`	-1281
No	-1282
▁Wh	-1283
rist	-1284
▁fur	-1285
ished	-1286
▁need	-1287
▁North	-1288
▁grass	-1289
',	-1290
cess	-1291
most	-1292
▁dim	-1293
▁hid	-1294
▁draw	-1295
▁lies	-1296
▁mist	-1297
▁snow	-1298
▁want	-1299
▁makes	-1300
mb	-1301
har	-1302
ray	-1303
unk	-1304
side	-1305
▁dam	-1306
▁law	-1307
▁met	-1308
bo	-1309
fect	-1310
▁tem	-1311
▁lift	-1312
▁lives	-1313
▁storm	-1314
▁always	-1315
It	-1316
by	-1317
You	-1318
ded	-1319
rew	-1320
▁Ex	-1321
▁Ho	-1322
amel	-1323
hood	-1324
ours	-1325
▁boy	-1326
▁broke	-1327
▁strength	-1328
6:	-1329
If	-1330
eps	-1331
ges	-1332
iff	-1333
▁Al	-1334
▁el	-1335
▁app	-1336
Where	-1337
iness	-1338
▁lead	-1339
▁change	-1340
1:	-1341
2:	-1342
7:	-1343
uns	-1344
▁En	-1345
ands	-1346
▁gro	-1347
▁pal	-1348
▁sent	-1349
▁Their	-1350
▁battle	-1351
▁darkness	-1352
0:	-1353
3:	-1354
4:	-1355
Is	-1356
lt	-1357
sy	-1358
Nor	-1359
uff	-1360
athe	-1361
▁lim	-1362
alley	-1363
ister	-1364
▁sign	-1365
▁vill	-1366
gether	-1367
▁known	-1368
▁plain	-1369
▁gentle	-1370
▁wonder	-1371
▁herself	-1372
5:	-1373
His	-1374
aim	-1375
int	-1376
▁Lo	-1377
▁Sh	-1378
ches	-1379
▁Mer	-1380
▁Old	-1381
▁bed	-1382
▁lar	-1383
▁mon	-1384
▁rep	-1385
▁hate	-1386
▁stra	-1387
▁wish	-1388
▁began	-1389
▁bloom	-1390
▁quest	-1391
▁wheel	-1392
▁Christ	-1393
▁gather	-1394
▁looked	-1395
▁silver	-1396
▁friends	-1397
ays	-1398
ial	-1399
▁Ah	-1400
ater	-1401
▁beat	-1402
▁below	-1403
▁green	-1404
▁quick	-1405
▁somet	-1406
▁whose	-1407
▁beside	-1408
▁dreams	-1409
▁wrought	-1410
cept	-1411
▁don	-1412
aking	-1413
▁crow	-1414
▁pure	-1415
▁dying	-1416
▁flame	-1417
▁sorrow	-1418
vy	-1419
ead	-1420
ief	-1421
ught	-1422
▁Gaw	-1423
▁gir	-1424
▁won	-1425
▁blow	-1426
▁both	-1427
▁four	-1428
▁tale	-1429
▁While	-1430
▁bless	-1431
▁thing	-1432
▁silence	-1433
gs	-1434
li	-1435
alt	-1436
▁Fl	-1437
ense	-1438
part	-1439
▁ent	-1440
▁squ	-1441
otten	-1442
▁dist	-1443
▁goes	-1444
▁grow	-1445
▁town	-1446
▁wise	-1447
▁fought	-1448
▁hearts	-1449
vel	-1450
▁wi	-1451
ined	-1452
▁mur	-1453
▁hope	-1454
▁just	-1455
▁master	-1456
▁tender	-1457
Tw	-1458
ne	-1459
no	-1460
umn	-1461
unt	-1462
▁Id	-1463
▁Me	-1464
alth	-1465
azed	-1466
king	-1467
▁hur	-1468
ashed	-1469
▁drew	-1470
▁fanc	-1471
▁ring	-1472
▁save	-1473
▁tong	-1474
▁flood	-1475
▁scorn	-1476
▁wound	-1477
▁honour	-1478
▁living	-1479
che	-1480
ien	-1481
▁Go	-1482
This	-1483
reat	-1484
▁swe	-1485
ember	-1486
▁Will	-1487
▁rise	-1488
▁sake	-1489
▁show	-1490
▁whole	-1491
▁forget	-1492
▁together	-1493
ery	-1494
▁Ab	-1495
▁Ye	-1496
chan	-1497
▁Law	-1498
▁dew	-1499
▁empt	-1500
▁wear	-1501
▁weep	-1502
▁guard	-1503
▁waste	-1504
▁secret	-1505
pr	-1506
Whi	-1507
cho	-1508
Till	-1509
▁reg	-1510
▁rid	-1511
▁comp	-1512
▁scar	-1513
▁self	-1514
▁shut	-1515
▁vain	-1516
▁often	-1517
▁smoke	-1518
▁state	-1519
▁bright	-1520
▁slowly	-1521
▁spirit	-1522
▁neither	-1523
▁thunder	-1524
▁6	-1525
oot	-1526
uit	-1527
fter	-1528
vice	-1529
▁del	-1530
▁East	-1531
▁bell	-1532
▁cont	-1533
▁fail	-1534
▁pres	-1535
▁sang	-1536
▁Light	-1537
▁gloom	-1538
▁seemed	-1539
▁whisper	-1540
▁pleasure	-1541
Had	-1542
Was	-1543
oss	-1544
▁Se	-1545
▁ill	-1546
▁par	-1547
ening	-1548
▁Lady	-1549
▁Time	-1550
▁book	-1551
▁wand	-1552
ations	-1553
▁small	-1554
▁youth	-1555
▁soldier	-1556
dom	-1557
▁id	-1558
eech	-1559
rest	-1560
▁lab	-1561
▁lad	-1562
▁mad	-1563
▁shr	-1564
▁ten	-1565
cient	-1566
▁hill	-1567
▁tree	-1568
▁beast	-1569
▁drink	-1570
▁given	-1571
▁laugh	-1572
▁another	-1573
By	-1574
oh	-1575
leep	-1576
like	-1577
oman	-1578
▁Com	-1579
anced	-1580
▁Here	-1581
▁form	-1582
▁move	-1583
▁glory	-1584
▁moved	-1585
▁songs	-1586
▁better	-1587
▁evening	-1588
▁mountain	-1589
),	-1590
sp	-1591
ann	-1592
que	-1593
wise	-1594
▁cho	-1595
▁fal	-1596
▁fit	-1597
▁ter	-1598
▁Some	-1599
▁clos	-1600
▁does	-1601
▁fold	-1602
▁grew	-1603
▁holy	-1604
▁unto	-1605
▁cross	-1606
▁naked	-1607
▁taken	-1608
▁leaves	-1609
▁village	-1610
gu	-1611
,--	-1612
ped	-1613
▁Gu	-1614
ayed	-1615
oney	-1616
▁bus	-1617
▁etc	-1618
▁fin	-1619
▁jud	-1620
▁rec	-1621
ortal	-1622
▁bore	-1623
▁disc	-1624
▁hide	-1625
▁loves	-1626
▁woods	-1627
yr	-1628
ron	-1629
ured	-1630
▁May	-1631
▁bid	-1632
pping	-1633
where	-1634
▁city	-1635
▁fast	-1636
▁fled	-1637
▁sand	-1638
▁thri	-1639
▁toil	-1640
▁used	-1641
▁wide	-1642
▁doors	-1643
▁thick	-1644
▁Prince	-1645
arn	-1646
aded	-1647
▁Ida	-1648
geant	-1649
ushed	-1650
▁corn	-1651
▁inde	-1652
▁loud	-1653
▁prom	-1654
▁trou	-1655
▁wake	-1656
▁bride	-1657
▁crowd	-1658
▁grace	-1659
▁grief	-1660
▁ground	-1661
▁speech	-1662
une	-1663
ices	-1664
▁ris	-1665
▁Song	-1666
▁else	-1667
▁felt	-1668
▁glad	-1669
▁rock	-1670
▁tide	-1671
▁Shall	-1672
▁mouth	-1673
▁walls	-1674
▁spread	-1675
▁delight	-1676
▁perfect	-1677
ky	-1678
Yet	-1679
ips	-1680
ram	-1681
▁Gl	-1682
ason	-1683
come	-1684
▁Was	-1685
▁ble	-1686
▁min	-1687
▁vis	-1688
▁wit	-1689
▁boat	-1690
▁bold	-1691
▁dare	-1692
▁gall	-1693
▁lady	-1694
▁clean	-1695
▁Garden	-1696
▁hollow	-1697
▁indeed	-1698
▁Because	-1699
▁underst	-1700
ony	-1701
rail	-1702
tern	-1703
▁Him	-1704
▁cut	-1705
▁mem	-1706
▁sim	-1707
▁spe	-1708
aying	-1709
▁brid	-1710
▁bull	-1711
▁port	-1712
▁race	-1713
▁roar	-1714
▁wave	-1715
▁weak	-1716
▁human	-1717
▁flying	-1718
▁praise	-1719
▁ancient	-1720
▁because	-1721
▁shadows	-1722
At	-1723
▁7	-1724
ked	-1725
vin	-1726
▁Are	-1727
▁Red	-1728
▁Ser	-1729
▁bow	-1730
▁pat	-1731
▁wed	-1732
ining	-1733
▁baby	-1734
▁begg	-1735
▁gate	-1736
▁ride	-1737
▁bitter	-1738
How	-1739
Our	-1740
dle	-1741
▁Sw	-1742
aves	-1743
ifts	-1744
ning	-1745
vent	-1746
▁Sea	-1747
▁act	-1748
▁Like	-1749
▁crew	-1750
▁echo	-1751
▁gray	-1752
▁jest	-1753
▁line	-1754
▁murm	-1755
▁pale	-1756
▁soft	-1757
incess	-1758
▁Camel	-1759
▁grave	-1760
▁hours	-1761
▁serve	-1762
▁tower	-1763
▁utter	-1764
▁wrath	-1765
▁Merlin	-1766
▁beauty	-1767
▁passed	-1768
▁toward	-1769
An	-1770
ib	-1771
ru	-1772
sc	-1773
but	-1774
iet	-1775
irt	-1776
lly	-1777
rop	-1778
▁Le	-1779
▁ir	-1780
ames	-1781
▁Men	-1782
▁div	-1783
▁kne	-1784
▁van	-1785
▁evil	-1786
▁fier	-1787
▁fill	-1788
▁neck	-1789
▁ways	-1790
▁week	-1791
▁asked	-1792
▁belie	-1793
▁lived	-1794
▁garden	-1795
▁something	-1796
Bl	-1797
ses	-1798
hold	-1799
host	-1800
road	-1801
▁Sun	-1802
▁body	-1803
▁list	-1804
▁lone	-1805
▁room	-1806
▁runs	-1807
▁stro	-1808
ertain	-1809
▁birth	-1810
▁going	-1811
▁Through	-1812
▁laughter	-1813
mp	-1814
tw	-1815
Nay	-1816
ald	-1817
aze	-1818
esh	-1819
▁Up	-1820
▁jo	-1821
ants	-1822
born	-1823
vere	-1824
▁Day	-1825
▁six	-1826
▁sur	-1827
▁wre	-1828
arrow	-1829
▁Hell	-1830
▁bare	-1831
▁guns	-1832
▁shri	-1833
▁kings	-1834
▁twenty	-1835
▁followed	-1836
▁themselves	-1837
eng	-1838
irc	-1839
gain	-1840
ghed	-1841
ries	-1842
▁Ere	-1843
▁Tom	-1844
▁dry	-1845
▁wet	-1846
cious	-1847
▁Enid	-1848
▁Your	-1849
▁bank	-1850
▁coun	-1851
▁ears	-1852
▁kill	-1853
▁warm	-1854
▁empty	-1855
▁large	-1856
▁twice	-1857
▁common	-1858
▁waters	-1859
Now	-1860
att	-1861
Than	-1862
ales	-1863
fort	-1864
oned	-1865
ream	-1866
▁Ger	-1867
▁Out	-1868
▁hig	-1869
▁sto	-1870
▁wis	-1871
ching	-1872
lands	-1873
▁West	-1874
▁kept	-1875
▁next	-1876
▁roof	-1877
▁rule	-1878
▁seek	-1879
▁broad	-1880
▁cheek	-1881
▁stone	-1882
▁wings	-1883
▁forest	-1884
▁spring	-1885
▁passion	-1886
▁understand	-1887
og	-1888
zz	-1889
---	-1890
Yea	-1891
alf	-1892
ims	-1893
set	-1894
▁Qu	-1895
▁hu	-1896
▁Mar	-1897
▁Viv	-1898
iling	-1899
neath	-1900
▁bree	-1901
▁mess	-1902
▁myst	-1903
▁rich	-1904
▁ship	-1905
▁west	-1906
▁wine	-1907
▁wors	-1908
▁aside	-1909
▁carry	-1910
▁shade	-1911
▁yield	-1912
▁Before	-1913
▁Though	-1914
▁caught	-1915
▁chance	-1916
▁coming	-1917
▁fields	-1918
▁simple	-1919
▁strike	-1920
▁thrice	-1921
▁watched	-1922
▁remember	-1923
Sw	-1924
ax	-1925
ait	-1926
oul	-1927
rer	-1928
res	-1929
use	-1930
wor	-1931
aced	-1932
aces	-1933
angu	-1934
ards	-1935
hest	-1936
▁acc	-1937
▁eas	-1938
▁hop	-1939
▁hot	-1940
▁led	-1941
▁mis	-1942
Which	-1943
▁Once	-1944
▁fame	-1945
▁girl	-1946
▁leaf	-1947
▁mood	-1948
▁nest	-1949
▁send	-1950
▁yell	-1951
iamond	-1952
▁Round	-1953
▁dance	-1954
▁flesh	-1955
▁fresh	-1956
▁press	-1957
▁reach	-1958
▁clouds	-1959
▁shield	-1960
▁Camelot	-1961
cc	-1962
ys	-1963
III	-1964
gle	-1965
Your	-1966
aine	-1967
ives	-1968
rown	-1969
▁Mem	-1970
▁Why	-1971
▁age	-1972
▁bad	-1973
▁eat	-1974
▁mel	-1975
▁res	-1976
▁sac	-1977
onder	-1978
▁Four	-1979
▁Holy	-1980
▁harp	-1981
▁lose	-1982
▁paid	-1983
▁sink	-1984
▁soon	-1985
▁veil	-1986
▁wept	-1987
▁South	-1988
▁fancy	-1989
▁ghost	-1990
▁lands	-1991
▁prove	-1992
▁fallen	-1993
▁height	-1994
▁hidden	-1995
▁lights	-1996
▁murmur	-1997
▁single	-1998
▁fathers	-1999
▁waiting	-2000
ai	-2001
cy	-2002
ds	-2003
go	-2004
▁X	-2005
Let	-2006
asp	-2007
gue	-2008
ned	-2009
zen	-2010
▁Pl	-2011
ally	-2012
▁Had	-2013
▁Per	-2014
▁dep	-2015
▁fro	-2016
▁hun	-2017
▁pet	-2018
▁tea	-2019
athed	-2020
itten	-2021
▁Life	-2022
▁camp	-2023
▁clot	-2024
▁gain	-2025
▁horn	-2026
▁mill	-2027
▁false	-2028
▁fruit	-2029
▁means	-2030
▁seven	-2031
▁palace	-2032
▁saying	-2033
▁valley	-2034
▁yourself	-2035
amb	-2036
ask	-2037
ere	-2038
olk	-2039
som	-2040
▁Ad	-2041
▁ed	-2042
iful	-2043
race	-2044
vell	-2045
▁cru	-2046
▁unc	-2047
arted	-2048
eless	-2049
ledge	-2050
ments	-2051
▁Capt	-2052
▁Hear	-2053
▁Than	-2054
▁fing	-2055
▁iron	-2056
▁lean	-2057
▁mock	-2058
▁bosom	-2059
▁brand	-2060
▁dread	-2061
▁dress	-2062
▁neigh	-2063
▁seems	-2064
▁Vivien	-2065
▁surely	-2066
▁heathen	-2067
▁laughed	-2068
ipp	-2069
kin	-2070
▁Sc	-2071
Like	-2072
edom	-2073
ocks	-2074
▁See	-2075
▁dec	-2076
▁dus	-2077
▁gar	-2078
▁gay	-2079
▁ord	-2080
▁spo	-2081
▁sub	-2082
Would	-2083
anger	-2084
oured	-2085
▁bond	-2086
▁clim	-2087
▁inst	-2088
▁lamp	-2089
▁lest	-2090
▁pear	-2091
▁sons	-2092
▁sple	-2093
▁stir	-2094
inging	-2095
▁Files	-2096
▁Table	-2097
▁charm	-2098
▁pleas	-2099
▁steam	-2100
▁waves	-2101
attered	-2102
▁Gawain	-2103
▁cattle	-2104
▁charge	-2105
▁others	-2106
▁sister	-2107
▁stands	-2108
▁tongue	-2109
▁country	-2110
▁diamond	-2111
bb	-2112
kn	-2113
elp	-2114
lit	-2115
ude	-2116
▁Pe	-2117
▁Tw	-2118
▁dw	-2119
▁la	-2120
irty	-2121
lier	-2122
▁Del	-2123
▁Yes	-2124
▁den	-2125
▁hen	-2126
▁tho	-2127
thing	-2128
ungle	-2129
utumn	-2130
▁Only	-2131
▁ease	-2132
▁gift	-2133
▁mere	-2134
▁prop	-2135
▁wond	-2136
▁skies	-2137
▁trees	-2138
▁Spring	-2139
▁mighty	-2140
▁Geraint	-2141
'-	-2142
Oh	-2143
pes	-2144
ual	-2145
▁10	-2146
ails	-2147
▁Bed	-2148
ivere	-2149
▁Brit	-2150
▁Come	-2151
▁brow	-2152
▁didn	-2153
▁fare	-2154
▁ford	-2155
▁hung	-2156
▁says	-2157
Before	-2158
▁Kings	-2159
▁These	-2160
▁money	-2161
▁sense	-2162
▁takes	-2163
▁weary	-2164
▁falling	-2165
▁Gardener	-2166
.)	-2167
Sh	-2168
af	-2169
mn	-2170
Thy	-2171
nie	-2172
ror	-2173
Come	-2174
ener	-2175
held	-2176
▁Col	-2177
▁emb	-2178
▁gle	-2179
▁lot	-2180
▁try	-2181
ience	-2182
▁Down	-2183
▁Over	-2184
▁Rome	-2185
▁Thee	-2186
▁blew	-2187
▁conf	-2188
▁cons	-2189
▁desp	-2190
▁grey	-2191
▁hang	-2192
▁host	-2193
▁quar	-2194
▁rang	-2195
▁twil	-2196
▁wars	-2197
elleas	-2198
ourney	-2199
▁blame	-2200
▁built	-2201
▁faces	-2202
▁gates	-2203
▁loose	-2204
▁mould	-2205
▁winds	-2206
▁behold	-2207
▁brings	-2208
▁either	-2209
▁itself	-2210
▁lonely	-2211
▁neighb	-2212
▁please	-2213
▁prayer	-2214
▁shriek	-2215
▁Bedivere	-2216
▁twilight	-2217
Am	-2218
aj	-2219
iz	-2220
had	-2221
ley	-2222
nto	-2223
Here	-2224
ades	-2225
body	-2226
cean	-2227
hant	-2228
idow	-2229
ifty	-2230
more	-2231
omes	-2232
rent	-2233
resh	-2234
used	-2235
vers	-2236
▁Psy	-2237
▁cor	-2238
▁imp	-2239
▁sch	-2240
orses	-2241
umber	-2242
▁Earl	-2243
▁Have	-2244
▁Head	-2245
▁Look	-2246
▁Take	-2247
▁also	-2248
▁calm	-2249
▁doom	-2250
▁east	-2251
▁helm	-2252
▁miss	-2253
▁step	-2254
▁birds	-2255
▁build	-2256
▁burst	-2257
▁cause	-2258
▁dwell	-2259
▁greet	-2260
▁price	-2261
▁quiet	-2262
▁shook	-2263
▁trump	-2264
▁Psyche	-2265
▁market	-2266
▁winter	-2267
▁changed	-2268
▁knowing	-2269
▁present	-2270
▁service	-2271
▁Princess	-2272
▁question	-2273
▁forgotten	-2274
dy	-2275
any	-2276
ape	-2277
aul	-2278
cts	-2279
ner	-2280
tar	-2281
▁12	-2282
▁Fr	-2283
▁Mo	-2284
amed	-2285
ding	-2286
kind	-2287
ntil	-2288
rous	-2289
▁Jud	-2290
▁foe	-2291
▁inc	-2292
▁tru	-2293
▁woe	-2294
ating	-2295
cross	-2296
▁circ	-2297
▁harm	-2298
▁noon	-2299
▁pity	-2300
▁prof	-2301
▁shar	-2302
▁woke	-2303
tering	-2304
▁Memor	-2305
▁Three	-2306
▁brows	-2307
▁front	-2308
▁grown	-2309
▁langu	-2310
▁least	-2311
▁slain	-2312
▁track	-2313
▁twain	-2314
▁around	-2315
▁enough	-2316
▁labour	-2317
▁memory	-2318
▁nature	-2319
▁reason	-2320
▁splend	-2321
▁Pelleas	-2322
▁greater	-2323
▁thyself	-2324
▁straight	-2325
;'	-2326
Ay	-2327
ny	-2328
of	-2329
One	-2330
aff	-2331
eep	-2332
iol	-2333
olt	-2334
ued	-2335
▁11	-2336
ures	-2337
▁Par	-2338
▁big	-2339
▁nur	-2340
▁spr	-2341
ached	-2342
ities	-2343
thern	-2344
▁Wind	-2345
▁beam	-2346
▁dies	-2347
▁glim	-2348
▁idle	-2349
▁ours	-2350
istram	-2351
▁Devil	-2352
▁apart	-2353
▁claim	-2354
▁deeds	-2355
▁falls	-2356
▁fleet	-2357
▁limbs	-2358
▁realm	-2359
▁shout	-2360
▁Master	-2361
▁Nature	-2362
▁moving	-2363
▁rolled	-2364
▁street	-2365
▁vision	-2366
▁voices	-2367
▁weight	-2368
▁bloomin	-2369
▁lightly	-2370
▁Memoriam	-2371
▁Tristram	-2372
Ah	-2373
jo	-2374
bar	-2375
fts	-2376
ipt	-2377
ode	-2378
ohn	-2379
ulf	-2380
▁13	-2381
▁Bu	-2382
▁Ro	-2383
▁ce	-2384
Twas	-2385
ells	-2386
ison	-2387
roud	-2388
vern	-2389
vour	-2390
▁Bab	-2391
▁clo	-2392
▁ham	-2393
▁inf	-2394
▁rhy	-2395
ances	-2396
ction	-2397
gment	-2398
iment	-2399
ossom	-2400
▁Back	-2401
▁bind	-2402
▁cent	-2403
▁cool	-2404
▁dumb	-2405
▁five	-2406
▁foam	-2407
▁lust	-2408
▁main	-2409
▁reve	-2410
▁blown	-2411
▁bones	-2412
▁drown	-2413
▁hence	-2414
▁mirth	-2415
▁slept	-2416
▁steel	-2417
▁story	-2418
▁swift	-2419
▁whisp	-2420
▁beggar	-2421
▁crying	-2422
▁hearth	-2423
▁learned	-2424
▁looking	-2425
▁therefore	-2426
la	-2427
cal	-2428
uss	-2429
▁Sm	-2430
Some	-2431
aily	-2432
cher	-2433
iest	-2434
ises	-2435
rant	-2436
then	-2437
▁Can	-2438
▁Kab	-2439
▁ago	-2440
▁cou	-2441
▁isn	-2442
▁pen	-2443
▁pit	-2444
▁uns	-2445
house	-2446
▁Bobs	-2447
▁Each	-2448
▁John	-2449
▁ling	-2450
▁repl	-2451
▁White	-2452
▁bread	-2453
▁curse	-2454
▁drift	-2455
▁drunk	-2456
▁faint	-2457
▁heads	-2458
▁heavy	-2459
▁merry	-2460
▁prize	-2461
▁souls	-2462
▁works	-2463
▁making	-2464
▁raised	-2465
▁second	-2466
▁strife	-2467
▁talked	-2468
▁wealth	-2469
▁command	-2470
▁endless	-2471
▁foolish	-2472
▁shining	-2473
▁trouble	-2474
Sp	-2475
io	-2476
oe	-2477
ph	-2478
Tis	-2479
ala	-2480
bes	-2481
bit	-2482
eal	-2483
mit	-2484
rid	-2485
ugg	-2486
▁"'	-2487
▁14	-2488
▁15	-2489
Came	-2490
ging	-2491
nded	-2492
onel	-2493
oved	-2494
ully	-2495
unny	-2496
▁ass	-2497
▁dar	-2498
▁dog	-2499
▁nea	-2500
Their	-2501
azing	-2502
inted	-2503
liest	-2504
riage	-2505
▁ceas	-2506
▁clam	-2507
▁loss	-2508
▁shot	-2509
▁catch	-2510
▁chain	-2511
▁knees	-2512
▁spark	-2513
▁spent	-2514
▁write	-2515
▁yours	-2516
▁opened	-2517
▁rather	-2518
▁scarce	-2519
▁struck	-2520
▁yonder	-2521
▁Brother	-2522
▁believe	-2523
▁certain	-2524
▁passing	-2525
▁promise	-2526
▁breaking	-2527
arf	-2528
cil	-2529
mas	-2530
off	-2531
ues	-2532
ume	-2533
yal	-2534
you	-2535
Down	-2536
bled	-2537
ffer	-2538
fold	-2539
roll	-2540
▁Har	-2541
▁Ind	-2542
▁cas	-2543
▁cup	-2544
▁eag	-2545
▁jew	-2546
▁mil	-2547
▁mot	-2548
▁ref	-2549
▁rul	-2550
▁wel	-2551
▁Army	-2552
▁High	-2553
▁Long	-2554
▁Mark	-2555
▁Pass	-2556
▁ball	-2557
▁cock	-2558
▁drag	-2559
▁drop	-2560
▁frag	-2561
▁lass	-2562
▁purp	-2563
▁rust	-2564
▁seal	-2565
▁tall	-2566
▁vast	-2567
▁Great	-2568
▁brain	-2569
▁brook	-2570
▁cease	-2571
▁cliff	-2572
▁holds	-2573
▁keeps	-2574
▁meant	-2575
▁breeze	-2576
▁closed	-2577
▁nights	-2578
▁showed	-2579
▁sought	-2580
▁started	-2581
▁business	-2582
co	-2583
...	-2584
act	-2585
gel	-2586
▁ay	-2587
Made	-2588
Thou	-2589
ires	-2590
▁ain	-2591
▁fam	-2592
▁fut	-2593
▁imm	-2594
▁mir	-2595
▁tum	-2596
▁und	-2597
Sweet	-2598
ighed	-2599
▁boys	-2600
▁capt	-2601
▁cost	-2602
▁dove	-2603
▁fort	-2604
▁knee	-2605
▁pine	-2606
▁plan	-2607
▁stop	-2608
▁tear	-2609
▁vows	-2610
ashion	-2611
▁Sleep	-2612
▁blows	-2613
▁bugle	-2614
▁cheer	-2615
▁faded	-2616
▁force	-2617
▁lance	-2618
▁needs	-2619
▁noise	-2620
▁ships	-2621
▁steps	-2622
▁thorn	-2623
▁trade	-2624
▁tried	-2625
inevere	-2626
▁Father	-2627
▁matter	-2628
▁mortal	-2629
▁blossom	-2630
▁worship	-2631
▁wounded	-2632
▁knowledge	-2633
!--	-2634
.''	-2635
Sir	-2636
Why	-2637
cha	-2638
ept	-2639
haw	-2640
hil	-2641
iew	-2642
lic	-2643
now	-2644
oor	-2645
▁16	-2646
Were	-2647
ests	-2648
illy	-2649
lets	-2650
▁fat	-2651
▁pap	-2652
▁sho	-2653
▁smo	-2654
▁top	-2655
▁unb	-2656
eness	-2657
iding	-2658
known	-2659
ories	-2660
place	-2661
usion	-2662
▁Give	-2663
▁babe	-2664
▁deck	-2665
▁game	-2666
▁sees	-2667
▁sell	-2668
▁whir	-2669
ancing	-2670
▁Kabul	-2671
▁Whose	-2672
▁drive	-2673
▁names	-2674
▁ready	-2675
▁shalt	-2676
▁shape	-2677
▁smote	-2678
▁breaks	-2679
▁corner	-2680
▁desert	-2681
▁honest	-2682
▁throne	-2683
▁burning	-2684
▁comfort	-2685
▁crowned	-2686
▁replied	-2687
▁forehead	-2688
▁midnight	-2689
▁returned	-2690
▁suddenly	-2691
▁wandering	-2692
Ar	-2693
Cl	-2694
bi	-2695
gr	-2696
ug	-2697
Far	-2698
noc	-2699
rif	-2700
rig	-2701
rod	-2702
▁sy	-2703
ists	-2704
itor	-2705
rows	-2706
time	-2707
▁cow	-2708
▁pip	-2709
▁tin	-2710
Among	-2711
nding	-2712
▁Ever	-2713
▁Fair	-2714
▁Gawd	-2715
▁easy	-2716
▁link	-2717
▁luck	-2718
▁mead	-2719
▁pack	-2720
▁rank	-2721
▁slay	-2722
▁stat	-2723
▁sung	-2724
gainst	-2725
utiful	-2726
▁Power	-2727
▁Would	-2728
▁aught	-2729
▁cover	-2730
▁drawn	-2731
▁drove	-2732
▁guess	-2733
▁lower	-2734
▁ocean	-2735
▁order	-2736
▁rough	-2737
▁shake	-2738
▁wrote	-2739
Through	-2740
athered	-2741
▁Little	-2742
▁abroad	-2743
▁divine	-2744
▁lifted	-2745
▁prayed	-2746
▁purple	-2747
▁remain	-2748
▁school	-2749
▁taught	-2750
▁worlds	-2751
▁million	-2752
▁touched	-2753
▁Guinevere	-2754
.:	-2755
Up	-2756
ams	-2757
arm	-2758
bey	-2759
udd	-2760
▁Ne	-2761
▁pa	-2762
anch	-2763
eard	-2764
foot	-2765
hile	-2766
hind	-2767
iers	-2768
ored	-2769
oust	-2770
room	-2771
uous	-2772
▁Bel	-2773
▁Bet	-2774
▁bee	-2775
▁bud	-2776
▁few	-2777
alled	-2778
ament	-2779
asted	-2780
eared	-2781
ement	-2782
icked	-2783
ollow	-2784
onour	-2785
▁Last	-2786
▁Ring	-2787
▁ages	-2788
▁band	-2789
▁fate	-2790
▁hers	-2791
▁pret	-2792
▁reck	-2793
▁spur	-2794
▁River	-2795
▁Roman	-2796
▁Since	-2797
▁Still	-2798
▁bonds	-2799
▁calls	-2800
▁floor	-2801
▁shell	-2802
▁stret	-2803
▁swear	-2804
▁fierce	-2805
▁horses	-2806
▁ladies	-2807
▁league	-2808
▁narrow	-2809
▁seeing	-2810
▁stones	-2811
▁Captain	-2812
▁darling	-2813
▁welcome	-2814
▁Christmas	-2815
Ab	-2816
Fl	-2817
Re	-2818
esy	-2819
ler	-2820
she	-2821
uzz	-2822
Full	-2823
aged	-2824
angs	-2825
ares	-2826
eter	-2827
herd	-2828
long	-2829
pril	-2830
rees	-2831
ster	-2832
▁Bar	-2833
▁Din	-2834
▁Don	-2835
▁Far	-2836
▁buy	-2837
▁gri	-2838
▁mag	-2839
▁oft	-2840
ester	-2841
ounds	-2842
▁Even	-2843
▁Gold	-2844
▁Make	-2845
▁Thus	-2846
▁dusk	-2847
▁feed	-2848
▁folk	-2849
▁mast	-2850
▁moan	-2851
▁pict	-2852
▁seat	-2853
▁seed	-2854
▁temp	-2855
chance	-2856
orious	-2857
▁enter	-2858
▁fault	-2859
▁fears	-2860
▁feast	-2861
▁fifty	-2862
▁fires	-2863
▁flies	-2864
▁flung	-2865
▁gives	-2866
▁joust	-2867
▁mourn	-2868
▁pluck	-2869
▁saved	-2870
▁tired	-2871
▁until	-2872
ountain	-2873
▁course	-2874
▁echoes	-2875
▁goodly	-2876
▁kindly	-2877
▁kissed	-2878
▁loosed	-2879
▁proper	-2880
▁thirty	-2881
▁carried	-2882
▁distant	-2883
▁forward	-2884
▁letters	-2885
▁meaning	-2886
▁purpose	-2887
▁smiling	-2888
▁stranger	-2889
▁thoughts	-2890
Ye	-2891
:--	-2892
cei	-2893
ham	-2894
ils	-2895
ule	-2896
Will	-2897
alls	-2898
elve	-2899
orts	-2900
orus	-2901
pple	-2902
rose	-2903
vant	-2904
▁Bre	-2905
▁Bur	-2906
▁Lea	-2907
▁Lil	-2908
▁Two	-2909
▁oak	-2910
▁wan	-2911
oples	-2912
▁Mary	-2913
▁Turn	-2914
▁anew	-2915
▁chur	-2916
▁fine	-2917
▁heed	-2918
▁palm	-2919
▁ruin	-2920
▁shat	-2921
▁stay	-2922
Though	-2923
▁April	-2924
▁altar	-2925
▁anger	-2926
▁begin	-2927
▁brake	-2928
▁brood	-2929
▁daily	-2930
▁depth	-2931
▁knife	-2932
▁short	-2933
▁turns	-2934
uttered	-2935
▁Jungle	-2936
▁barren	-2937
▁colour	-2938
▁failed	-2939
▁filled	-2940
▁longer	-2941
▁naught	-2942
▁sunset	-2943
▁temple	-2944
▁content	-2945
▁dreamed	-2946
▁unknown	-2947
▁weeping	-2948
▁farewell	-2949
",	-2950
sm	-2951
Are	-2952
Too	-2953
aws	-2954
ems	-2955
ids	-2956
▁Ed	-2957
▁Fa	-2958
▁ta	-2959
ague	-2960
enee	-2961
hall	-2962
ient	-2963
ifle	-2964
oose	-2965
ping	-2966
what	-2967
▁Wor	-2968
▁fet	-2969
▁hor	-2970
▁kin	-2971
field	-2972
llows	-2973
thren	-2974
▁Adam	-2975
▁Pack	-2976
▁True	-2977
▁Upon	-2978
▁Word	-2979
▁edge	-2980
▁enem	-2981
▁flow	-2982
▁food	-2983
▁gild	-2984
▁huge	-2985
▁hump	-2986
▁lily	-2987
▁mile	-2988
▁nobl	-2989
▁sole	-2990
▁summ	-2991
▁vict	-2992
▁wilt	-2993
hantom	-2994
unning	-2995
▁Grail	-2996
▁State	-2997
▁board	-2998
▁early	-2999
▁etern	-3000
▁glass	-3001
▁grain	-3002
▁judge	-3003
▁looks	-3004
▁shine	-3005
▁spear	-3006
▁steal	-3007
▁warri	-3008
▁worse	-3009
arewell	-3010
▁People	-3011
▁ceased	-3012
▁glance	-3013
▁having	-3014
▁listen	-3015
▁shrine	-3016
▁towers	-3017
▁breathe	-3018
▁dropped	-3019
▁fashion	-3020
▁rolling	-3021
▁weather	-3022
▁careless	-3023
▁Wherefore	-3024
▁splendour	-3025
uc	-3026
how	-3027
isc	-3028
min	-3029
ott	-3030
ral	-3031
tis	-3032
▁"~	-3033
▁Wo	-3034
Have	-3035
Look	-3036
Love	-3037
Well	-3038
airs	-3039
aker	-3040
eeth	-3041
hand	-3042
hite	-3043
ided	-3044
iffe	-3045
ourt	-3046
rain	-3047
that	-3048
▁Art	-3049
▁Boh	-3050
▁Did	-3051
▁Emp	-3052
▁equ	-3053
▁god	-3054
▁ind	-3055
▁inv	-3056
▁iss	-3057
▁lip	-3058
▁nat	-3059
▁row	-3060
▁rum	-3061
▁wra	-3062
allow	-3063
aming	-3064
ength	-3065
fully	-3066
ingle	-3067
ocked	-3068
orous	-3069
▁City	-3070
▁Many	-3071
▁clay	-3072
▁laws	-3073
▁rejo	-3074
▁sank	-3075
▁slew	-3076
▁tail	-3077
▁tent	-3078
illing	-3079
inning	-3080
▁Gifts	-3081
▁Lover	-3082
▁awful	-3083
▁books	-3084
▁bowed	-3085
▁climb	-3086
▁cruel	-3087
▁flash	-3088
▁haste	-3089
▁hopes	-3090
▁lying	-3091
▁month	-3092
▁prime	-3093
▁raise	-3094
▁sides	-3095
▁south	-3096
▁sport	-3097
▁sweep	-3098
▁yearn	-3099
▁autumn	-3100
▁bridge	-3101
▁couldn	-3102
▁flight	-3103
▁letter	-3104
▁served	-3105
▁slight	-3106
▁smiles	-3107
▁square	-3108
▁vanish	-3109
▁whence	-3110
▁worthy	-3111
▁Colonel	-3112
▁mankind	-3113
▁message	-3114
▁phantom	-3115
▁turning	-3116
▁breathed	-3117
▁creature	-3118
▁shoulder	-3119
Se	-3120
Un	-3121
ye	-3122
▁!	-3123
bre	-3124
civ	-3125
gin	-3126
irm	-3127
rel	-3128
ric	-3129
▁Ir	-3130
▁Sl	-3131
▁av	-3132
aman	-3133
arer	-3134
aths	-3135
came	-3136
seen	-3137
sing	-3138
▁Bay	-3139
▁Kam	-3140
▁Pri	-3141
▁ang	-3142
▁ban	-3143
▁fun	-3144
▁gun	-3145
▁lit	-3146
▁yon	-3147
after	-3148
boots	-3149
imson	-3150
mered	-3151
rence	-3152
right	-3153
udder	-3154
▁Cain	-3155
▁Came	-3156
▁Chan	-3157
▁Gala	-3158
▁Half	-3159
▁More	-3160
▁Stre	-3161
▁Thro	-3162
▁Well	-3163
▁bent	-3164
▁bone	-3165
▁dism	-3166
▁duty	-3167
▁earn	-3168
▁ends	-3169
▁gale	-3170
▁glit	-3171
▁grim	-3172
▁lack	-3173
▁lawn	-3174
▁poss	-3175
▁spir	-3176
▁suit	-3177
▁wing	-3178
▁worn	-3179
atched	-3180
▁After	-3181
▁Peace	-3182
▁Under	-3183
▁Water	-3184
▁beach	-3185
▁bells	-3186
▁coast	-3187
▁crack	-3188
▁cries	-3189
▁fairy	-3190
▁forms	-3191
▁later	-3192
▁lists	-3193
▁lover	-3194
▁magic	-3195
▁range	-3196
▁sharp	-3197
▁sings	-3198
▁space	-3199
▁teach	-3200
▁teeth	-3201
▁tramp	-3202
▁tread	-3203
▁Should	-3204
▁armour	-3205
▁burden	-3206
▁castle	-3207
▁favour	-3208
▁fights	-3209
▁higher	-3210
▁pearls	-3211
▁pretty	-3212
▁season	-3213
▁throat	-3214
▁wholly	-3215
▁window	-3216
▁yester	-3217
▁Johnnie	-3218
▁blessed	-3219
▁colours	-3220
▁freedom	-3221
▁further	-3222
▁highest	-3223
▁married	-3224
▁peoples	-3225
▁Sergeant	-3226
▁evermore	-3227
▁immortal	-3228
▁standing	-3229
▁whatever	-3230
▁beautiful	-3231
▁ourselves	-3232
Al	-3233
XXX	-3234
app	-3235
irs	-3236
ius	-3237
ole	-3238
oon	-3239
ury	-3240
▁Ca	-3241
▁Co	-3242
▁oh	-3243
Blow	-3244
Went	-3245
amps	-3246
itch	-3247
ites	-3248
vest	-3249
▁Fre	-3250
▁Mag	-3251
▁Sim	-3252
▁Sle	-3253
▁Son	-3254
▁Tho	-3255
▁bas	-3256
▁bay	-3257
▁pie	-3258
▁sal	-3259
▁tor	-3260
▁tur	-3261
▁val	-3262
▁vow	-3263
andal	-3264
ipped	-3265
rying	-3266
ublic	-3267
ulous	-3268
▁Iron	-3269
▁Tell	-3270
▁afar	-3271
▁coll	-3272
▁comr	-3273
▁drum	-3274
▁fain	-3275
▁flag	-3276
▁happ	-3277
▁lake	-3278
▁loot	-3279
▁mars	-3280
▁pool	-3281
▁rosy	-3282
▁sigh	-3283
▁sits	-3284
▁thin	-3285
▁tune	-3286
anches	-3287
avaine	-3288
ceived	-3289
civale	-3290
rifice	-3291
umbled	-3292
ushing	-3293
▁Etern	-3294
▁Horse	-3295
▁Never	-3296
▁Quest	-3297
▁arose	-3298
▁bliss	-3299
▁dwelt	-3300
▁faire	-3301
▁gifts	-3302
▁inter	-3303
▁march	-3304
▁nurse	-3305
▁reign	-3306
▁sails	-3307
▁shone	-3308
▁smell	-3309
▁start	-3310
▁sworn	-3311
▁tales	-3312
▁trans	-3313
▁worst	-3314
▁Across	-3315
▁Spirit	-3316
▁beheld	-3317
▁compan	-3318
▁double	-3319
▁future	-3320
▁mystic	-3321
▁rising	-3322
▁suffer	-3323
▁tumult	-3324
▁wisdom	-3325
▁yellow	-3326
▁Beneath	-3327
▁Galahad	-3328
▁despair	-3329
▁fingers	-3330
▁glimmer	-3331
▁journey	-3332
▁possess	-3333
▁springs	-3334
▁traitor	-3335
▁trumpet	-3336
▁whether	-3337
▁daughter	-3338
▁overhead	-3339
▁scattered	-3340
▁everywhere	-3341
Gl	-3342
IV	-3343
wl	-3344
Str	-3345
een	-3346
ize	-3347
nel	-3348
nes	-3349
oes	-3350
rag	-3351
Said	-3352
arch	-3353
band	-3354
ctor	-3355
ibur	-3356
kins	-3357
omas	-3358
ores	-3359
reen	-3360
rick	-3361
utty	-3362
work	-3363
▁Low	-3364
▁War	-3365
▁ash	-3366
▁bul	-3367
▁cro	-3368
▁ext	-3369
▁fog	-3370
▁mud	-3371
aring	-3372
fered	-3373
oming	-3374
unken	-3375
▁Days	-3376
▁Into	-3377
▁Road	-3378
▁Were	-3379
▁bred	-3380
▁deal	-3381
▁eyel	-3382
▁flew	-3383
▁gaze	-3384
▁goal	-3385
▁mute	-3386
▁note	-3387
▁pick	-3388
▁rail	-3389
▁safe	-3390
▁shel	-3391
morrow	-3392
overed	-3393
▁Excal	-3394
▁Glory	-3395
▁Hills	-3396
▁Lords	-3397
▁Peter	-3398
▁Trail	-3399
▁Uther	-3400
▁Widow	-3401
▁Woman	-3402
▁beard	-3403
▁bower	-3404
▁breed	-3405
▁brown	-3406
▁crime	-3407
▁devil	-3408
▁flick	-3409
▁forty	-3410
▁frost	-3411
▁guide	-3412
▁hears	-3413
▁image	-3414
▁innoc	-3415
▁level	-3416
▁lords	-3417
▁stick	-3418
▁sware	-3419
▁third	-3420
▁whist	-3421
▁Thomas	-3422
▁branch	-3423
▁denied	-3424
▁fellow	-3425
▁kisses	-3426
▁length	-3427
▁minute	-3428
▁rotten	-3429
▁sacred	-3430
▁smiled	-3431
▁thirst	-3432
▁crimson	-3433
▁drunken	-3434
▁reached	-3435
▁stately	-3436
▁strikes	-3437
▁brothers	-3438
▁judgment	-3439
▁pleasant	-3440
▁sleeping	-3441
▁Christian	-3442
▁Excalibur	-3443
▁Percivale	-3444
~"	-3445
?--	-3446
Bel	-3447
Bet	-3448
God	-3449
Per	-3450
esc	-3451
ese	-3452
ett	-3453
ich	-3454
mon	-3455
ras	-3456
▁Am	-3457
▁iv	-3458
Hath	-3459
ages	-3460
agon	-3461
aled	-3462
bles	-3463
cock	-3464
haps	-3465
inks	-3466
rief	-3467
ubal	-3468
unes	-3469
wixt	-3470
yril	-3471
▁Pat	-3472
▁Yea	-3473
▁ber	-3474
▁cat	-3475
▁due	-3476
▁ele	-3477
▁eng	-3478
▁fig	-3479
▁ice	-3480
▁pop	-3481
▁vap	-3482
▁woo	-3483
adise	-3484
ajest	-3485
bique	-3486
inned	-3487
ipper	-3488
ition	-3489
orian	-3490
otted	-3491
ouses	-3492
rible	-3493
ushes	-3494
▁Coun	-3495
▁Fool	-3496
▁Good	-3497
▁cave	-3498
▁deer	-3499
▁forl	-3500
▁fulf	-3501
▁haze	-3502
▁hurt	-3503
▁hush	-3504
▁load	-3505
▁milk	-3506
▁news	-3507
▁pled	-3508
▁view	-3509
▁wail	-3510
▁weed	-3511
▁wolf	-3512
▁Child	-3513
▁First	-3514
▁Night	-3515
▁Taman	-3516
▁Tommy	-3517
▁Until	-3518
▁angry	-3519
▁arise	-3520
▁blade	-3521
▁boats	-3522
▁cares	-3523
▁creep	-3524
▁drows	-3525
▁frail	-3526
▁guest	-3527
▁slope	-3528
▁snake	-3529
▁speed	-3530
▁stoop	-3531
▁sweat	-3532
▁table	-3533
▁troop	-3534
▁truly	-3535
▁Except	-3536
▁dreary	-3537
▁gazing	-3538
▁jousts	-3539
▁killed	-3540
▁sleeps	-3541
▁spoken	-3542
▁strugg	-3543
▁theirs	-3544
▁wander	-3545
▁Lavaine	-3546
▁blowing	-3547
▁clamour	-3548
▁leaving	-3549
▁manhood	-3550
▁measure	-3551
▁running	-3552
▁singing	-3553
▁sitting	-3554
▁tempest	-3555
▁written	-3556
▁branches	-3557
▁downward	-3558
▁gracious	-3559
▁treasure	-3560
▁sacrifice	-3561
▁sweetness	-3562
ex	-3563
sl	-3564
zy	-3565
~,	-3566
See	-3567
ect	-3568
emb	-3569
pel	-3570
raw	-3571
▁dy	-3572
▁ty	-3573
VIII	-3574
ased	-3575
fall	-3576
gues	-3577
ivil	-3578
maid	-3579
olly	-3580
oops	-3581
osed	-3582
rand	-3583
teen	-3584
unge	-3585
utch	-3586
▁---	-3587
▁Ask	-3588
▁Ast	-3589
▁Con	-3590
▁Lie	-3591
▁Pag	-3592
▁Sat	-3593
▁Squ	-3594
▁aff	-3595
▁aid	-3596
▁ast	-3597
▁att	-3598
▁dig	-3599
▁fee	-3600
▁hol	-3601
▁ins	-3602
▁int	-3603
▁mix	-3604
▁mod	-3605
▁rel	-3606
▁rub	-3607
These	-3608
ardon	-3609
eling	-3610
hered	-3611
inner	-3612
ision	-3613
ondon	-3614
order	-3615
oughs	-3616
plain	-3617
rayed	-3618
▁Dead	-3619
▁Just	-3620
▁Land	-3621
▁Lest	-3622
▁Line	-3623
▁anon	-3624
▁base	-3625
▁bill	-3626
▁buck	-3627
▁comb	-3628
▁foes	-3629
▁heel	-3630
▁hoof	-3631
▁mate	-3632
▁nigh	-3633
▁page	-3634
▁pier	-3635
▁poet	-3636
▁tend	-3637
▁wore	-3638
isters	-3639
outher	-3640
▁Irish	-3641
▁Watch	-3642
▁alien	-3643
▁blast	-3644
▁craft	-3645
▁diffe	-3646
▁equal	-3647
▁fiery	-3648
▁flank	-3649
▁gazed	-3650
▁gener	-3651
▁girls	-3652
▁groan	-3653
▁loyal	-3654
▁mercy	-3655
▁proof	-3656
▁share	-3657
▁shoot	-3658
▁spare	-3659
▁steer	-3660
▁stern	-3661
▁stole	-3662
▁train	-3663
▁tremb	-3664
▁twist	-3665
▁waits	-3666
▁wants	-3667
▁weave	-3668
hearted	-3669
▁Behind	-3670
▁London	-3671
▁Ubique	-3672
▁beasts	-3673
▁danced	-3674
▁depart	-3675
▁finish	-3676
▁footst	-3677
▁fright	-3678
▁middle	-3679
▁motion	-3680
▁proved	-3681
▁regret	-3682
▁sailor	-3683
▁softly	-3684
▁twelve	-3685
▁unseen	-3686
▁cunning	-3687
▁forlorn	-3688
▁heavens	-3689
▁hunting	-3690
▁madness	-3691
▁painted	-3692
▁fountain	-3693
▁gathered	-3694
▁marriage	-3695
▁presence	-3696
▁whispers	-3697
▁shoulders	-3698
▁wherefore	-3699
▁underneath	-3700
Lo	-3701
Ne	-3702
VI	-3703
May	-3704
eve	-3705
fle	-3706
gan	-3707
ker	-3708
mes	-3709
new	-3710
omb	-3711
omp	-3712
rol	-3713
rue	-3714
rum	-3715
sea	-3716
sen	-3717
▁Er	-3718
▁Wr	-3719
▁XX	-3720
▁ah	-3721
▁er	-3722
----	-3723
Upon	-3724
bear	-3725
cell	-3726
eary	-3727
eyed	-3728
gels	-3729
give	-3730
iced	-3731
ints	-3732
lott	-3733
ming	-3734
niol	-3735
riad	-3736
sels	-3737
sses	-3738
▁Buy	-3739
▁Car	-3740
▁New	-3741
▁Wal	-3742
▁cap	-3743
▁laz	-3744
▁por	-3745
▁scr	-3746
▁ung	-3747
While	-3748
acing	-3749
ailed	-3750
ander	-3751
anged	-3752
bling	-3753
idden	-3754
odies	-3755
roken	-3756
shine	-3757
white	-3758
▁Fate	-3759
▁Fell	-3760
▁Fort	-3761
▁Jane	-3762
▁Keep	-3763
▁Sons	-3764
▁Soul	-3765
▁Whom	-3766
▁bade	-3767
▁batt	-3768
▁beer	-3769
▁bide	-3770
▁case	-3771
▁deed	-3772
▁fern	-3773
▁flas	-3774
▁isle	-3775
▁jack	-3776
▁keen	-3777
▁lent	-3778
▁mare	-3779
▁oath	-3780
▁salt	-3781
▁trem	-3782
▁void	-3783
▁warn	-3784
angled	-3785
inking	-3786
oldier	-3787
ording	-3788
▁Black	-3789
▁Cyril	-3790
▁March	-3791
▁borne	-3792
▁chari	-3793
▁ended	-3794
▁maids	-3795
▁ought	-3796
▁paint	-3797
▁palms	-3798
▁plung	-3799
▁ripen	-3800
▁screw	-3801
▁stain	-3802
▁swell	-3803
▁thank	-3804
ameless	-3805
▁bought	-3806
▁damsel	-3807
▁health	-3808
▁mantle	-3809
▁plains	-3810
▁powers	-3811
▁strove	-3812
▁wedded	-3813
omething	-3814
▁Freedom	-3815
▁Ringlet	-3816
▁Shalott	-3817
▁fellows	-3818
▁roaring	-3819
▁section	-3820
▁stopped	-3821
▁wonders	-3822
▁Northern	-3823
▁anything	-3824
▁distance	-3825
▁sunshine	-3826
▁thinking	-3827
▁otherwise	-3828
).	-3829
Er	-3830
Go	-3831
gl	-3832
Bey	-3833
Ere	-3834
con	-3835
fed	-3836
het	-3837
lar	-3838
ops	-3839
par	-3840
thw	-3841
thy	-3842
val	-3843
ymn	-3844
zed	-3845
▁Ba	-3846
▁ma	-3847
More	-3848
aken	-3849
aste	-3850
cing	-3851
erve	-3852
hips	-3853
lace	-3854
lins	-3855
mede	-3856
mers	-3857
omin	-3858
ords	-3859
pect	-3860
quer	-3861
raid	-3862
ssed	-3863
they	-3864
▁Any	-3865
▁Che	-3866
▁Pre	-3867
▁Ste	-3868
▁Thr	-3869
▁ank	-3870
▁def	-3871
▁fed	-3872
▁fer	-3873
▁hus	-3874
▁hut	-3875
▁leg	-3876
▁pea	-3877
▁rag	-3878
▁rev	-3879
▁ric	-3880
▁vex	-3881
▁wid	-3882
aimed	-3883
aling	-3884
earnt	-3885
irtue	-3886
odred	-3887
pherd	-3888
rench	-3889
twixt	-3890
▁Deep	-3891
▁Full	-3892
▁Home	-3893
▁Such	-3894
▁Tree	-3895
▁Wolf	-3896
▁affl	-3897
▁crag	-3898
▁dewy	-3899
▁dogs	-3900
▁envy	-3901
▁flit	-3902
▁gets	-3903
▁join	-3904
▁melt	-3905
▁nine	-3906
▁pers	-3907
▁pipe	-3908
▁post	-3909
▁prow	-3910
▁pull	-3911
▁sins	-3912
▁soil	-3913
▁yoke	-3914
Beyond	-3915
Should	-3916
atters	-3917
cience	-3918
ealous	-3919
ingled	-3920
linson	-3921
rigade	-3922
velled	-3923
▁Chief	-3924
▁Could	-3925
▁Faith	-3926
▁Order	-3927
▁Runny	-3928
▁Truth	-3929
▁Yniol	-3930
▁barge	-3931
▁brute	-3932
▁chair	-3933
▁cheap	-3934
▁chest	-3935
▁clasp	-3936
▁decks	-3937
▁droop	-3938
▁eight	-3939
▁fling	-3940
▁heels	-3941
▁inner	-3942
▁isles	-3943
▁lines	-3944
▁match	-3945
▁proud	-3946
▁roofs	-3947
▁signs	-3948
▁silly	-3949
▁stead	-3950
▁swore	-3951
▁tells	-3952
▁tight	-3953
▁wakes	-3954
outhern	-3955
▁France	-3956
▁Honour	-3957
▁Sleary	-3958
▁become	-3959
▁begins	-3960
▁deeper	-3961
▁endure	-3962
▁except	-3963
▁famous	-3964
▁finger	-3965
▁larger	-3966
▁learnt	-3967
▁linger	-3968
▁loving	-3969
▁nearer	-3970
▁orders	-3971
▁places	-3972
▁played	-3973
▁prince	-3974
▁public	-3975
▁shiver	-3976
▁solemn	-3977
▁stayed	-3978
▁thresh	-3979
▁Kingdom	-3980
▁entered	-3981
▁fancies	-3982
▁flashed	-3983
▁lighted	-3984
▁wakeful	-3985
▁warrior	-3986
▁whereby	-3987
▁whereon	-3988
▁doubtful	-3989
▁faithful	-3990
▁fighting	-3991
▁sergeant	-3992
▁Runnymede	-3993
▁Tomlinson	-3994
▁breathing	-3995
▁neighbour	-3996
▁sometimes	-3997
En	-3998
br	-3999
Ser	-4000
bly	-4001
ege	-4002
ene	-4003
ety	-4004
fer	-4005
mir	-4006
xen	-4007
▁Ay	-4008
▁Ly	-4009
Even	-4010
Good	-4011
Half	-4012
Take	-4013
bbed	-4014
ldom	-4015
olat	-4016
outs	-4017
over	-4018
oyal	-4019
rake	-4020
this	-4021
unch	-4022
uzzy	-4023
with	-4024
wood	-4025
yage	-4026
year	-4027
▁Bea	-4028
▁Gor	-4029
▁Pro	-4030
▁Rem	-4031
▁Sax	-4032
▁Sil	-4033
▁Str	-4034
▁esc	-4035
▁job	-4036
▁kit	-4037
▁tar	-4038
▁wha	-4039
Being	-4040
Until	-4041
ading	-4042
andom	-4043
emand	-4044
entle	-4045
ifted	-4046
onies	-4047
ricks	-4048
urely	-4049
▁Ball	-4050
▁Char	-4051
▁Dark	-4052
▁Eden	-4053
▁Fire	-4054
▁Gate	-4055
▁Hold	-4056
▁Khan	-4057
▁Main	-4058
▁Most	-4059
▁Phil	-4060
▁bask	-4061
▁belt	-4062
▁busy	-4063
▁cred	-4064
▁doub	-4065
▁dull	-4066
▁flee	-4067
▁glow	-4068
▁hail	-4069
▁meek	-4070
▁pill	-4071
▁purs	-4072
▁sett	-4073
▁skin	-4074
▁slip	-4075
▁tiny	-4076
▁viol	-4077
ajesty	-4078
erable	-4079
▁Brown	-4080
▁Crown	-4081
▁Stand	-4082
▁Thine	-4083
▁added	-4084
▁alive	-4085
▁boast	-4086
▁chill	-4087
▁cloak	-4088
▁dared	-4089
▁eager	-4090
▁float	-4091
▁folds	-4092
▁frame	-4093
▁grove	-4094
▁grows	-4095
▁halls	-4096
▁homes	-4097
▁honey	-4098
▁meets	-4099
▁mirac	-4100
▁paper	-4101
▁plays	-4102
▁rhyme	-4103
▁ridge	-4104
▁rifle	-4105
▁rings	-4106
▁shock	-4107
▁shows	-4108
▁solit	-4109
▁spite	-4110
▁spray	-4111
▁today	-4112
▁widow	-4113
▁Empire	-4114
▁Golden	-4115
▁afraid	-4116
▁almost	-4117
▁asleep	-4118
▁buried	-4119
▁comple	-4120
▁frozen	-4121
▁gained	-4122
▁harken	-4123
▁lesson	-4124
▁overth	-4125
▁passes	-4126
▁random	-4127
▁sawThe	-4128
▁shower	-4129
▁strain	-4130
▁thinks	-4131
▁thrust	-4132
▁voyage	-4133
▁waited	-4134
▁walked	-4135
▁wouldn	-4136
▁Astolat	-4137
▁Between	-4138
▁Brigade	-4139
▁Britain	-4140
▁beggars	-4141
▁dancing	-4142
▁desires	-4143
▁drowned	-4144
▁enemies	-4145
▁fairest	-4146
▁jealous	-4147
▁pleased	-4148
▁quarter	-4149
▁shudder	-4150
▁slumber	-4151
▁spirits	-4152
▁streets	-4153
▁believed	-4154
▁shepherd	-4155
▁following	-4156
▁gentlemen	-4157
▁wonderful	-4158
▁glittering	-4159
gy	-4160
ik	-4161
ki	-4162
uk	-4163
ws	-4164
Dis	-4165
aps	-4166
eed	-4167
lid	-4168
uly	-4169
yrn	-4170
zes	-4171
▁17	-4172
▁Ha	-4173
▁Us	-4174
Dear	-4175
Ring	-4176
Such	-4177
cial	-4178
cted	-4179
fast	-4180
issa	-4181
iter	-4182
line	-4183
llen	-4184
loth	-4185
nigh	-4186
quet	-4187
ract	-4188
roke	-4189
tend	-4190
unga	-4191
utes	-4192
were	-4193
▁Big	-4194
▁Has	-4195
▁Rom	-4196
▁Whe	-4197
▁abs	-4198
▁deg	-4199
▁est	-4200
▁lan	-4201
▁obs	-4202
▁pul	-4203
▁var	-4204
▁wip	-4205
Right	-4206
aches	-4207
arest	-4208
chant	-4209
inded	-4210
lying	-4211
ustom	-4212
venty	-4213
▁Aust	-4214
▁Baby	-4215
▁Boff	-4216
▁Dear	-4217
▁Fear	-4218
▁Hall	-4219
▁Made	-4220
▁Mind	-4221
▁Russ	-4222
▁Seas	-4223
▁amid	-4224
▁bees	-4225
▁boon	-4226
▁chat	-4227
▁decl	-4228
▁duck	-4229
▁fade	-4230
▁flat	-4231
▁hilt	-4232
▁meat	-4233
▁nose	-4234
▁obey	-4235
▁pair	-4236
▁reap	-4237
▁stag	-4238
▁whim	-4239
thwart	-4240
▁About	-4241
▁Above	-4242
▁Willy	-4243
▁brass	-4244
▁brief	-4245
▁chief	-4246
▁clash	-4247
▁cloth	-4248
▁crest	-4249
▁deeps	-4250
▁drank	-4251
▁dusty	-4252
▁fools	-4253
▁gross	-4254
▁haven	-4255
▁horns	-4256
▁moves	-4257
▁outer	-4258
▁peril	-4259
▁rocks	-4260
▁score	-4261
▁sheep	-4262
▁shoal	-4263
▁sinks	-4264
▁store	-4265
▁walks	-4266
▁wills	-4267
Because	-4268
lighted	-4269
▁Autumn	-4270
▁Beyond	-4271
▁Follow	-4272
▁Modred	-4273
▁butter	-4274
▁floods	-4275
▁forgot	-4276
▁galley	-4277
▁gilded	-4278
▁hardly	-4279
▁island	-4280
▁meadow	-4281
▁mocked	-4282
▁planet	-4283
▁plough	-4284
▁priest	-4285
▁profit	-4286
▁scream	-4287
▁spears	-4288
▁starry	-4289
▁stroke	-4290
▁virtue	-4291
▁wasted	-4292
Sergeant	-4293
▁Council	-4294
▁Florian	-4295
▁eternal	-4296
▁eyelids	-4297
▁follows	-4298
▁knowest	-4299
▁languid	-4300
▁maidens	-4301
▁parting	-4302
▁quickly	-4303
▁sparrow	-4304
▁useless	-4305
▁warning	-4306
▁wearied	-4307
▁working	-4308
▁brethren	-4309
▁courtesy	-4310
▁glorious	-4311
▁laughing	-4312
▁remained	-4313
▁vanished	-4314
▁gathering	-4315
▁moonlight	-4316
▁shattered	-4317
▁slaughter	-4318
▁somewhere	-4319
▁whispered	-4320
▁yesterday	-4321
-'	-4322
:"	-4323
Ch	-4324
IX	-4325
Im	-4326
ns	-4327
!),	-4328
Low	-4329
VII	-4330
aur	-4331
bow	-4332
can	-4333
dge	-4334
hin	-4335
ina	-4336
rap	-4337
ros	-4338
sha	-4339
tin	-4340
ton	-4341
▁Ge	-4342
▁Kn	-4343
▁cy	-4344
bell	-4345
chid	-4346
cken	-4347
eart	-4348
hard	-4349
ible	-4350
ical	-4351
ider	-4352
ooks	-4353
orge	-4354
rael	-4355
▁Cle	-4356
▁Cur	-4357
▁End	-4358
▁Hel	-4359
▁Jen	-4360
▁Med	-4361
▁Pha	-4362
▁Tor	-4363
▁cam	-4364
▁dev	-4365
▁eve	-4366
▁fem	-4367
▁gen	-4368
▁lil	-4369
▁med	-4370
▁mut	-4371
▁net	-4372
▁oil	-4373
▁sam	-4374
▁ves	-4375
▁yea	-4376
About	-4377
Twixt	-4378
arded	-4379
bound	-4380
eries	-4381
flies	-4382
igned	-4383
inged	-4384
isher	-4385
laine	-4386
ousin	-4387
roach	-4388
▁Cold	-4389
▁Dane	-4390
▁Prop	-4391
▁Rose	-4392
▁Town	-4393
▁bark	-4394
▁bend	-4395
▁brim	-4396
▁debt	-4397
▁doth	-4398
▁gear	-4399
▁hunt	-4400
▁hymn	-4401
▁keel	-4402
▁lazy	-4403
▁liqu	-4404
▁moor	-4405
▁ones	-4406
▁oont	-4407
▁peak	-4408
▁perf	-4409
▁pond	-4410
▁riot	-4411
▁root	-4412
▁rush	-4413
▁silk	-4414
▁sire	-4415
▁sore	-4416
▁supp	-4417
▁trod	-4418
▁wont	-4419
▁writ	-4420
elissa	-4421
headed	-4422
▁Angel	-4423
▁Every	-4424
▁Judge	-4425
▁Leave	-4426
▁Those	-4427
▁Young	-4428
▁agony	-4429
▁aloud	-4430
▁awake	-4431
▁canst	-4432
▁cargo	-4433
▁didst	-4434
▁drops	-4435
▁dwarf	-4436
▁grand	-4437
▁grant	-4438
▁knock	-4439
▁marry	-4440
▁monst	-4441
▁north	-4442
▁notes	-4443
▁paced	-4444
▁pangs	-4445
▁pearl	-4446
▁petty	-4447
▁plant	-4448
▁renew	-4449
▁saith	-4450
▁snowy	-4451
▁vague	-4452
▁wreck	-4453
▁Govern	-4454
▁Things	-4455
▁action	-4456
▁aweary	-4457
▁awhile	-4458
▁became	-4459
▁boughs	-4460
▁church	-4461
▁costly	-4462
▁cousin	-4463
▁easily	-4464
▁folded	-4465
▁growth	-4466
▁helmet	-4467
▁hither	-4468
▁houses	-4469
▁hunter	-4470
▁jewels	-4471
▁lovely	-4472
▁months	-4473
▁myriad	-4474
▁pardon	-4475
▁parted	-4476
▁ruined	-4477
▁search	-4478
▁sighed	-4479
▁terror	-4480
▁thanks	-4481
▁thence	-4482
▁vapour	-4483
▁wreath	-4484
attering	-4485
uttering	-4486
▁Majesty	-4487
▁Swallow	-4488
▁allowed	-4489
▁bondage	-4490
▁calling	-4491
▁chanced	-4492
▁chariot	-4493
▁counsel	-4494
▁curious	-4495
▁embrace	-4496
▁glanced	-4497
▁growing	-4498
▁hearing	-4499
▁instant	-4500
▁instead	-4501
▁kingdom	-4502
▁nearest	-4503
▁patient	-4504
▁pointed	-4505
▁praised	-4506
▁remains	-4507
▁staring	-4508
▁walking	-4509
▁witness	-4510
▁Paradise	-4511
▁dropping	-4512
▁hammered	-4513
▁helpless	-4514
▁likewise	-4515
▁proputty	-4516
▁regiment	-4517
▁struggle	-4518
▁footsteps	-4519
▁household	-4520
De	-4521
HE	-4522
Sl	-4523
Wh	-4524
do	-4525
dr	-4526
oc	-4527
cut	-4528
don	-4529
dow	-4530
dra	-4531
eat	-4532
fly	-4533
gie	-4534
ics	-4535
key	-4536
leg	-4537
oft	-4538
owl	-4539
pit	-4540
wed	-4541
▁ax	-4542
▁od	-4543
Poor	-4544
Turn	-4545
addy	-4546
anny	-4547
beam	-4548
chen	-4549
emed	-4550
empt	-4551
icer	-4552
irds	-4553
ners	-4554
noon	-4555
oura	-4556
raoh	-4557
ript	-4558
rupt	-4559
rust	-4560
twas	-4561
ular	-4562
umph	-4563
vate	-4564
vels	-4565
zard	-4566
▁Arm	-4567
▁Cha	-4568
▁Dro	-4569
▁Leg	-4570
▁Lot	-4571
▁Nay	-4572
▁Put	-4573
▁Say	-4574
▁Shr	-4575
▁Sol	-4576
▁Sum	-4577
▁Too	-4578
▁amb	-4579
▁bal	-4580
▁der	-4581
▁eld	-4582
▁inn	-4583
▁lat	-4584
▁mak	-4585
▁nod	-4586
▁occ	-4587
▁pil	-4588
▁rav	-4589
▁tim	-4590
▁web	-4591
Shall	-4592
altic	-4593
amboo	-4594
amped	-4595
anned	-4596
cloth	-4597
faced	-4598
ingly	-4599
iring	-4600
nings	-4601
uckoo	-4602
udden	-4603
▁Bess	-4604
▁Comm	-4605
▁Flag	-4606
▁Ford	-4607
▁Fore	-4608
▁Hail	-4609
▁Hath	-4610
▁Must	-4611
▁Name	-4612
▁Open	-4613
▁Past	-4614
▁Said	-4615
▁Sick	-4616
▁Sing	-4617
▁Star	-4618
▁balm	-4619
▁blaz	-4620
▁cook	-4621
▁curl	-4622
▁defe	-4623
▁dest	-4624
▁fawn	-4625
▁fest	-4626
▁feud	-4627
▁fish	-4628
▁fret	-4629
▁gems	-4630
▁gown	-4631
▁lane	-4632
▁lays	-4633
▁legs	-4634
▁lend	-4635
▁lied	-4636
▁muse	-4637
▁quit	-4638
▁requ	-4639
▁spot	-4640
▁swim	-4641
▁test	-4642
▁tilt	-4643
▁wast	-4644
▁yard	-4645
Behold	-4646
agonet	-4647
isoner	-4648
unders	-4649
▁Allah	-4650
▁Alras	-4651
▁Annie	-4652
▁Blood	-4653
▁Cross	-4654
▁Dives	-4655
▁Edyrn	-4656
▁India	-4657
▁Lilia	-4658
▁Paris	-4659
▁Seven	-4660
▁Spain	-4661
▁bears	-4662
▁blaze	-4663
▁boots	-4664
▁brave	-4665
▁chase	-4666
▁clung	-4667
▁crept	-4668
▁dealt	-4669
▁desce	-4670
▁deser	-4671
▁dried	-4672
▁eagle	-4673
▁fetch	-4674
▁greed	-4675
▁heave	-4676
▁hound	-4677
▁leads	-4678
▁miles	-4679
▁moons	-4680
▁offer	-4681
▁piece	-4682
▁quite	-4683
▁resol	-4684
▁shown	-4685
▁stall	-4686
▁sunny	-4687
▁swine	-4688
▁thief	-4689
▁threw	-4690
▁tonga	-4691
▁treat	-4692
▁trick	-4693
▁windy	-4694
andalay	-4695
utation	-4696
▁Ballad	-4697
▁Haroun	-4698
▁Sorrow	-4699
▁Street	-4700
▁Unless	-4701
▁accept	-4702
▁bamboo	-4703
▁burned	-4704
▁chains	-4705
▁choice	-4706
▁clothe	-4707
▁column	-4708
▁damned	-4709
▁darken	-4710
▁drowsy	-4711
▁female	-4712
▁missed	-4713
▁native	-4714
▁number	-4715
▁perish	-4716
▁record	-4717
▁shapes	-4718
▁silken	-4719
▁smooth	-4720
▁sphere	-4721
▁temper	-4722
▁thorns	-4723
▁wanton	-4724
▁warmth	-4725
▁wicked	-4726
aughters	-4727
▁Pharaoh	-4728
▁Romance	-4729
▁burthen	-4730
▁careful	-4731
▁charger	-4732
▁clothes	-4733
▁council	-4734
▁dearest	-4735
▁deliver	-4736
▁dischar	-4737
▁draught	-4738
▁drawing	-4739
▁earnest	-4740
▁earthly	-4741
▁forgive	-4742
▁harness	-4743
▁meeting	-4744
▁offered	-4745
▁picture	-4746
▁ringing	-4747
▁seeking	-4748
▁shelter	-4749
▁skipper	-4750
▁talking	-4751
▁younger	-4752
▁Children	-4753
▁Mandalay	-4754
▁casement	-4755
▁distress	-4756
▁melodies	-4757
▁memories	-4758
▁patience	-4759
▁princess	-4760
▁promised	-4761
▁restless	-4762
▁trumpets	-4763
▁wondrous	-4764
▁Alraschid	-4765
▁different	-4766
▁reverence	-4767
▁stainless	-4768
▁stillness	-4769
▁stretched	-4770
▁threshold	-4771
'.	-4772
;"	-4773
?)	-4774
rs	-4775
▁q	-4776
!~"	-4777
'--	-4778
--'	-4779
Del	-4780
ani	-4781
ari	-4782
asy	-4783
cle	-4784
end	-4785
hal	-4786
hel	-4787
hor	-4788
iar	-4789
lls	-4790
pet	-4791
psy	-4792
rem	-4793
roy	-4794
ste	-4795
str	-4796
uge	-4797
ura	-4798
yes	-4799
yre	-4800
▁21	-4801
▁22	-4802
▁30	-4803
▁II	-4804
▁Im	-4805
▁XL	-4806
▁`"	-4807
▁ge	-4808
Deep	-4809
Give	-4810
Mary	-4811
Once	-4812
Save	-4813
alty	-4814
ancy	-4815
aven	-4816
cast	-4817
hawk	-4818
iant	-4819
iner	-4820
iven	-4821
odge	-4822
omen	-4823
pers	-4824
rack	-4825
reed	-4826
tide	-4827
when	-4828
wind	-4829
▁Acc	-4830
▁Ass	-4831
▁Cor	-4832
▁Des	-4833
▁Loo	-4834
▁Mid	-4835
▁Off	-4836
▁Ple	-4837
▁Raj	-4838
▁Val	-4839
▁Wit	-4840
▁exp	-4841
▁hal	-4842
▁nig	-4843
▁oar	-4844
▁raw	-4845
▁spl	-4846
▁spy	-4847
Speak	-4848
acked	-4849
akura	-4850
annon	-4851
arson	-4852
athes	-4853
ceive	-4854
comes	-4855
dress	-4856
eturn	-4857
happy	-4858
ictor	-4859
inety	-4860
ising	-4861
ivers	-4862
pples	-4863
riend	-4864
scent	-4865
stone	-4866
teous	-4867
vance	-4868
while	-4869
▁Band	-4870
▁Bank	-4871
▁Bear	-4872
▁Bors	-4873
▁Cont	-4874
▁Corn	-4875
▁Fame	-4876
▁Five	-4877
▁Horn	-4878
▁Roll	-4879
▁Tarn	-4880
▁Wait	-4881
▁Went	-4882
▁Whis	-4883
▁aren	-4884
▁bars	-4885
▁bulk	-4886
▁chin	-4887
▁coal	-4888
▁dame	-4889
▁dash	-4890
▁dirt	-4891
▁dish	-4892
▁floe	-4893
▁foul	-4894
▁gird	-4895
▁goin	-4896
▁gust	-4897
▁hero	-4898
▁kick	-4899
▁kine	-4900
▁ment	-4901
▁merr	-4902
▁mixt	-4903
▁mule	-4904
▁park	-4905
▁prep	-4906
▁rapt	-4907
▁real	-4908
▁rear	-4909
▁roam	-4910
▁serv	-4911
▁sets	-4912
▁shun	-4913
▁slop	-4914
▁task	-4915
▁torn	-4916
▁worm	-4917
altern	-4918
ateful	-4919
erness	-4920
inkled	-4921
ivered	-4922
soever	-4923
▁Count	-4924
▁Court	-4925
▁Dream	-4926
▁Fairy	-4927
▁Guard	-4928
▁Gunga	-4929
▁Isolt	-4930
▁Sands	-4931
▁Simla	-4932
▁Winds	-4933
▁Youth	-4934
▁blank	-4935
▁cared	-4936
▁const	-4937
▁crazy	-4938
▁delay	-4939
▁doves	-4940
▁draws	-4941
▁dusky	-4942
▁fired	-4943
▁frown	-4944
▁giant	-4945
▁harsh	-4946
▁lawns	-4947
▁marge	-4948
▁moods	-4949
▁party	-4950
▁paths	-4951
▁plume	-4952
▁point	-4953
▁rainy	-4954
▁saint	-4955
▁sleek	-4956
▁sloth	-4957
▁snows	-4958
▁squad	-4959
▁stays	-4960
▁swing	-4961
▁weeks	-4962
▁whirl	-4963
▁woven	-4964
encefor	-4965
retched	-4966
▁Behold	-4967
▁Border	-4968
▁Gentle	-4969
▁Mainee	-4970
▁Meenee	-4971
▁Saying	-4972
▁afflic	-4973
▁asking	-4974
▁choose	-4975
▁chosen	-4976
▁cities	-4977
▁cometh	-4978
▁credit	-4979
▁crowds	-4980
▁feared	-4981
▁furrow	-4982
▁grieve	-4983
▁harlot	-4984
▁inmost	-4985
▁lances	-4986
▁learns	-4987
▁locked	-4988
▁lovers	-4989
▁mellow	-4990
▁mornin	-4991
▁onward	-4992
▁papers	-4993
▁paused	-4994
▁preach	-4995
▁pushed	-4996
▁riding	-4997
▁rights	-4998
▁saddle	-4999
▁samite	-5000
▁shores	-5001
▁sooner	-5002
▁sweeps	-5003
▁swords	-5004
▁thread	-5005
▁throng	-5006
▁washed	-5007
▁worshi	-5008
Farewell	-5009
▁British	-5010
▁battles	-5011
▁bullock	-5012
▁cleared	-5013
▁covered	-5014
▁feeling	-5015
▁gallant	-5016
▁guessed	-5017
▁husband	-5018
▁incense	-5019
▁leagues	-5020
▁longing	-5021
▁perhaps	-5022
▁private	-5023
▁rejoice	-5024
▁returns	-5025
▁sadness	-5026
▁seasons	-5027
▁slender	-5028
▁smitten	-5029
▁stirred	-5030
▁streams	-5031
▁sweeter	-5032
▁tourney	-5033
▁travell	-5034
▁triumph	-5035
ournament	-5036
▁Captains	-5037
▁Judgment	-5038
▁Kamakura	-5039
▁Southern	-5040
▁blessing	-5041
▁darkened	-5042
▁gladness	-5043
▁innocent	-5044
▁language	-5045
▁soldiers	-5046
▁terrible	-5047
▁watching	-5048
▁Something	-5049
▁lightning	-5050
▁monstrous	-5051
▁presently	-5052
▁returning	-5053
▁streaming	-5054
▁subaltern	-5055
▁weariness	-5056
▁Government	-5057
▁fellowship	-5058
▁knighthood	-5059
▁lightnings	-5060
";	-5061
5.	-5062
ef	-5063
ez	-5064
▁i	-5065
Lea	-5066
Tss	-5067
arr	-5068
asm	-5069
aun	-5070
eer	-5071
elf	-5072
ior	-5073
isy	-5074
los	-5075
opy	-5076
pro	-5077
pse	-5078
rey	-5079
ums	-5080
ups	-5081
vas	-5082
whi	-5083
▁23	-5084
▁44	-5085
▁Af	-5086
▁Dr	-5087
▁Em	-5088
High	-5089
King	-5090
anda	-5091
aris	-5092
bore	-5093
ench	-5094
erle	-5095
face	-5096
gend	-5097
hast	-5098
ited	-5099
ized	-5100
last	-5101
oral	-5102
rave	-5103
reak	-5104
rian	-5105
rier	-5106
rift	-5107
tree	-5108
udge	-5109
uits	-5110
ural	-5111
urel	-5112
▁Beg	-5113
▁Dee	-5114
▁Hob	-5115
▁Hun	-5116
▁Mad	-5117
▁Mus	-5118
▁Rep	-5119
▁Set	-5120
▁abo	-5121
▁cab	-5122
▁dot	-5123
▁exc	-5124
▁flu	-5125
▁haw	-5126
▁kid	-5127
▁lap	-5128
▁pol	-5129
▁sav	-5130
▁sez	-5131
▁sir	-5132
▁unf	-5133
▁vir	-5134
Above	-5135
Heard	-5136
Never	-5137
Whose	-5138
aints	-5139
amers	-5140
anche	-5141
apped	-5142
athom	-5143
aving	-5144
avour	-5145
borne	-5146
chers	-5147
claim	-5148
drawn	-5149
elled	-5150
inked	-5151
innie	-5152
isesa	-5153
isten	-5154
iving	-5155
nesse	-5156
rance	-5157
▁Call	-5158
▁Calm	-5159
▁Hill	-5160
▁Hope	-5161
▁Laid	-5162
▁Lyon	-5163
▁Mine	-5164
▁Save	-5165
▁Walk	-5166
▁bush	-5167
▁dipt	-5168
▁firm	-5169
▁fits	-5170
▁fixt	-5171
▁furn	-5172
▁garn	-5173
▁goat	-5174
▁gulf	-5175
▁harb	-5176
▁heap	-5177
▁heir	-5178
▁hind	-5179
▁hint	-5180
▁joys	-5181
▁keys	-5182
▁male	-5183
▁meth	-5184
▁pant	-5185
▁pens	-5186
▁plum	-5187
▁pore	-5188
▁pros	-5189
▁rare	-5190
▁risk	-5191
▁robe	-5192
▁tone	-5193
▁vine	-5194
▁wage	-5195
Seeing	-5196
eneral	-5197
erleon	-5198
ground	-5199
idered	-5200
ipping	-5201
lothed	-5202
ounded	-5203
umpets	-5204
▁Again	-5205
▁Ahmed	-5206
▁Comes	-5207
▁Danny	-5208
▁Doorm	-5209
▁Dutch	-5210
▁Hands	-5211
▁Helen	-5212
▁Press	-5213
▁Shere	-5214
▁Stone	-5215
▁Thing	-5216
▁World	-5217
▁angel	-5218
▁aware	-5219
▁belly	-5220
▁belts	-5221
▁blest	-5222
▁burnt	-5223
▁catar	-5224
▁conce	-5225
▁couch	-5226
▁desol	-5227
▁doing	-5228
▁dozen	-5229
▁exper	-5230
▁feels	-5231
▁folly	-5232
▁grasp	-5233
▁heath	-5234
▁hoard	-5235
▁hosts	-5236
▁infin	-5237
▁lamps	-5238
▁lifts	-5239
▁marks	-5240
▁marsh	-5241
▁pains	-5242
▁pause	-5243
▁prest	-5244
▁queen	-5245
▁rides	-5246
▁risen	-5247
▁shift	-5248
▁slave	-5249
▁solid	-5250
▁spell	-5251
▁steep	-5252
▁stiff	-5253
▁swept	-5254
▁tooth	-5255
▁tunes	-5256
▁wears	-5257
▁wives	-5258
Against	-5259
cellent	-5260
venture	-5261
▁Bisesa	-5262
▁Cities	-5263
▁Gorlos	-5264
▁Maggie	-5265
▁Pagett	-5266
▁Queens	-5267
▁Romany	-5268
▁amazed	-5269
▁appear	-5270
▁babble	-5271
▁betray	-5272
▁bullet	-5273
▁chapel	-5274
▁chorus	-5275
▁claims	-5276
▁coward	-5277
▁cursed	-5278
▁custom	-5279
▁dances	-5280
▁dashed	-5281
▁escape	-5282
▁genial	-5283
▁gently	-5284
▁hailed	-5285
▁jungle	-5286
▁latest	-5287
▁marvel	-5288
▁office	-5289
▁proven	-5290
▁rememb	-5291
▁reward	-5292
▁seldom	-5293
▁shrill	-5294
▁sinned	-5295
▁sounds	-5296
▁sullen	-5297
▁swings	-5298
▁taking	-5299
▁transp	-5300
▁vessel	-5301
▁waitin	-5302
▁waking	-5303
▁warned	-5304
▁worked	-5305
▁Against	-5306
▁Boffkin	-5307
▁Dagonet	-5308
▁Forgive	-5309
▁Heavens	-5310
▁Priests	-5311
▁closing	-5312
▁company	-5313
▁counted	-5314
▁crowded	-5315
▁damsels	-5316
▁deepest	-5317
▁figures	-5318
▁floated	-5319
▁foreign	-5320
▁forever	-5321
▁glowing	-5322
▁harvest	-5323
▁manners	-5324
▁meadows	-5325
▁monster	-5326
▁mystery	-5327
▁noblest	-5328
▁shaking	-5329
▁showers	-5330
▁tumbled	-5331
▁Eternity	-5332
▁comrades	-5333
▁creation	-5334
▁departed	-5335
▁earliest	-5336
▁finished	-5337
▁greatest	-5338
▁precious	-5339
▁somewhat	-5340
▁withered	-5341
▁Lyonnesse	-5342
▁afflicted	-5343
▁afternoon	-5344
▁daughters	-5345
▁fashioned	-5346
▁labouring	-5347
▁everything	-5348
▁neighbours	-5349
▁wilderness	-5350
6.	-5351
Dr	-5352
Le	-5353
Pl	-5354
Sm	-5355
lo	-5356
mo	-5357
na	-5358
po	-5359
▁z	-5360
--"	-5361
Des	-5362
Has	-5363
Heb	-5364
Sho	-5365
acc	-5366
ada	-5367
aud	-5368
box	-5369
iny	-5370
iot	-5371
irk	-5372
non	-5373
ols	-5374
ris	-5375
see	-5376
urs	-5377
war	-5378
who	-5379
yle	-5380
▁20	-5381
▁24	-5382
▁27	-5383
▁31	-5384
▁32	-5385
▁33	-5386
▁34	-5387
▁37	-5388
▁40	-5389
▁41	-5390
▁42	-5391
▁43	-5392
▁Ag	-5393
▁Ev	-5394
▁Su	-5395
....	-5396
Dark	-5397
Fair	-5398
Long	-5399
arms	-5400
cies	-5401
eman	-5402
ffic	-5403
gers	-5404
gged	-5405
ilah	-5406
iser	-5407
mber	-5408
ppin	-5409
rike	-5410
sies	-5411
stal	-5412
uilt	-5413
uing	-5414
ults	-5415
upid	-5416
urch	-5417
weep	-5418
▁Age	-5419
▁Ara	-5420
▁Got	-5421
▁Ire	-5422
▁Lit	-5423
▁Mac	-5424
▁Six	-5425
▁Uly	-5426
▁Ung	-5427
▁Way	-5428
▁ate	-5429
▁bag	-5430
▁bol	-5431
▁bub	-5432
▁fil	-5433
▁hoo	-5434
▁lee	-5435
▁log	-5436
▁nay	-5437
▁pir	-5438
▁tha	-5439
▁tit	-5440
After	-5441
Brake	-5442
Three	-5443
ainty	-5444
anner	-5445
asant	-5446
asped	-5447
bbing	-5448
board	-5449
dened	-5450
essed	-5451
hamed	-5452
ighty	-5453
ioned	-5454
itude	-5455
mates	-5456
ooled	-5457
oster	-5458
rient	-5459
uries	-5460
uring	-5461
verse	-5462
which	-5463
▁Bees	-5464
▁Disc	-5465
▁Gunn	-5466
▁Hard	-5467
▁Lost	-5468
▁Morn	-5469
▁Much	-5470
▁Port	-5471
▁Pull	-5472
▁Same	-5473
▁Wild	-5474
▁anch	-5475
▁bath	-5476
▁bows	-5477
▁cher	-5478
▁cram	-5479
▁deny	-5480
▁dews	-5481
▁diss	-5482
▁fond	-5483
▁furl	-5484
▁gull	-5485
▁haun	-5486
▁hell	-5487
▁herd	-5488
▁hood	-5489
▁hows	-5490
▁hull	-5491
▁leap	-5492
▁lock	-5493
▁mass	-5494
▁meal	-5495
▁mild	-5496
▁puff	-5497
▁ramp	-5498
▁reed	-5499
▁sens	-5500
▁shed	-5501
▁size	-5502
▁sort	-5503
▁spit	-5504
▁stem	-5505
▁stub	-5506
▁tame	-5507
▁tick	-5508
▁tied	-5509
▁tore	-5510
▁type	-5511
▁unaw	-5512
▁vale	-5513
▁wert	-5514
▁whit	-5515
▁wits	-5516
Across	-5517
Chorus	-5518
ainted	-5519
akened	-5520
angers	-5521
ankind	-5522
ashore	-5523
engers	-5524
gotten	-5525
ighted	-5526
ignant	-5527
iverse	-5528
leness	-5529
lesome	-5530
lights	-5531
minded	-5532
ndered	-5533
otting	-5534
ourish	-5535
rolled	-5536
terest	-5537
vering	-5538
▁Cheer	-5539
▁Clare	-5540
▁Fuzzy	-5541
▁Jenny	-5542
▁Kamal	-5543
▁Satan	-5544
▁Speak	-5545
▁armed	-5546
▁bared	-5547
▁beats	-5548
▁blush	-5549
▁cling	-5550
▁curls	-5551
▁doesn	-5552
▁drain	-5553
▁fever	-5554
▁fills	-5555
▁final	-5556
▁glare	-5557
▁guilt	-5558
▁hangs	-5559
▁hoary	-5560
▁issue	-5561
▁jolly	-5562
▁knelt	-5563
▁liege	-5564
▁limit	-5565
▁locks	-5566
▁lotus	-5567
▁minds	-5568
▁mound	-5569
▁munny	-5570
▁newly	-5571
▁overl	-5572
▁roads	-5573
▁roses	-5574
▁royal	-5575
▁rules	-5576
▁sands	-5577
▁shove	-5578
▁spoil	-5579
▁tails	-5580
▁tempt	-5581
▁towns	-5582
▁veins	-5583
▁weigh	-5584
▁wheat	-5585
fulness	-5586
▁Colour	-5587
▁Elaine	-5588
▁Hobden	-5589
▁Knight	-5590
▁Powers	-5591
▁Shrine	-5592
▁Sudden	-5593
▁Throne	-5594
▁Valley	-5595
▁Walter	-5596
▁Wonder	-5597
▁aboard	-5598
▁angels	-5599
▁basket	-5600
▁beaten	-5601
▁bounds	-5602
▁canvas	-5603
▁circle	-5604
▁cliffs	-5605
▁deaths	-5606
▁demand	-5607
▁dinner	-5608
▁doubts	-5609
▁dragon	-5610
▁fathom	-5611
▁gleams	-5612
▁graves	-5613
▁heaved	-5614
▁humble	-5615
▁lesser	-5616
▁longed	-5617
▁lowest	-5618
▁marble	-5619
▁marked	-5620
▁nobler	-5621
▁pledge	-5622
▁poplar	-5623
▁purcha	-5624
▁recall	-5625
▁reckon	-5626
▁rumour	-5627
▁sailed	-5628
▁shaken	-5629
▁shells	-5630
▁shouts	-5631
▁shroud	-5632
▁snatch	-5633
▁stormy	-5634
▁strait	-5635
▁wanted	-5636
▁wheels	-5637
▁Blanche	-5638
▁Delilah	-5639
▁Eternal	-5640
▁Fortune	-5641
▁General	-5642
▁Ireland	-5643
▁Islands	-5644
▁Russian	-5645
▁Singing	-5646
▁Ulysses	-5647
▁athwart	-5648
▁banquet	-5649
▁bearing	-5650
▁climbed	-5651
▁clouded	-5652
▁comrade	-5653
▁current	-5654
▁dawning	-5655
▁discern	-5656
▁fearful	-5657
▁flushed	-5658
▁fortune	-5659
▁freight	-5660
▁heights	-5661
▁keeping	-5662
▁lantern	-5663
▁mingled	-5664
▁miracle	-5665
▁moments	-5666
▁outside	-5667
▁plucked	-5668
▁plunder	-5669
▁sisters	-5670
▁stooped	-5671
▁sweetly	-5672
▁swiftly	-5673
▁tangled	-5674
▁towards	-5675
▁wayside	-5676
▁windows	-5677
▁Farewell	-5678
▁cataract	-5679
▁crescent	-5680
▁fragrant	-5681
▁glancing	-5682
▁infinite	-5683
▁reckless	-5684
▁shouting	-5685
▁sickness	-5686
▁silently	-5687
▁stronger	-5688
▁troubled	-5689
▁weakness	-5690
▁whistled	-5691
▁boundless	-5692
▁fragments	-5693
▁perchance	-5694
▁steadfast	-5695
▁trembling	-5696
);	-5697
.~	-5698
Ad	-5699
Aw	-5700
LX	-5701
Oo	-5702
XL	-5703
ao	-5704
rr	-5705
tr	-5706
uv	-5707
▁)	-5708
?''	-5709
App	-5710
Can	-5711
Cle	-5712
Con	-5713
Did	-5714
Dro	-5715
Him	-5716
LXX	-5717
Lay	-5718
Men	-5719
Old	-5720
Out	-5721
Par	-5722
Ran	-5723
Sat	-5724
Set	-5725
Two	-5726
ana	-5727
aph	-5728
bye	-5729
col	-5730
exp	-5731
ffe	-5732
flu	-5733
gun	-5734
hia	-5735
his	-5736
hur	-5737
ias	-5738
icy	-5739
ran	-5740
try	-5741
ubs	-5742
uke	-5743
utt	-5744
▁('	-5745
▁25	-5746
▁26	-5747
▁35	-5748
▁36	-5749
▁45	-5750
▁46	-5751
▁gn	-5752
▁ow	-5753
Back	-5754
Drew	-5755
Last	-5756
Must	-5757
Only	-5758
Pass	-5759
Past	-5760
Rise	-5761
Rode	-5762
Rose	-5763
Sent	-5764
Took	-5765
Whom	-5766
adar	-5767
adle	-5768
anes	-5769
aunt	-5770
beit	-5771
berg	-5772
bolt	-5773
book	-5774
bury	-5775
cont	-5776
dies	-5777
each	-5778
eled	-5779
ents	-5780
gest	-5781
guns	-5782
igar	-5783
ilty	-5784
inch	-5785
ival	-5786
lant	-5787
name	-5788
oond	-5789
pper	-5790
reek	-5791
rise	-5792
seas	-5793
sell	-5794
shad	-5795
sher	-5796
thro	-5797
upon	-5798
wall	-5799
yard	-5800
▁Baa	-5801
▁Dep	-5802
▁Dri	-5803
▁Lal	-5804
▁Nat	-5805
▁Ric	-5806
▁Sec	-5807
▁Shi	-5808
▁Tre	-5809
▁Tri	-5810
▁Vir	-5811
▁aim	-5812
▁bac	-5813
▁dip	-5814
▁fox	-5815
▁hit	-5816
▁jar	-5817
▁mas	-5818
▁mun	-5819
▁rob	-5820
▁sor	-5821
▁unw	-5822
▁vac	-5823
▁vig	-5824
▁wee	-5825
Peace	-5826
adelp	-5827
amour	-5828
angle	-5829
arela	-5830
ariat	-5831
black	-5832
boats	-5833
cloud	-5834
gging	-5835
guish	-5836
iance	-5837
icate	-5838
ified	-5839
inces	-5840
olves	-5841
otion	-5842
quent	-5843
raced	-5844
shore	-5845
smoke	-5846
umble	-5847
yrian	-5848
▁Answ	-5849
▁Burm	-5850
▁Comp	-5851
▁Conf	-5852
▁Draw	-5853
▁Eyes	-5854
▁Fall	-5855
▁Goat	-5856
▁Lake	-5857
▁None	-5858
▁Paul	-5859
▁Them	-5860
▁aged	-5861
▁alas	-5862
▁asks	-5863
▁bott	-5864
▁cart	-5865
▁cell	-5866
▁conc	-5867
▁coom	-5868
▁cott	-5869
▁dren	-5870
▁fant	-5871
▁grip	-5872
▁hire	-5873
▁hord	-5874
▁howl	-5875
▁jasm	-5876
▁lame	-5877
▁lion	-5878
▁mend	-5879
▁mire	-5880
▁peep	-5881
▁prey	-5882
▁rude	-5883
▁seaw	-5884
▁slid	-5885
▁sped	-5886
▁sque	-5887
▁stab	-5888
▁stol	-5889
▁text	-5890
▁toys	-5891
▁trib	-5892
▁trop	-5893
▁vext	-5894
▁whip	-5895
ailing	-5896
earing	-5897
eathen	-5898
uffled	-5899
▁Alone	-5900
▁Baron	-5901
▁Bless	-5902
▁Heard	-5903
▁Maker	-5904
▁Pride	-5905
▁Storm	-5906
▁Sword	-5907
▁Think	-5908
▁abide	-5909
▁aloft	-5910
▁bands	-5911
▁banks	-5912
▁check	-5913
▁chuck	-5914
▁churl	-5915
▁creed	-5916
▁drums	-5917
▁feign	-5918
▁fence	-5919
▁flush	-5920
▁flute	-5921
▁habit	-5922
▁hated	-5923
▁hurry	-5924
▁imper	-5925
▁innum	-5926
▁jewel	-5927
▁leapt	-5928
▁mists	-5929
▁named	-5930
▁reeds	-5931
▁reply	-5932
▁ruled	-5933
▁sadly	-5934
▁scour	-5935
▁secre	-5936
▁skill	-5937
▁slipt	-5938
▁split	-5939
▁stock	-5940
▁stuck	-5941
▁swall	-5942
▁talks	-5943
▁toile	-5944
▁tribe	-5945
▁troth	-5946
▁waist	-5947
▁weeds	-5948
However	-5949
ounding	-5950
venteen	-5951
▁Deever	-5952
▁Israel	-5953
▁Karela	-5954
▁Medley	-5955
▁Minden	-5956
▁Shadow	-5957
▁Silver	-5958
▁Surely	-5959
▁Victor	-5960
▁affect	-5961
▁ashore	-5962
▁bridal	-5963
▁carved	-5964
▁cleave	-5965
▁comfor	-5966
▁contin	-5967
▁danger	-5968
▁deadly	-5969
▁design	-5970
▁driven	-5971
▁fruits	-5972
▁gallop	-5973
▁helped	-5974
▁inward	-5975
▁leaped	-5976
▁lilies	-5977
▁linked	-5978
▁liquor	-5979
▁maimed	-5980
▁marred	-5981
▁needed	-5982
▁nursed	-5983
▁plunge	-5984
▁ponies	-5985
▁quarry	-5986
▁quiver	-5987
▁redden	-5988
▁rested	-5989
▁reveal	-5990
▁rivers	-5991
▁savage	-5992
▁saving	-5993
▁sentry	-5994
▁speaks	-5995
▁sprang	-5996
▁statue	-5997
▁steals	-5998
▁string	-5999
▁strive	-6000
▁trifle	-6001
▁virgin	-6002
▁weaker	-6003
▁wished	-6004
▁wither	-6005
▁wrongs	-6006
Lancelot	-6007
adelphia	-6008
▁Gloster	-6009
▁Nothing	-6010
▁Richard	-6011
▁Thought	-6012
▁anguish	-6013
▁beloved	-6014
▁betwixt	-6015
▁breezes	-6016
▁builded	-6017
▁changes	-6018
▁circlet	-6019
▁clashed	-6020
▁clothed	-6021
▁college	-6022
▁compass	-6023
▁conquer	-6024
▁crossed	-6025
▁dragged	-6026
▁faintly	-6027
▁gateway	-6028
▁ghostly	-6029
▁however	-6030
▁knocked	-6031
▁masters	-6032
▁meanest	-6033
▁mothers	-6034
▁plunged	-6035
▁pressed	-6036
▁pricked	-6037
▁priests	-6038
▁profess	-6039
▁rainbow	-6040
▁sailing	-6041
▁scarlet	-6042
▁servant	-6043
▁settled	-6044
▁seventy	-6045
▁slander	-6046
▁spreads	-6047
▁sunbeam	-6048
▁tongues	-6049
▁touches	-6050
▁trusted	-6051
▁twisted	-6052
▁unhappy	-6053
▁whimper	-6054
▁winding	-6055
▁Brethren	-6056
▁Caerleon	-6057
▁Highness	-6058
▁Trumpets	-6059
▁Whatever	-6060
▁complete	-6061
▁crowning	-6062
▁delights	-6063
▁desolate	-6064
▁diamonds	-6065
▁dreadful	-6066
▁dwelling	-6067
▁flashing	-6068
▁forgiven	-6069
▁homeward	-6070
▁interest	-6071
▁kneeling	-6072
▁knightly	-6073
▁lowlands	-6074
▁mistress	-6075
▁muttered	-6076
▁nameless	-6077
▁northern	-6078
▁overside	-6079
▁pictures	-6080
▁received	-6081
▁scornful	-6082
▁seashore	-6083
▁stripped	-6084
▁thunders	-6085
▁woodland	-6086
▁confusion	-6087
▁courteous	-6088
▁discharge	-6089
▁flowering	-6090
▁gentleman	-6091
▁spiritual	-6092
▁glimmering	-6093
▁salutation	-6094
▁Philadelphia	-6095
.`	-6096
AR	-6097
Mo	-6098
Pr	-6099
cr	-6100
di	-6101
hr	-6102
ko	-6103
~'	-6104
~.	-6105
"--	-6106
.'`	-6107
Hea	-6108
Sil	-6109
Tho	-6110
adn	-6111
amm	-6112
bra	-6113
bul	-6114
cur	-6115
dor	-6116
ext	-6117
gar	-6118
ggy	-6119
nay	-6120
ney	-6121
nin	-6122
rit	-6123
soe	-6124
uer	-6125
ulu	-6126
uts	-6127
whe	-6128
▁Ac	-6129
▁Cr	-6130
▁Jo	-6131
▁Ma	-6132
▁Wi	-6133
▁az	-6134
▁ev	-6135
Hard	-6136
Into	-6137
Know	-6138
Lord	-6139
Over	-6140
Tell	-6141
Thro	-6142
Thus	-6143
True	-6144
Ware	-6145
aner	-6146
anks	-6147
away	-6148
azai	-6149
boat	-6150
bone	-6151
deck	-6152
drop	-6153
eads	-6154
five	-6155
ford	-6156
gent	-6157
horn	-6158
ieve	-6159
iger	-6160
irts	-6161
ject	-6162
made	-6163
miss	-6164
nine	-6165
pees	-6166
phan	-6167
rers	-6168
ruit	-6169
semb	-6170
ship	-6171
tink	-6172
uben	-6173
udes	-6174
▁Air	-6175
▁Cat	-6176
▁Fly	-6177
▁Get	-6178
▁Gos	-6179
▁Gre	-6180
▁Khy	-6181
▁Lay	-6182
▁Mor	-6183
▁Pal	-6184
▁Pan	-6185
▁Pol	-6186
▁Rim	-6187
▁Sal	-6188
▁Sch	-6189
▁Sit	-6190
▁Smo	-6191
▁Sto	-6192
▁Ten	-6193
▁bru	-6194
▁cot	-6195
▁hee	-6196
▁hom	-6197
▁ink	-6198
▁mat	-6199
▁orb	-6200
▁pad	-6201
▁rap	-6202
▁rig	-6203
▁sew	-6204
▁shy	-6205
▁tap	-6206
▁tun	-6207
▁tyr	-6208
▁yer	-6209
Belts	-6210
Heart	-6211
Might	-6212
Shoal	-6213
Stood	-6214
acher	-6215
armed	-6216
blind	-6217
death	-6218
eding	-6219
gered	-6220
gress	-6221
groom	-6222
horse	-6223
india	-6224
ineer	-6225
iners	-6226
isted	-6227
mouth	-6228
olent	-6229
olved	-6230
ooked	-6231
ounts	-6232
ridge	-6233
umner	-6234
urned	-6235
venge	-6236
wling	-6237
▁Alas	-6238
▁Babu	-6239
▁Blue	-6240
▁Body	-6241
▁Bull	-6242
▁Gaur	-6243
▁Inst	-6244
▁Jack	-6245
▁Joll	-6246
▁Know	-6247
▁Loud	-6248
▁Mart	-6249
▁Next	-6250
▁Pray	-6251
▁Rise	-6252
▁Shah	-6253
▁Stra	-6254
▁Suff	-6255
▁Tong	-6256
▁Wood	-6257
▁Year	-6258
▁arch	-6259
▁arri	-6260
▁beds	-6261
▁bids	-6262
▁butt	-6263
▁clad	-6264
▁conv	-6265
▁cure	-6266
▁disg	-6267
▁dost	-6268
▁emer	-6269
▁fact	-6270
▁lads	-6271
▁lain	-6272
▁lark	-6273
▁linn	-6274
▁loom	-6275
▁monk	-6276
▁pace	-6277
▁peer	-6278
▁pour	-6279
▁push	-6280
▁puts	-6281
▁reef	-6282
▁repe	-6283
▁rice	-6284
▁ruby	-6285
▁sack	-6286
▁sirs	-6287
▁soot	-6288
▁spar	-6289
▁suck	-6290
▁suns	-6291
▁syne	-6292
▁tarn	-6293
▁tink	-6294
▁tomb	-6295
▁trow	-6296
▁vent	-6297
▁vice	-6298
▁ware	-6299
▁wold	-6300
Baltic	-6301
Behind	-6302
Struck	-6303
isname	-6304
knight	-6305
orough	-6306
outhed	-6307
petual	-6308
stance	-6309
unched	-6310
▁Apple	-6311
▁Bride	-6312
▁Clamp	-6313
▁Delhi	-6314
▁Front	-6315
▁Grace	-6316
▁Heart	-6317
▁Jubal	-6318
▁Kanda	-6319
▁Other	-6320
▁Right	-6321
▁Staff	-6322
▁Sweet	-6323
▁Torre	-6324
▁Tubal	-6325
▁brine	-6326
▁burns	-6327
▁chose	-6328
▁civil	-6329
▁clang	-6330
▁crost	-6331
▁dazed	-6332
▁ditch	-6333
▁downs	-6334
▁drill	-6335
▁dropt	-6336
▁dykes	-6337
▁eaves	-6338
▁enemy	-6339
▁faced	-6340
▁freed	-6341
▁games	-6342
▁geese	-6343
▁goods	-6344
▁gorge	-6345
▁grind	-6346
▁hedge	-6347
▁honor	-6348
▁hymns	-6349
▁knoll	-6350
▁leaps	-6351
▁liber	-6352
▁lowly	-6353
▁mines	-6354
▁misty	-6355
▁mused	-6356
▁mustn	-6357
▁nests	-6358
▁pavil	-6359
▁peers	-6360
▁piled	-6361
▁pract	-6362
▁ranks	-6363
▁rhyth	-6364
▁rooms	-6365
▁scare	-6366
▁scent	-6367
▁separ	-6368
▁shark	-6369
▁sighs	-6370
▁sixty	-6371
▁splin	-6372
▁stark	-6373
▁sting	-6374
▁stony	-6375
▁straw	-6376
▁style	-6377
▁surge	-6378
▁surre	-6379
▁swamp	-6380
▁swoon	-6381
▁taste	-6382
▁throw	-6383
▁verge	-6384
▁views	-6385
▁weeps	-6386
▁weird	-6387
▁wiser	-6388
Beneath	-6389
Melissa	-6390
Soldier	-6391
flowing	-6392
fluence	-6393
herdown	-6394
ourtesy	-6395
▁Beauty	-6396
▁Cuckoo	-6397
▁French	-6398
▁Indian	-6399
▁Lights	-6400
▁Lilian	-6401
▁Minnie	-6402
▁Reuben	-6403
▁Vision	-6404
▁Whence	-6405
▁Within	-6406
▁afresh	-6407
▁astray	-6408
▁attend	-6409
▁blooms	-6410
▁brains	-6411
▁bridle	-6412
▁cannon	-6413
▁carven	-6414
▁casque	-6415
▁clever	-6416
▁corpse	-6417
▁decked	-6418
▁ghosts	-6419
▁griefs	-6420
▁groves	-6421
▁guilty	-6422
▁herald	-6423
▁hermit	-6424
▁homing	-6425
▁hungry	-6426
▁hurled	-6427
▁inland	-6428
▁inside	-6429
▁joined	-6430
▁knives	-6431
▁melted	-6432
▁mingle	-6433
▁mirror	-6434
▁monkey	-6435
▁nation	-6436
▁nothin	-6437
▁novice	-6438
▁points	-6439
▁racing	-6440
▁ravine	-6441
▁ripple	-6442
▁rushes	-6443
▁rustle	-6444
▁shamed	-6445
▁skirts	-6446
▁statel	-6447
▁steady	-6448
▁strode	-6449
▁subtle	-6450
▁threat	-6451
▁travel	-6452
▁triple	-6453
▁vacant	-6454
issariat	-6455
ometimes	-6456
onscious	-6457
▁Certain	-6458
▁Command	-6459
▁Jollies	-6460
▁Nations	-6461
▁Scindia	-6462
▁Servant	-6463
▁Western	-6464
▁Whereby	-6465
▁Whisper	-6466
▁anybody	-6467
▁beaches	-6468
▁blinded	-6469
▁captive	-6470
▁counter	-6471
▁crystal	-6472
▁fearing	-6473
▁garland	-6474
▁greeted	-6475
▁highway	-6476
▁hollows	-6477
▁landing	-6478
▁leaning	-6479
▁merrily	-6480
▁murmurs	-6481
▁natural	-6482
▁ordered	-6483
▁ourself	-6484
▁peacock	-6485
▁prayers	-6486
▁prophet	-6487
▁prosper	-6488
▁prowess	-6489
▁richest	-6490
▁ripples	-6491
▁scandal	-6492
▁scatter	-6493
▁seaward	-6494
▁seeming	-6495
▁station	-6496
▁stretch	-6497
▁sunrise	-6498
▁surface	-6499
▁therein	-6500
▁thither	-6501
▁topmost	-6502
▁tremble	-6503
▁victory	-6504
▁wailing	-6505
▁wedding	-6506
▁weighed	-6507
▁western	-6508
▁Kandahar	-6509
▁Steamers	-6510
▁backward	-6511
▁daylight	-6512
▁deserted	-6513
▁eastward	-6514
▁fleeting	-6515
▁flickers	-6516
▁fruitful	-6517
▁jasmines	-6518
▁learning	-6519
▁listened	-6520
▁ordained	-6521
▁peaceful	-6522
▁perilous	-6523
▁prepared	-6524
▁prisoner	-6525
▁riflemen	-6526
▁servants	-6527
▁shrieked	-6528
▁sparkled	-6529
▁splendid	-6530
▁steaming	-6531
▁striking	-6532
▁tattered	-6533
▁westward	-6534
▁wondered	-6535
▁yearning	-6536
▁blameless	-6537
▁centuries	-6538
▁companion	-6539
▁greatness	-6540
▁mountains	-6541
▁perpetual	-6542
▁questions	-6543
▁uttermost	-6544
▁wholesome	-6545
▁companions	-6546
▁perfection	-6547
▁remembered	-6548
▁tournament	-6549
▁whispering	-6550
▁yourselves	-6551
▁innumerable	-6552
▁Clampherdown	-6553
"?	-6554
1.	-6555
2.	-6556
Br	-6557
Do	-6558
NG	-6559
Qu	-6560
je	-6561
zi	-6562
▁?	-6563
Cra	-6564
Man	-6565
Red	-6566
Rem	-6567
aby	-6568
ads	-6569
ara	-6570
axe	-6571
bel	-6572
cep	-6573
cer	-6574
dal	-6575
eys	-6576
hib	-6577
hic	-6578
hot	-6579
ify	-6580
imp	-6581
inw	-6582
isp	-6583
mid	-6584
oid	-6585
pul	-6586
sho	-6587
spo	-6588
uvv	-6589
vet	-6590
vis	-6591
▁Az	-6592
▁Da	-6593
▁Gy	-6594
▁IV	-6595
▁Sn	-6596
▁di	-6597
▁ly	-6598
▁pu	-6599
▁ze	-6600
Alas	-6601
Beat	-6602
Each	-6603
Late	-6604
Left	-6605
Less	-6606
Orse	-6607
Time	-6608
acca	-6609
aith	-6610
alph	-6611
ardy	-6612
aret	-6613
arra	-6614
atic	-6615
ault	-6616
bing	-6617
bird	-6618
blue	-6619
bows	-6620
bred	-6621
coat	-6622
dain	-6623
etic	-6624
even	-6625
from	-6626
have	-6627
hazi	-6628
icks	-6629
iece	-6630
ifth	-6631
inct	-6632
ipes	-6633
iple	-6634
itty	-6635
leet	-6636
lesh	-6637
mire	-6638
mitt	-6639
mony	-6640
morn	-6641
much	-6642
odog	-6643
orms	-6644
oses	-6645
osop	-6646
rage	-6647
raph	-6648
rice	-6649
ripp	-6650
rons	-6651
rope	-6652
rost	-6653
same	-6654
tain	-6655
tars	-6656
tles	-6657
umin	-6658
▁Ber	-6659
▁Cre	-6660
▁Cry	-6661
▁Dev	-6662
▁Egy	-6663
▁Ele	-6664
▁Eur	-6665
▁Fit	-6666
▁Lar	-6667
▁Mah	-6668
▁Mow	-6669
▁Pit	-6670
▁Rec	-6671
▁Rio	-6672
▁Ron	-6673
▁Sam	-6674
▁Sub	-6675
▁Sur	-6676
▁THE	-6677
▁Wat	-6678
▁Woe	-6679
▁anx	-6680
▁ced	-6681
▁dol	-6682
▁egg	-6683
▁fou	-6684
▁fra	-6685
▁gap	-6686
▁gau	-6687
▁glo	-6688
▁ivy	-6689
▁riv	-6690
▁san	-6691
▁sid	-6692
▁ske	-6693
▁slu	-6694
▁sup	-6695
▁tam	-6696
▁tax	-6697
▁tie	-6698
▁til	-6699
▁tom	-6700
▁tul	-6701
▁ven	-6702
▁wil	-6703
▁yes	-6704
Began	-6705
Desce	-6706
Since	-6707
Those	-6708
agers	-6709
aldez	-6710
anges	-6711
aning	-6712
anyan	-6713
asion	-6714
asons	-6715
blown	-6716
class	-6717
clock	-6718
ences	-6719
erved	-6720
force	-6721
green	-6722
iliar	-6723
iolet	-6724
itter	-6725
leton	-6726
lings	-6727
movin	-6728
onian	-6729
ooper	-6730
orted	-6731
ously	-6732
raise	-6733
rents	-6734
seman	-6735
there	-6736
trees	-6737
unnel	-6738
urred	-6739
usted	-6740
uster	-6741
uthor	-6742
uting	-6743
water	-6744
world	-6745
▁Abel	-6746
▁Blit	-6747
▁Bomb	-6748
▁Both	-6749
▁Cast	-6750
▁Cent	-6751
▁Circ	-6752
▁Dist	-6753
▁Eddi	-6754
▁Evil	-6755
▁Gaul	-6756
▁Hand	-6757
▁July	-6758
▁June	-6759
▁Kind	-6760
▁Late	-6761
▁Left	-6762
▁Moon	-6763
▁Nine	-6764
▁Park	-6765
▁Rail	-6766
▁Sapp	-6767
▁Send	-6768
▁Sent	-6769
▁Slow	-6770
▁Unto	-6771
▁Virg	-6772
▁Wall	-6773
▁agin	-6774
▁army	-6775
▁bard	-6776
▁bats	-6777
▁beef	-6778
▁bord	-6779
▁bury	-6780
▁coat	-6781
▁cond	-6782
▁cows	-6783
▁dece	-6784
▁deem	-6785
▁disp	-6786
▁dive	-6787
▁dole	-6788
▁eyeb	-6789
▁farm	-6790
▁forb	-6791
▁gard	-6792
▁glen	-6793
▁gods	-6794
▁goss	-6795
▁halt	-6796
▁haul	-6797
▁imag	-6798
▁limb	-6799
▁lots	-6800
▁lump	-6801
▁mail	-6802
▁nice	-6803
▁nowt	-6804
▁oxen	-6805
▁pomp	-6806
▁rage	-6807
▁raid	-6808
▁rele	-6809
▁rods	-6810
▁scra	-6811
▁scud	-6812
▁seam	-6813
▁sham	-6814
▁shop	-6815
▁skip	-6816
▁sown	-6817
▁swar	-6818
▁tack	-6819
▁tops	-6820
▁unhe	-6821
▁vaul	-6822
▁ward	-6823
▁whel	-6824
▁wipe	-6825
▁wren	-6826
▁zeal	-6827
Father	-6828
Follow	-6829
Mother	-6830
Parade	-6831
Saying	-6832
Strals	-6833
Within	-6834
icious	-6835
ieving	-6836
inwool	-6837
perate	-6838
quered	-6839
winged	-6840
▁Among	-6841
▁Being	-6842
▁Birth	-6843
▁Blest	-6844
▁Cloud	-6845
▁Dacca	-6846
▁Fleet	-6847
▁Gypsy	-6848
▁House	-6849
▁Innoc	-6850
▁Lodge	-6851
▁Lotos	-6852
▁Mount	-6853
▁Pluck	-6854
▁Rajah	-6855
▁Ralph	-6856
▁Rifle	-6857
▁Royal	-6858
▁Saxon	-6859
▁Stood	-6860
▁abode	-6861
▁ahead	-6862
▁aloof	-6863
▁ankle	-6864
▁azure	-6865
▁begun	-6866
▁binds	-6867
▁brace	-6868
▁caves	-6869
▁cigar	-6870
▁class	-6871
▁crawl	-6872
▁crush	-6873
▁decay	-6874
▁drags	-6875
▁drave	-6876
▁event	-6877
▁flown	-6878
▁gloss	-6879
▁goats	-6880
▁haunt	-6881
▁herds	-6882
▁holly	-6883
▁incre	-6884
▁likes	-6885
▁links	-6886
▁lonel	-6887
▁mates	-6888
▁milky	-6889
▁mixed	-6890
▁niver	-6891
▁overt	-6892
▁pools	-6893
▁ports	-6894
▁prete	-6895
▁prick	-6896
▁rains	-6897
▁rival	-6898
▁roars	-6899
▁robed	-6900
▁roots	-6901
▁scept	-6902
▁seeds	-6903
▁sends	-6904
▁sheet	-6905
▁shirt	-6906
▁slant	-6907
▁slipp	-6908
▁spire	-6909
▁stalk	-6910
▁sward	-6911
▁swarm	-6912
▁swung	-6913
▁teleg	-6914
▁tents	-6915
▁tides	-6916
▁trace	-6917
▁uncle	-6918
▁waved	-6919
▁wires	-6920
▁wrapt	-6921
Between	-6922
Clothed	-6923
Singing	-6924
anerges	-6925
angling	-6926
istered	-6927
odogran	-6928
undered	-6929
▁Carrie	-6930
▁Church	-6931
▁Evarra	-6932
▁Fellow	-6933
▁Fisher	-6934
▁Khyber	-6935
▁Legion	-6936
▁Listen	-6937
▁Palace	-6938
▁Priest	-6939
▁Ronald	-6940
▁Saxons	-6941
▁Suffer	-6942
▁Summer	-6943
▁Tongue	-6944
▁Valdez	-6945
▁aching	-6946
▁allThe	-6947
▁altars	-6948
▁bandit	-6949
▁barred	-6950
▁billow	-6951
▁blazed	-6952
▁borrow	-6953
▁bottom	-6954
▁burial	-6955
▁chased	-6956
▁cheeks	-6957
▁chords	-6958
▁closer	-6959
▁dainty	-6960
▁darker	-6961
▁defeat	-6962
▁degree	-6963
▁divide	-6964
▁estate	-6965
▁expect	-6966
▁forced	-6967
▁fulfil	-6968
▁futile	-6969
▁hangin	-6970
▁hushed	-6971
▁inform	-6972
▁insult	-6973
▁jingle	-6974
▁joyful	-6975
▁laughs	-6976
▁launch	-6977
▁manner	-6978
▁mouths	-6979
▁murder	-6980
▁musing	-6981
▁mutter	-6982
▁ninety	-6983
▁nobody	-6984
▁perils	-6985
▁petals	-6986
▁pirate	-6987
▁plates	-6988
▁posies	-6989
▁really	-6990
▁relief	-6991
▁repent	-6992
▁revere	-6993
▁review	-6994
▁rhythm	-6995
▁richer	-6996
▁ridden	-6997
▁shines	-6998
▁sleeve	-6999
▁snakes	-7000
▁stairs	-7001
▁sticks	-7002
▁stolen	-7003
▁strict	-7004
▁thrill	-7005
▁toilet	-7006
▁upward	-7007
▁veiled	-7008
▁wailed	-7009
▁wisest	-7010
Hencefor	-7011
Northern	-7012
bedience	-7013
▁Channel	-7014
▁Comfort	-7015
▁Justice	-7016
▁Lightly	-7017
▁Princes	-7018
▁Soldier	-7019
▁Whether	-7020
▁Without	-7021
▁account	-7022
▁anklets	-7023
▁anxious	-7024
▁artless	-7025
▁ashamed	-7026
▁beganTo	-7027
▁borders	-7028
▁casting	-7029
▁corrupt	-7030
▁crammed	-7031
▁degrees	-7032
▁driving	-7033
▁feather	-7034
▁furnace	-7035
▁gallery	-7036
▁gathers	-7037
▁grasses	-7038
▁grieved	-7039
▁harbour	-7040
▁healing	-7041
▁lacking	-7042
▁leading	-7043
▁leaping	-7044
▁marchin	-7045
▁matters	-7046
▁motions	-7047
▁opening	-7048
▁pasture	-7049
▁playing	-7050
▁portion	-7051
▁ranging	-7052
▁rations	-7053
▁reading	-7054
▁retreat	-7055
▁ringlet	-7056
▁rushing	-7057
▁scarred	-7058
▁sharply	-7059
▁shatter	-7060
▁sheaves	-7061
▁shouted	-7062
▁sinking	-7063
▁thereby	-7064
▁traffic	-7065
▁treason	-7066
▁trooper	-7067
▁uttered	-7068
▁utterly	-7069
▁valiant	-7070
▁various	-7071
▁visions	-7072
▁wheeled	-7073
▁wherein	-7074
▁winters	-7075
▁wouldst	-7076
▁wrecked	-7077
▁writing	-7078
▁yielded	-7079
Perchance	-7080
Stralsund	-7081
▁Foreland	-7082
▁Remember	-7083
▁Riflemen	-7084
▁Sickness	-7085
▁Suddenly	-7086
▁appeared	-7087
▁babbling	-7088
▁betrayed	-7089
▁breathes	-7090
▁brooding	-7091
▁carriage	-7092
▁clinging	-7093
▁complain	-7094
▁consider	-7095
▁converse	-7096
▁dolorous	-7097
▁drifting	-7098
▁drooping	-7099
▁drowning	-7100
▁everlast	-7101
▁formless	-7102
▁fullness	-7103
▁garments	-7104
▁hopeless	-7105
▁hurrying	-7106
▁laboured	-7107
▁lovelier	-7108
▁mightier	-7109
▁necklace	-7110
▁perforce	-7111
▁skeleton	-7112
▁snatched	-7113
▁solitude	-7114
▁stricken	-7115
▁sunlight	-7116
▁touching	-7117
▁violence	-7118
▁warriors	-7119
▁wellnigh	-7120
▁wherever	-7121
▁wretched	-7122
▁Boanerges	-7123
▁Gentlemen	-7124
▁Unlighted	-7125
▁according	-7126
▁beginning	-7127
▁deathless	-7128
▁deepening	-7129
▁desperate	-7130
▁foreheads	-7131
▁fragrance	-7132
▁fruitless	-7133
▁innocence	-7134
▁listening	-7135
▁murmuring	-7136
▁squadrons	-7137
▁strangely	-7138
▁tremulous	-7139
▁womanhood	-7140
▁Laidinwool	-7141
▁Whatisname	-7142
▁conscience	-7143
▁otherwhere	-7144
▁overthrown	-7145
▁passionate	-7146
▁shuddering	-7147
▁tenderness	-7148
▁wickedness	-7149
▁discourtesy	-7150
!~	-7151
3.	-7152
4.	-7153
7.	-7154
Ex	-7155
Me	-7156
Ow	-7157
RE	-7158
Ro	-7159
Sc	-7160
ka	-7161
ta	-7162
.--	-7163
Acc	-7164
Ear	-7165
Gaw	-7166
Saf	-7167
Yes	-7168
azz	-7169
boy	-7170
com	-7171
cra	-7172
ctu	-7173
erk	-7174
ews	-7175
gli	-7176
gum	-7177
ieu	-7178
irl	-7179
ism	-7180
lso	-7181
mar	-7182
net	-7183
ply	-7184
rah	-7185
reg	-7186
ria	-7187
rup	-7188
thr	-7189
uce	-7190
ula	-7191
urd	-7192
urp	-7193
yne	-7194
zab	-7195
zai	-7196
▁Ao	-7197
▁Av	-7198
▁Aw	-7199
▁Et	-7200
▁Ky	-7201
▁Ta	-7202
▁Wa	-7203
▁da	-7204
▁ko	-7205
Dead	-7206
Fall	-7207
Fore	-7208
Foul	-7209
Grew	-7210
Lost	-7211
Maid	-7212
Mine	-7213
Pray	-7214
Rapt	-7215
Read	-7216
Rest	-7217
agil	-7218
alem	-7219
arce	-7220
arib	-7221
arse	-7222
aspt	-7223
aval	-7224
cony	-7225
eous	-7226
fire	-7227
folk	-7228
gone	-7229
high	-7230
hire	-7231
ians	-7232
iate	-7233
iber	-7234
ikes	-7235
ikki	-7236
inth	-7237
ital	-7238
itan	-7239
ivar	-7240
lock	-7241
love	-7242
mate	-7243
nant	-7244
none	-7245
oire	-7246
oked	-7247
omon	-7248
oted	-7249
ouch	-7250
pent	-7251
pire	-7252
plex	-7253
ploy	-7254
rall	-7255
rels	-7256
rene	-7257
rich	-7258
roof	-7259
rors	-7260
rove	-7261
sail	-7262
told	-7263
ucid	-7264
umed	-7265
unka	-7266
vous	-7267
will	-7268
zing	-7269
▁...	-7270
▁Bol	-7271
▁Cal	-7272
▁Dam	-7273
▁Die	-7274
▁Dub	-7275
▁Eag	-7276
▁Gra	-7277
▁Hes	-7278
▁Hir	-7279
▁Hot	-7280
▁III	-7281
▁Ice	-7282
▁Luk	-7283
▁Pay	-7284
▁Ram	-7285
▁Rub	-7286
▁Saw	-7287
▁Sky	-7288
▁Tem	-7289
▁Tra	-7290
▁Wis	-7291
▁aby	-7292
▁ach	-7293
▁aft	-7294
▁asc	-7295
▁awa	-7296
▁awe	-7297
▁axe	-7298
▁bri	-7299
▁cad	-7300
▁chi	-7301
▁cop	-7302
▁det	-7303
▁doe	-7304
▁dun	-7305
▁ebb	-7306
▁hem	-7307
▁lav	-7308
▁lep	-7309
▁lid	-7310
▁lif	-7311
▁lod	-7312
▁mol	-7313
▁oop	-7314
▁opp	-7315
▁owe	-7316
▁paw	-7317
▁ped	-7318
▁pot	-7319
▁pow	-7320
▁rab	-7321
▁sow	-7322
▁suc	-7323
▁upl	-7324
▁urn	-7325
▁vol	-7326
▁wur	-7327
▁yew	-7328
Close	-7329
Could	-7330
First	-7331
Safai	-7332
Stand	-7333
Still	-7334
Storm	-7335
ables	-7336
ample	-7337
ancho	-7338
asing	-7339
bells	-7340
blood	-7341
built	-7342
ctors	-7343
earer	-7344
ellow	-7345
ffron	-7346
flung	-7347
gends	-7348
icial	-7349
ickie	-7350
illin	-7351
imate	-7352
oring	-7353
oused	-7354
outed	-7355
oward	-7356
plate	-7357
prise	-7358
quake	-7359
rovin	-7360
spite	-7361
uffed	-7362
ugust	-7363
▁Anne	-7364
▁Bill	-7365
▁Blow	-7366
▁Caes	-7367
▁Coll	-7368
▁Copy	-7369
▁Dawn	-7370
▁Does	-7371
▁Duke	-7372
▁Folk	-7373
▁Gain	-7374
▁Hark	-7375
▁Help	-7376
▁Host	-7377
▁Jest	-7378
▁Loot	-7379
▁Mail	-7380
▁Mall	-7381
▁Mast	-7382
▁Noah	-7383
▁Pict	-7384
▁Pole	-7385
▁Rode	-7386
▁Sign	-7387
▁Warn	-7388
▁Work	-7389
▁airy	-7390
▁aver	-7391
▁beck	-7392
▁boot	-7393
▁buds	-7394
▁bust	-7395
▁cage	-7396
▁cash	-7397
▁cere	-7398
▁chir	-7399
▁club	-7400
▁crop	-7401
▁crou	-7402
▁cult	-7403
▁dazz	-7404
▁deaf	-7405
▁dire	-7406
▁dock	-7407
▁doin	-7408
▁dung	-7409
▁enow	-7410
▁expl	-7411
▁file	-7412
▁fray	-7413
▁goad	-7414
▁grou	-7415
▁heal	-7416
▁hole	-7417
▁hues	-7418
▁ills	-7419
▁kins	-7420
▁lair	-7421
▁lamb	-7422
▁lull	-7423
▁lute	-7424
▁meas	-7425
▁nuns	-7426
▁parr	-7427
▁pave	-7428
▁phil	-7429
▁plag	-7430
▁plot	-7431
▁prev	-7432
▁reek	-7433
▁reel	-7434
▁rein	-7435
▁rift	-7436
▁ripe	-7437
▁rook	-7438
▁ruff	-7439
▁sche	-7440
▁sere	-7441
▁span	-7442
▁stud	-7443
▁tire	-7444
▁toll	-7445
▁tort	-7446
▁trek	-7447
▁trip	-7448
▁twin	-7449
▁unsw	-7450
▁vile	-7451
▁wash	-7452
▁wasn	-7453
Beside	-7454
Bright	-7455
Maiden	-7456
Return	-7457
Strike	-7458
athing	-7459
elling	-7460
ffered	-7461
geants	-7462
haired	-7463
iceroy	-7464
iction	-7465
ifting	-7466
ighing	-7467
isping	-7468
isting	-7469
llower	-7470
ointed	-7471
readth	-7472
roughs	-7473
spoken	-7474
stairs	-7475
though	-7476
uddled	-7477
udence	-7478
▁Admir	-7479
▁Along	-7480
▁Break	-7481
▁Bring	-7482
▁Broad	-7483
▁Brook	-7484
▁Eenee	-7485
▁Egypt	-7486
▁Flesh	-7487
▁Flood	-7488
▁Found	-7489
▁Gauri	-7490
▁Heavy	-7491
▁Liner	-7492
▁Mercy	-7493
▁Mirth	-7494
▁Mourn	-7495
▁Ocean	-7496
▁Paine	-7497
▁Quick	-7498
▁Ready	-7499
▁Shame	-7500
▁Space	-7501
▁Stole	-7502
▁Sweep	-7503
▁Thone	-7504
▁Troop	-7505
▁Wrath	-7506
▁aband	-7507
▁admir	-7508
▁adown	-7509
▁arrow	-7510
▁babes	-7511
▁block	-7512
▁blunt	-7513
▁brink	-7514
▁camel	-7515
▁chaff	-7516
▁cleft	-7517
▁click	-7518
▁clink	-7519
▁crick	-7520
▁crows	-7521
▁dirty	-7522
▁ferry	-7523
▁finds	-7524
▁flare	-7525
▁flits	-7526
▁fores	-7527
▁fount	-7528
▁ghast	-7529
▁girth	-7530
▁groom	-7531
▁guise	-7532
▁herbs	-7533
▁inher	-7534
▁keels	-7535
▁knaws	-7536
▁kneel	-7537
▁laden	-7538
▁lucid	-7539
▁manif	-7540
▁maybe	-7541
▁midst	-7542
▁minst	-7543
▁older	-7544
▁organ	-7545
▁paces	-7546
▁parts	-7547
▁porch	-7548
▁print	-7549
▁purer	-7550
▁rails	-7551
▁rogue	-7552
▁rolls	-7553
▁ropes	-7554
▁rovin	-7555
▁scale	-7556
▁scarf	-7557
▁seeks	-7558
▁shady	-7559
▁sheer	-7560
▁skins	-7561
▁slack	-7562
▁slide	-7563
▁slips	-7564
▁smelt	-7565
▁spied	-7566
▁stale	-7567
▁stamp	-7568
▁stept	-7569
▁stump	-7570
▁taint	-7571
▁token	-7572
▁twink	-7573
▁unwor	-7574
▁vines	-7575
▁visit	-7576
▁waked	-7577
▁wroth	-7578
Another	-7579
Brother	-7580
Glanced	-7581
ancholy	-7582
ingling	-7583
intagil	-7584
mouthed	-7585
olation	-7586
reathed	-7587
vantage	-7588
▁Answer	-7589
▁Atlant	-7590
▁Barons	-7591
▁Better	-7592
▁Europe	-7593
▁Forget	-7594
▁Gehazi	-7595
▁Gospel	-7596
▁Native	-7597
▁Patrol	-7598
▁Police	-7599
▁Sumner	-7600
▁ambros	-7601
▁appeal	-7602
▁aright	-7603
▁banyan	-7604
▁barbar	-7605
▁bellow	-7606
▁belong	-7607
▁camels	-7608
▁captiv	-7609
▁casual	-7610
▁centre	-7611
▁coarse	-7612
▁coldly	-7613
▁courts	-7614
▁cradle	-7615
▁dearer	-7616
▁deeply	-7617
▁drifts	-7618
▁drives	-7619
▁echoed	-7620
▁eldest	-7621
▁excuse	-7622
▁finest	-7623
▁fisher	-7624
▁flakes	-7625
▁flames	-7626
▁floors	-7627
▁forged	-7628
▁greedy	-7629
▁hammer	-7630
▁hiding	-7631
▁horror	-7632
▁hounds	-7633
▁judged	-7634
▁lament	-7635
▁latter	-7636
▁leader	-7637
▁leaned	-7638
▁legend	-7639
▁levels	-7640
▁limits	-7641
▁loaded	-7642
▁loathe	-7643
▁loiter	-7644
▁madest	-7645
▁margin	-7646
▁nearly	-7647
▁notice	-7648
▁packed	-7649
▁parson	-7650
▁plenty	-7651
▁powder	-7652
▁purest	-7653
▁ranged	-7654
▁rhymes	-7655
▁roared	-7656
▁rocked	-7657
▁rooted	-7658
▁rushed	-7659
▁saints	-7660
▁screen	-7661
▁secure	-7662
▁settle	-7663
▁shakes	-7664
▁sights	-7665
▁sinful	-7666
▁singer	-7667
▁slaves	-7668
▁smells	-7669
▁soothe	-7670
▁stared	-7671
▁starve	-7672
▁stupid	-7673
▁tavern	-7674
▁trance	-7675
▁tribes	-7676
▁tumble	-7677
▁unborn	-7678
▁unkind	-7679
▁victim	-7680
▁victor	-7681
▁wilful	-7682
▁wizard	-7683
▁wolves	-7684
--------	-7685
▁Blitzen	-7686
▁Deliver	-7687
▁Solomon	-7688
▁Squoire	-7689
▁Wherein	-7690
▁Whereof	-7691
▁barrick	-7692
▁becomes	-7693
▁blasted	-7694
▁blazing	-7695
▁blindly	-7696
▁boatman	-7697
▁breasts	-7698
▁chances	-7699
▁charged	-7700
▁chatter	-7701
▁circles	-7702
▁clearer	-7703
▁confess	-7704
▁corners	-7705
▁cottage	-7706
▁couched	-7707
▁desired	-7708
▁dressed	-7709
▁element	-7710
▁emptied	-7711
▁failing	-7712
▁fairway	-7713
▁fetters	-7714
▁fightin	-7715
▁flicker	-7716
▁flutter	-7717
▁forgets	-7718
▁gardens	-7719
▁gripped	-7720
▁happier	-7721
▁hatches	-7722
▁holding	-7723
▁islands	-7724
▁killing	-7725
▁kindled	-7726
▁legions	-7727
▁lessons	-7728
▁marshes	-7729
▁marvell	-7730
▁mounted	-7731
▁muffled	-7732
▁nations	-7733
▁naughty	-7734
▁oneThat	-7735
▁outward	-7736
▁partner	-7737
▁pathway	-7738
▁perfume	-7739
▁planets	-7740
▁pledged	-7741
▁process	-7742
▁profits	-7743
▁pursued	-7744
▁raiment	-7745
▁recruit	-7746
▁resolve	-7747
▁restore	-7748
▁rollers	-7749
▁rounded	-7750
▁rumours	-7751
▁sceptre	-7752
▁schools	-7753
▁shadowy	-7754
▁sliding	-7755
▁slipped	-7756
▁sloping	-7757
▁somehow	-7758
▁someone	-7759
▁sorrows	-7760
▁species	-7761
▁spilled	-7762
▁stained	-7763
▁statues	-7764
▁strayed	-7765
▁summers	-7766
▁swarthy	-7767
▁thicker	-7768
▁thicket	-7769
▁torrent	-7770
▁tribute	-7771
▁venture	-7772
▁watches	-7773
▁wearing	-7774
▁whereof	-7775
▁whither	-7776
▁wronged	-7777
▁yearned	-7778
▁Copybook	-7779
▁Disciple	-7780
▁Lukannon	-7781
▁Strength	-7782
▁battered	-7783
▁blissful	-7784
▁brawling	-7785
▁captains	-7786
▁ceremony	-7787
▁discover	-7788
▁dripping	-7789
▁floating	-7790
▁friendly	-7791
▁frowning	-7792
▁gleaming	-7793
▁grateful	-7794
▁grievous	-7795
▁hencefor	-7796
▁kindlier	-7797
▁lightest	-7798
▁mariners	-7799
▁merchant	-7800
▁millions	-7801
▁moreThan	-7802
▁murmured	-7803
▁offering	-7804
▁overmuch	-7805
▁overseas	-7806
▁philosop	-7807
▁plunging	-7808
▁purchase	-7809
▁reproach	-7810
▁shameful	-7811
▁sickened	-7812
▁sideways	-7813
▁slippery	-7814
▁solitary	-7815
▁somebody	-7816
▁speaking	-7817
▁steamers	-7818
▁sweetest	-7819
▁tenderly	-7820
▁trampled	-7821
▁wheeling	-7822
▁whenever	-7823
▁worthier	-7824
▁wrathful	-7825
▁Innocence	-7826
▁Leodogran	-7827
▁Therefore	-7828
▁aftertime	-7829
▁afterward	-7830
▁battleaxe	-7831
▁blistered	-7832
▁comforted	-7833
▁creatures	-7834
▁delivered	-7835
▁dishonour	-7836
▁emptiness	-7837
▁excellent	-7838
▁loveliest	-7839
▁miserable	-7840
▁mysteries	-7841
▁sparkling	-7842
▁spreading	-7843
▁strangers	-7844
▁uncertain	-7845
▁utterance	-7846
▁bitterness	-7847
▁melancholy	-7848
▁passengers	-7849
▁questioned	-7850
▁whatsoever	-7851
▁whimpering	-7852
▁worshipped	-7853
▁butterflies	-7854
▁thunderbolt	-7855
'!	-7856
,(	-7857
,-	-7858
0.	-7859
:`	-7860
CC	-7861
EL	-7862
ER	-7863
Ho	-7864
Tr	-7865
Wr	-7866
fy	-7867
sn	-7868
)--	-7869
Ask	-7870
Com	-7871
Eng	-7872
Get	-7873
Rep	-7874
Sha	-7875
Tra	-7876
War	-7877
avy	-7878
ban	-7879
bub	-7880
bud	-7881
cup	-7882
dis	-7883
dri	-7884
dro	-7885
enn	-7886
eor	-7887
erp	-7888
igs	-7889
lad	-7890
oic	-7891
oms	-7892
oos	-7893
pea	-7894
rog	-7895
sal	-7896
scr	-7897
ser	-7898
two	-7899
win	-7900
▁Ap	-7901
▁Gr	-7902
▁Og	-7903
▁Ol	-7904
▁Ow	-7905
▁Sa	-7906
▁ca	-7907
▁ep	-7908
▁ob	-7909
▁op	-7910
▁tu	-7911
▁ug	-7912
▁ut	-7913
▁vi	-7914
Burn	-7915
Cull	-7916
Fell	-7917
Hast	-7918
Hold	-7919
Lest	-7920
Most	-7921
Neil	-7922
None	-7923
▁	-7924
e	-7925
t	-7926
a	-7927
o	-7928
n	-7929
h	-7930
r	-7931
s	-7932
i	-7933
d	-7934
l	-7935
u	-7936
m	-7937
w	-7938
,	-7939
f	-7940
g	-7941
y	-7942
c	-7943
b	-7944
p	-7945
k	-7946
-	-7947
v	-7948
'	-7949
.	-7950
T	-7951
A	-7952
I	-7953
W	-7954
S	-7955
B	-7956
;	-7957
:	-7958
"	-7959
!	-7960
L	-7961
H	-7962
O	-7963
F	-7964
E	-7965
P	-7966
M	-7967
K	-7968
C	-7969
?	-7970
G	-7971
D	-7972
N	-7973
R	-7974
Y	-7975
j	-7976
z	-7977
x	-7978
q	-7979
1	-7980
4	-7981
(	-7982
)	-7983
3	-7984
`	-7985
U	-7986
~	-7987
J	-7988
V	-7989
2	-7990
0	-7991
Q	-7992
5	-7993
X	-7994
6	-7995
7	-7996
