<unk>	0
<s>	0
</s>	0
▁t	-0
he	-1
▁a	-2
▁s	-3
in	-4
▁the	-5
▁w	-6
nd	-7
re	-8
▁o	-9
▁b	-10
ou	-11
▁f	-12
▁m	-13
er	-14
ha	-15
es	-16
is	-17
it	-18
▁l	-19
▁c	-20
▁d	-21
ll	-22
or	-23
ing	-24
▁T	-25
ar	-26
▁A	-27
en	-28
on	-29
ed	-30
▁and	-31
▁of	-32
▁p	-33
▁I	-34
▁h	-35
▁to	-36
ow	-37
▁n	-38
an	-39
▁he	-40
▁g	-41
as	-42
at	-43
gh	-44
om	-45
▁in	-46
▁th	-47
le	-48
hat	-49
▁And	-50
ve	-51
▁W	-52
▁The	-53
ld	-54
ot	-55
et	-56
ay	-57
▁e	-58
▁S	-59
ut	-60
st	-61
▁y	-62
ght	-63
ir	-64
ce	-65
ith	-66
▁st	-67
▁ha	-68
se	-69
ri	-70
▁be	-71
ad	-72
▁B	-73
ch	-74
▁L	-75
id	-76
▁on	-77
ra	-78
▁H	-79
▁O	-80
ro	-81
▁with	-82
ur	-83
▁that	-84
▁li	-85
▁u	-86
ly	-87
▁you	-88
im	-89
ke	-90
ill	-91
ver	-92
al	-93
am	-94
▁we	-95
▁his	-96
▁F	-97
▁for	-98
▁re	-99
--	-100
▁it	-101
oo	-102
▁my	-103
▁is	-104
▁wh	-105
▁se	-106
▁de	-107
ent	-108
▁me	-109
il	-110
▁M	-111
ck	-112
ight	-113
ain	-114
▁as	-115
th	-116
▁her	-117
▁C	-118
rom	-119
ore	-120
▁all	-121
her	-122
▁not	-123
un	-124
▁k	-125
ess	-126
▁was	-127
▁N	-128
rou	-129
▁so	-130
ong	-131
▁sp	-132
▁lo	-133
ast	-134
and	-135
est	-136
▁v	-137
▁sh	-138
ge	-139
us	-140
ion	-141
ear	-142
ome	-143
hen	-144
ind	-145
▁an	-146
▁D	-147
▁G	-148
▁from	-149
ould	-150
▁P	-151
▁bl	-152
all	-153
art	-154
▁"	-155
if	-156
ea	-157
ter	-158
▁at	-159
um	-160
▁sha	-161
ul	-162
▁by	-163
▁'	-164
▁But	-165
el	-166
▁Th	-167
our	-168
▁To	-169
ep	-170
ic	-171
ood	-172
▁fl	-173
▁Wh	-174
one	-175
red	-176
▁thou	-177
own	-178
▁r	-179
od	-180
▁their	-181
▁LI	-182
KE	-183
▁LIKE	-184
▁she	-185
▁wor	-186
▁sa	-187
ers	-188
▁they	-189
▁ne	-190
▁no	-191
▁E	-192
qu	-193
ine	-194
▁or	-195
ie	-196
ure	-197
here	-198
▁are	-199
ust	-200
ell	-201
nt	-202
▁kn	-203
▁fa	-204
em	-205
ard	-206
old	-207
ath	-208
▁man	-209
▁up	-210
▁him	-211
▁For	-212
ant	-213
▁In	-214
▁That	-215
▁R	-216
ame	-217
▁do	-218
ous	-219
pp	-220
▁Y	-221
▁this	-222
▁sw	-223
ose	-224
fe	-225
▁have	-226
▁ro	-227
ct	-228
▁your	-229
▁He	-230
▁su	-231
ven	-232
res	-233
▁but	-234
▁Of	-235
▁pl	-236
han	-237
▁cl	-238
ich	-239
ist	-240
ry	-241
▁al	-242
▁j	-243
ate	-244
▁one	-245
▁thy	-246
ak	-247
▁With	-248
ves	-249
▁like	-250
ings	-251
▁there	-252
ound	-253
ol	-254
orn	-255
ake	-256
▁when	-257
▁day	-258
▁un	-259
▁love	-260
ide	-261
ue	-262
op	-263
▁gl	-264
▁will	-265
ile	-266
ass	-267
▁who	-268
row	-269
▁them	-270
ig	-271
au	-272
▁gre	-273
ies	-274
▁had	-275
os	-276
▁heart	-277
▁ey	-278
▁were	-279
▁our	-280
are	-281
▁can	-282
de	-283
ft	-284
▁con	-285
▁mo	-286
ild	-287
ble	-288
ook	-289
▁com	-290
▁ar	-291
eet	-292
▁ri	-293
▁out	-294
▁ch	-295
▁ever	-296
urn	-297
▁ra	-298
ark	-299
▁bre	-300
tle	-301
▁what	-302
▁more	-303
ack	-304
ire	-305
▁see	-306
wn	-307
▁--	-308
nder	-309
▁As	-310
hed	-311
▁now	-312
ite	-313
ive	-314
ise	-315
lf	-316
▁ag	-317
▁sc	-318
rough	-319
▁.	-320
ink	-321
out	-322
▁its	-323
▁am	-324
▁When	-325
▁qu	-326
pt	-327
ort	-328
▁On	-329
▁shall	-330
oy	-331
ish	-332
▁know	-333
way	-334
▁le	-335
less	-336
▁us	-337
▁hand	-338
ree	-339
ach	-340
ran	-341
▁ab	-342
▁ear	-343
ice	-344
▁which	-345
ade	-346
ime	-347
ful	-348
▁go	-349
▁light	-350
end	-351
▁where	-352
ove	-353
▁would	-354
▁sm	-355
▁night	-356
▁So	-357
round	-358
ream	-359
ord	-360
ps	-361
igh	-362
ag	-363
▁if	-364
▁then	-365
▁thee	-366
▁St	-367
▁sou	-368
▁long	-369
▁life	-370
oth	-371
▁God	-372
▁may	-373
▁sl	-374
ng	-375
ull	-376
led	-377
▁eyes	-378
▁U	-379
▁down	-380
▁sun	-381
▁fo	-382
▁It	-383
▁J	-384
▁did	-385
▁(	-386
▁fe	-387
other	-388
▁some	-389
ittle	-390
▁still	-391
ved	-392
ears	-393
ac	-394
ick	-395
▁old	-396
ness	-397
ru	-398
▁Then	-399
▁through	-400
ave	-401
▁We	-402
▁cha	-403
ring	-404
ity	-405
▁too	-406
▁men	-407
ence	-408
▁po	-409
ther	-410
ount	-411
▁again	-412
ace	-413
ds	-414
▁upon	-415
▁Or	-416
fore	-417
▁world	-418
▁little	-419
▁My	-420
to	-421
ray	-422
▁gra	-423
pe	-424
▁never	-425
▁en	-426
▁sk	-427
▁Be	-428
▁ex	-429
▁than	-430
▁She	-431
ving	-432
▁Where	-433
▁wind	-434
▁tr	-435
ling	-436
▁pro	-437
▁la	-438
ne	-439
les	-440
▁tw	-441
ation	-442
▁look	-443
▁His	-444
ars	-445
▁They	-446
ious	-447
▁said	-448
age	-449
▁des	-450
▁K	-451
▁Who	-452
▁lea	-453
▁say	-454
ff	-455
ough	-456
ms	-457
▁wat	-458
▁What	-459
▁yet	-460
ond	-461
▁might	-462
te	-463
▁soul	-464
▁way	-465
▁come	-466
▁sweet	-467
▁has	-468
▁could	-469
▁pass	-470
ows	-471
▁V	-472
ather	-473
▁bri	-474
▁An	-475
mb	-476
▁dis	-477
ance	-478
rown	-479
▁You	-480
hes	-481
self	-482
▁how	-483
▁away	-484
."	-485
▁From	-486
ower	-487
ks	-488
▁There	-489
▁thought	-490
ike	-491
▁great	-492
▁should	-493
eth	-494
▁every	-495
▁good	-496
▁time	-497
me	-498
▁hea	-499
irst	-500
▁tre	-501
ud	-502
ts	-503
▁must	-504
▁dark	-505
▁No	-506
▁own	-507
iss	-508
▁im	-509
▁over	-510
ress	-511
▁here	-512
▁har	-513
▁wa	-514
▁other	-515
▁sil	-516
ale	-517
ang	-518
▁earth	-519
ost	-520
per	-521
▁made	-522
ory	-523
ber	-524
ier	-525
ew	-526
..	-527
▁such	-528
▁2	-529
▁-	-530
▁face	-531
▁All	-532
▁sle	-533
ward	-534
▁war	-535
▁sea	-536
▁dream	-537
ign	-538
we	-539
▁let	-540
ied	-541
ret	-542
▁head	-543
▁into	-544
rong	-545
ip	-546
▁those	-547
iv	-548
ab	-549
▁Nor	-550
▁each	-551
uch	-552
▁If	-553
▁far	-554
▁per	-555
▁dead	-556
▁last	-557
ted	-558
▁these	-559
▁By	-560
▁af	-561
▁ke	-562
ss	-563
▁well	-564
ons	-565
▁tra	-566
▁death	-567
▁many	-568
▁fri	-569
▁nor	-570
▁end	-571
▁child	-572
ze	-573
▁fair	-574
▁seem	-575
▁Is	-576
▁back	-577
▁turn	-578
▁hat	-579
▁make	-580
mer	-581
▁0	-582
ren	-583
ene	-584
▁De	-585
▁wo	-586
▁3	-587
ield	-588
pl	-589
▁Her	-590
▁rest	-591
▁pri	-592
ment	-593
aut	-594
▁gold	-595
▁call	-596
▁Which	-597
ase	-598
▁first	-599
read	-600
▁came	-601
▁Ch	-602
▁before	-603
ands	-604
ap	-605
▁How	-606
▁only	-607
▁ye	-608
▁Yet	-609
den	-610
▁fall	-611
oice	-612
▁things	-613
ause	-614
▁che	-615
▁At	-616
▁once	-617
ls	-618
ock	-619
ins	-620
ung	-621
ian	-622
▁joy	-623
▁ver	-624
aid	-625
▁think	-626
▁sn	-627
▁bro	-628
ature	-629
▁beaut	-630
▁This	-631
▁1	-632
ary	-633
aught	-634
alk	-635
▁ad	-636
▁ple	-637
▁friend	-638
ince	-639
▁bra	-640
ting	-641
▁been	-642
▁air	-643
ty	-644
be	-645
▁pe	-646
anc	-647
▁hear	-648
ens	-649
▁sing	-650
▁gr	-651
▁rem	-652
▁gu	-653
▁bir	-654
ors	-655
▁round	-656
ern	-657
ions	-658
▁bet	-659
II	-660
▁saw	-661
ple	-662
▁hop	-663
ried	-664
ee	-665
▁Now	-666
▁white	-667
▁mind	-668
oud	-669
▁high	-670
▁deep	-671
its	-672
▁sleep	-673
▁ac	-674
▁Al	-675
▁Sp	-676
▁app	-677
▁tell	-678
cl	-679
▁co	-680
▁pain	-681
▁bu	-682
air	-683
▁cle	-684
▁while	-685
▁pre	-686
▁blood	-687
▁song	-688
▁ho	-689
▁off	-690
▁new	-691
▁br	-692
▁any	-693
▁da	-694
▁even	-695
ched	-696
▁ste	-697
gg	-698
▁part	-699
ouse	-700
▁flow	-701
▁Like	-702
▁find	-703
▁heaven	-704
▁hour	-705
▁bright	-706
▁wom	-707
hing	-708
rie	-709
▁fire	-710
▁Let	-711
▁under	-712
▁“	-713
▁del	-714
▁Oh	-715
▁sky	-716
▁chan	-717
▁While	-718
▁fear	-719
able	-720
▁wild	-721
▁eye	-722
▁morn	-723
▁heard	-724
ix	-725
ning	-726
▁bel	-727
▁cre	-728
ross	-729
▁name	-730
oss	-731
!"	-732
bl	-733
akes	-734
▁Love	-735
▁bo	-736
▁cont	-737
▁though	-738
ife	-739
▁years	-740
▁place	-741
▁stre	-742
ail	-743
ets	-744
▁fore	-745
▁shad	-746
▁hands	-747
----	-748
▁sound	-749
,"	-750
▁land	-751
▁home	-752
▁alone	-753
▁two	-754
▁stri	-755
▁kind	-756
▁right	-757
ken	-758
▁most	-759
▁Thou	-760
▁about	-761
ool	-762
▁wr	-763
▁take	-764
ody	-765
▁after	-766
▁X	-767
,--	-768
▁found	-769
▁beg	-770
eds	-771
ci	-772
▁much	-773
▁whose	-774
▁lay	-775
▁mine	-776
ady	-777
llow	-778
▁red	-779
orrow	-780
mp	-781
▁Not	-782
▁hill	-783
land	-784
▁days	-785
ither	-786
ountain	-787
ten	-788
oom	-789
▁happ	-790
▁left	-791
▁play	-792
▁feel	-793
get	-794
▁feet	-795
the	-796
▁dra	-797
▁wood	-798
▁hum	-799
▁moon	-800
▁young	-801
▁mar	-802
▁art	-803
▁fell	-804
asure	-805
▁dear	-806
▁One	-807
▁care	-808
nto	-809
▁pur	-810
orm	-811
▁cur	-812
▁best	-813
▁ca	-814
▁thus	-815
▁Till	-816
▁full	-817
▁Sha	-818
▁went	-819
ering	-820
▁stra	-821
▁green	-822
▁just	-823
▁cold	-824
▁thing	-825
pen	-826
▁tri	-827
ert	-828
▁Thy	-829
man	-830
▁give	-831
▁without	-832
not	-833
▁mother	-834
▁soft	-835
▁voice	-836
▁ru	-837
ush	-838
▁el	-839
▁keep	-840
aw	-841
▁die	-842
▁beh	-843
▁Ar	-844
sh	-845
▁set	-846
▁knew	-847
▁Sh	-848
▁spir	-849
▁pray	-850
▁free	-851
▁breath	-852
▁breast	-853
▁ret	-854
▁sight	-855
ia	-856
uth	-857
ces	-858
ict	-859
ye	-860
▁pea	-861
▁grow	-862
▁live	-863
ash	-864
▁stand	-865
▁hold	-866
▁cry	-867
imes	-868
▁cour	-869
oke	-870
sel	-871
als	-872
▁till	-873
ily	-874
▁sum	-875
.'	-876
▁Lord	-877
▁done	-878
▁star	-879
▁black	-880
ines	-881
▁work	-882
aint	-883
▁forth	-884
bs	-885
▁hath	-886
▁stran	-887
▁vain	-888
▁`	-889
▁very	-890
▁gi	-891
▁dr	-892
▁ser	-893
▁res	-894
▁strong	-895
▁sec	-896
▁Their	-897
▁water	-898
▁hope	-899
▁car	-900
bb	-901
▁words	-902
cause	-903
▁true	-904
▁seen	-905
rew	-906
ches	-907
alm	-908
▁Was	-909
▁sad	-910
ont	-911
az	-912
▁gone	-913
▁near	-914
▁mus	-915
▁rose	-916
rought	-917
▁run	-918
▁doth	-919
umb	-920
▁dist	-921
▁word	-922
▁whom	-923
vers	-924
▁low	-925
▁past	-926
▁tears	-927
▁Hea	-928
▁above	-929
▁half	-930
▁pr	-931
▁King	-932
ever	-933
▁Q	-934
▁aw	-935
eak	-936
▁burn	-937
ated	-938
▁char	-939
ans	-940
▁Some	-941
▁win	-942
eneath	-943
▁dro	-944
ered	-945
▁rep	-946
▁boy	-947
▁hair	-948
ying	-949
ect	-950
▁fra	-951
▁som	-952
▁house	-953
▁side	-954
ult	-955
▁lost	-956
ump	-957
▁comm	-958
▁grie	-959
▁4	-960
day	-961
▁blue	-962
▁Bl	-963
▁want	-964
▁Up	-965
ats	-966
rist	-967
und	-968
▁hast	-969
▁Un	-970
▁stood	-971
▁Re	-972
▁hor	-973
atter	-974
▁hard	-975
▁same	-976
▁imp	-977
ought	-978
iz	-979
ift	-980
ned	-981
ek	-982
▁within	-983
▁ve	-984
▁kiss	-985
ger	-986
ute	-987
▁Though	-988
▁mountain	-989
▁field	-990
▁sur	-991
ank	-992
▁mer	-993
▁te	-994
ones	-995
▁dri	-996
▁cannot	-997
cks	-998
▁power	-999
elt	-1000
▁wall	-1001
▁show	-1002
up	-1003
▁arms	-1004
▁thro	-1005
▁dou	-1006
▁bed	-1007
▁rain	-1008
ged	-1009
▁lau	-1010
▁mon	-1011
ished	-1012
▁count	-1013
▁ev	-1014
fect	-1015
▁poor	-1016
▁cra	-1017
▁thine	-1018
ates	-1019
ilt	-1020
▁pra	-1021
▁peace	-1022
▁spirit	-1023
▁youth	-1024
▁arm	-1025
iled	-1026
▁year	-1027
▁stream	-1028
▁fill	-1029
▁morning	-1030
ople	-1031
▁maid	-1032
▁gent	-1033
une	-1034
roud	-1035
▁lips	-1036
▁nothing	-1037
▁ent	-1038
▁comp	-1039
ined	-1040
▁father	-1041
▁Se	-1042
▁comes	-1043
ching	-1044
▁soon	-1045
ense	-1046
▁Sw	-1047
▁stars	-1048
▁beauty	-1049
▁cri	-1050
▁king	-1051
▁hel	-1052
pped	-1053
▁wait	-1054
ial	-1055
sp	-1056
▁bit	-1057
▁Whose	-1058
▁cou	-1059
▁fly	-1060
▁meet	-1061
▁around	-1062
▁break	-1063
▁golden	-1064
▁Cl	-1065
▁tou	-1066
▁god	-1067
▁grace	-1068
so	-1069
▁clear	-1070
uck	-1071
▁May	-1072
▁Through	-1073
▁ask	-1074
▁tem	-1075
▁walk	-1076
▁leaves	-1077
▁Our	-1078
▁Man	-1079
ortal	-1080
▁body	-1081
fl	-1082
▁lie	-1083
The	-1084
▁slow	-1085
▁bar	-1086
▁among	-1087
bt	-1088
ey	-1089
hy	-1090
▁snow	-1091
▁open	-1092
ads	-1093
int	-1094
amp	-1095
▁wit	-1096
▁woman	-1097
ways	-1098
▁need	-1099
cha	-1100
▁along	-1101
▁people	-1102
▁bow	-1103
ires	-1104
reat	-1105
well	-1106
▁gave	-1107
▁shore	-1108
outh	-1109
▁door	-1110
▁Are	-1111
▁Your	-1112
▁faith	-1113
▁wonder	-1114
▁Do	-1115
▁glad	-1116
▁flowers	-1117
▁hon	-1118
▁sure	-1119
▁Fl	-1120
▁gir	-1121
▁div	-1122
▁Than	-1123
▁et	-1124
▁pres	-1125
▁Heaven	-1126
▁sorrow	-1127
ery	-1128
of	-1129
ils	-1130
▁children	-1131
ced	-1132
▁plain	-1133
▁spring	-1134
vy	-1135
▁hearts	-1136
▁none	-1137
iles	-1138
▁Here	-1139
ters	-1140
▁less	-1141
▁ground	-1142
ened	-1143
ason	-1144
▁thous	-1145
ween	-1146
▁bat	-1147
▁Will	-1148
▁Ah	-1149
▁born	-1150
▁ill	-1151
▁grave	-1152
▁music	-1153
ents	-1154
▁took	-1155
iness	-1156
▁cr	-1157
▁against	-1158
▁fight	-1159
▁another	-1160
was	-1161
▁sit	-1162
ok	-1163
▁fle	-1164
ides	-1165
▁speak	-1166
▁bur	-1167
▁why	-1168
▁put	-1169
▁Why	-1170
▁loved	-1171
xt	-1172
iver	-1173
▁both	-1174
▁worth	-1175
sw	-1176
dden	-1177
▁rec	-1178
▁strange	-1179
▁dim	-1180
▁bless	-1181
▁leave	-1182
▁Am	-1183
▁beneath	-1184
▁told	-1185
▁summer	-1186
ally	-1187
▁wand	-1188
▁Sc	-1189
▁bring	-1190
▁Christ	-1191
▁wide	-1192
▁glory	-1193
▁tree	-1194
▁em	-1195
gs	-1196
▁silent	-1197
ane	-1198
ames	-1199
▁small	-1200
▁bound	-1201
iew	-1202
▁son	-1203
ating	-1204
rest	-1205
▁sigh	-1206
iful	-1207
ours	-1208
▁fro	-1209
▁sin	-1210
▁does	-1211
▁trees	-1212
lls	-1213
▁lear	-1214
no	-1215
▁bes	-1216
▁mid	-1217
▁ter	-1218
▁Had	-1219
aking	-1220
▁since	-1221
?"	-1222
▁bear	-1223
▁conf	-1224
▁Death	-1225
▁whe	-1226
▁vis	-1227
iet	-1228
ots	-1229
▁truth	-1230
use	-1231
▁cons	-1232
▁grass	-1233
▁gro	-1234
▁follow	-1235
▁happy	-1236
▁list	-1237
che	-1238
atch	-1239
▁weep	-1240
▁cast	-1241
▁stay	-1242
aster	-1243
▁flo	-1244
▁return	-1245
▁being	-1246
med	-1247
els	-1248
der	-1249
▁crown	-1250
▁flower	-1251
▁foot	-1252
yn	-1253
,—	-1254
▁Shall	-1255
ught	-1256
▁behind	-1257
iling	-1258
...	-1259
ere	-1260
▁Po	-1261
light	-1262
aughter	-1263
▁mur	-1264
▁dust	-1265
▁pale	-1266
▁gle	-1267
ining	-1268
▁shadow	-1269
▁att	-1270
▁got	-1271
yond	-1272
tered	-1273
▁lies	-1274
ised	-1275
▁smile	-1276
▁dreams	-1277
Tis	-1278
And	-1279
▁get	-1280
▁delight	-1281
cc	-1282
▁close	-1283
ues	-1284
▁proud	-1285
ief	-1286
▁silver	-1287
rous	-1288
▁pride	-1289
alth	-1290
▁dep	-1291
▁three	-1292
ym	-1293
lly	-1294
▁met	-1295
ations	-1296
▁blind	-1297
night	-1298
▁col	-1299
▁flame	-1300
▁don	-1301
iff	-1302
ouds	-1303
▁laugh	-1304
▁These	-1305
▁Upon	-1306
▁hur	-1307
▁ble	-1308
for	-1309
▁sudden	-1310
▁Ab	-1311
▁desp	-1312
▁acc	-1313
▁brow	-1314
like	-1315
unt	-1316
▁wound	-1317
▁living	-1318
▁grief	-1319
irt	-1320
▁human	-1321
▁better	-1322
ember	-1323
,'	-1324
▁rise	-1325
▁que	-1326
▁sat	-1327
▁cloud	-1328
▁stone	-1329
▁thousand	-1330
ny	-1331
cious	-1332
▁mist	-1333
aze	-1334
▁fier	-1335
▁form	-1336
cy	-1337
▁lone	-1338
av	-1339
ured	-1340
ses	-1341
▁path	-1342
cho	-1343
▁dawn	-1344
▁himself	-1345
uri	-1346
▁seek	-1347
▁tong	-1348
▁always	-1349
▁ere	-1350
gether	-1351
▁hills	-1352
▁fast	-1353
▁self	-1354
▁seemed	-1355
▁step	-1356
▁view	-1357
▁storm	-1358
▁wrong	-1359
▁Ro	-1360
▁state	-1361
▁dew	-1362
ug	-1363
▁ce	-1364
come	-1365
--------	-1366
tis	-1367
▁shame	-1368
ared	-1369
ped	-1370
▁scar	-1371
▁streng	-1372
▁unt	-1373
▁sub	-1374
XX	-1375
under	-1376
▁wings	-1377
▁mighty	-1378
▁town	-1379
▁thoughts	-1380
▁watch	-1381
▁Each	-1382
▁warm	-1383
▁mean	-1384
▁bird	-1385
▁late	-1386
▁pleasure	-1387
kes	-1388
mon	-1389
▁whole	-1390
▁gentle	-1391
▁dread	-1392
▁read	-1393
▁inf	-1394
▁spe	-1395
ph	-1396
▁Com	-1397
▁lord	-1398
ething	-1399
▁!	-1400
ner	-1401
ison	-1402
▁Eng	-1403
▁forg	-1404
ips	-1405
ah	-1406
▁Thus	-1407
selves	-1408
▁start	-1409
▁brought	-1410
▁jo	-1411
▁Ag	-1412
▁quick	-1413
▁talk	-1414
▁Still	-1415
ror	-1416
pect	-1417
▁tran	-1418
▁brother	-1419
arch	-1420
ired	-1421
▁blow	-1422
▁Nature	-1423
ening	-1424
▁drink	-1425
full	-1426
▁wel	-1427
▁won	-1428
let	-1429
rs	-1430
▁mom	-1431
▁pure	-1432
▁cried	-1433
ib	-1434
▁praise	-1435
▁thr	-1436
▁friends	-1437
▁makes	-1438
resh	-1439
▁mir	-1440
▁age	-1441
▁silence	-1442
▁Ne	-1443
▁Can	-1444
rant	-1445
▁fur	-1446
men	-1447
uff	-1448
▁else	-1449
▁rel	-1450
▁Lo	-1451
ains	-1452
▁min	-1453
ub	-1454
▁knows	-1455
vel	-1456
ays	-1457
▁mad	-1458
▁hung	-1459
▁mark	-1460
▁ref	-1461
▁law	-1462
▁spread	-1463
▁felt	-1464
▁ran	-1465
▁int	-1466
▁Time	-1467
▁knight	-1468
▁skies	-1469
▁mis	-1470
▁strength	-1471
▁touch	-1472
▁turned	-1473
▁dev	-1474
ote	-1475
▁Come	-1476
▁known	-1477
▁looked	-1478
▁Me	-1479
▁oft	-1480
rent	-1481
▁held	-1482
▁unto	-1483
▁sol	-1484
▁clouds	-1485
▁sword	-1486
▁loud	-1487
▁winds	-1488
aim	-1489
dom	-1490
most	-1491
▁help	-1492
▁wise	-1493
▁ass	-1494
▁tender	-1495
▁Ear	-1496
▁wine	-1497
▁Such	-1498
▁between	-1499
▁fru	-1500
▁mel	-1501
▁Pl	-1502
▁Cha	-1503
▁sent	-1504
▁pleas	-1505
▁crow	-1506
▁wife	-1507
▁sac	-1508
▁act	-1509
▁squ	-1510
▁wish	-1511
▁died	-1512
▁lift	-1513
rit	-1514
▁scorn	-1515
eng	-1516
▁river	-1517
▁bold	-1518
▁lady	-1519
▁darkness	-1520
▁pat	-1521
▁mouth	-1522
▁mem	-1523
ho	-1524
▁ban	-1525
▁Have	-1526
▁myself	-1527
nds	-1528
▁change	-1529
ister	-1530
oul	-1531
▁Out	-1532
oon	-1533
▁See	-1534
arden	-1535
▁whis	-1536
reed	-1537
▁disc	-1538
▁goes	-1539
▁others	-1540
io	-1541
▁waves	-1542
▁together	-1543
▁Life	-1544
▁below	-1545
ging	-1546
▁rich	-1547
hood	-1548
▁dec	-1549
▁woe	-1550
▁grew	-1551
▁gen	-1552
▁Tw	-1553
▁Because	-1554
▁rock	-1555
cept	-1556
osom	-1557
ient	-1558
▁dwell	-1559
▁bloom	-1560
▁save	-1561
▁cross	-1562
▁seems	-1563
▁beautiful	-1564
▁Were	-1565
▁passion	-1566
ude	-1567
▁doubt	-1568
!'	-1569
▁Gl	-1570
irc	-1571
right	-1572
▁mour	-1573
▁5	-1574
▁vo	-1575
▁room	-1576
▁Would	-1577
▁brave	-1578
▁book	-1579
▁hir	-1580
▁rej	-1581
aken	-1582
oose	-1583
▁broken	-1584
esse	-1585
▁sense	-1586
▁nature	-1587
▁shal	-1588
▁birds	-1589
▁times	-1590
▁answ	-1591
head	-1592
▁inc	-1593
▁wear	-1594
og	-1595
▁er	-1596
▁hid	-1597
▁secret	-1598
side	-1599
▁race	-1600
▁lab	-1601
eless	-1602
▁fing	-1603
▁shade	-1604
▁move	-1605
▁fal	-1606
▁reg	-1607
ards	-1608
▁supp	-1609
▁trou	-1610
▁gloom	-1611
▁par	-1612
▁enough	-1613
rim	-1614
▁pal	-1615
utter	-1616
ancy	-1617
ual	-1618
▁suff	-1619
▁En	-1620
▁pen	-1621
▁moment	-1622
▁use	-1623
vent	-1624
▁Que	-1625
▁city	-1626
▁bosom	-1627
▁cor	-1628
onn	-1629
▁calm	-1630
ges	-1631
ments	-1632
▁roll	-1633
aked	-1634
▁gay	-1635
▁Before	-1636
ures	-1637
▁fame	-1638
▁Mar	-1639
▁draw	-1640
▁ir	-1641
▁weary	-1642
▁glor	-1643
▁women	-1644
▁cru	-1645
▁beyond	-1646
▁few	-1647
▁inst	-1648
▁lead	-1649
▁tow	-1650
▁hours	-1651
▁oh	-1652
▁sick	-1653
ertain	-1654
app	-1655
▁Even	-1656
▁fate	-1657
athe	-1658
ices	-1659
▁ring	-1660
▁yell	-1661
▁bab	-1662
▁because	-1663
▁Ad	-1664
▁sign	-1665
▁Ex	-1666
ible	-1667
host	-1668
▁desire	-1669
▁Per	-1670
▁beside	-1671
▁bitter	-1672
ams	-1673
ding	-1674
▁lar	-1675
bed	-1676
▁exp	-1677
▁ris	-1678
ject	-1679
▁glow	-1680
▁waters	-1681
▁Jo	-1682
dle	-1683
▁itself	-1684
ives	-1685
ope	-1686
▁wis	-1687
where	-1688
▁try	-1689
▁etern	-1690
▁horse	-1691
▁lives	-1692
▁unc	-1693
▁beat	-1694
▁laid	-1695
ns	-1696
▁Qu	-1697
▁imm	-1698
▁sim	-1699
▁weak	-1700
▁ange	-1701
▁something	-1702
oney	-1703
▁stir	-1704
ask	-1705
▁quiet	-1706
▁battle	-1707
▁fol	-1708
▁Unt	-1709
▁emb	-1710
▁tro	-1711
▁divine	-1712
fort	-1713
ird	-1714
▁Since	-1715
▁id	-1716
▁fam	-1717
▁birth	-1718
▁forest	-1719
▁road	-1720
▁called	-1721
▁sought	-1722
fter	-1723
▁Hear	-1724
▁course	-1725
▁Tr	-1726
▁Those	-1727
nown	-1728
▁short	-1729
▁hate	-1730
▁tongue	-1731
▁``	-1732
rings	-1733
▁across	-1734
ral	-1735
cient	-1736
▁Him	-1737
ric	-1738
iest	-1739
▁big	-1740
ster	-1741
▁Pro	-1742
▁Look	-1743
mit	-1744
▁seas	-1745
ott	-1746
▁es	-1747
▁tea	-1748
▁grey	-1749
undred	-1750
▁content	-1751
ron	-1752
▁gain	-1753
▁holy	-1754
▁Le	-1755
III	-1756
▁Into	-1757
▁tear	-1758
▁fields	-1759
▁swift	-1760
▁evening	-1761
▁Go	-1762
▁winter	-1763
▁ten	-1764
▁stro	-1765
▁lad	-1766
ction	-1767
gin	-1768
▁fin	-1769
ition	-1770
oun	-1771
ants	-1772
dge	-1773
▁girl	-1774
race	-1775
▁Con	-1776
▁remember	-1777
▁ty	-1778
▁forget	-1779
sed	-1780
▁wave	-1781
▁thri	-1782
▁stru	-1783
gu	-1784
▁next	-1785
▁woods	-1786
▁kill	-1787
now	-1788
thing	-1789
▁passed	-1790
▁Old	-1791
cean	-1792
▁Sun	-1793
▁garden	-1794
HE	-1795
aring	-1796
▁cause	-1797
▁wing	-1798
▁bid	-1799
▁ways	-1800
▁looks	-1801
ney	-1802
▁behold	-1803
▁thunder	-1804
▁ly	-1805
▁fool	-1806
▁trust	-1807
eep	-1808
uous	-1809
▁Earth	-1810
que	-1811
▁Pr	-1812
▁cheer	-1813
hold	-1814
vere	-1815
▁souls	-1816
▁country	-1817
ieve	-1818
▁nat	-1819
▁ma	-1820
▁prom	-1821
▁lovely	-1822
▁Its	-1823
▁dest	-1824
▁sand	-1825
Th	-1826
▁fit	-1827
▁bare	-1828
dy	-1829
leep	-1830
▁perfect	-1831
▁ind	-1832
rance	-1833
▁sold	-1834
▁faint	-1835
▁gall	-1836
▁tremb	-1837
▁says	-1838
etimes	-1839
▁lonely	-1840
▁hundred	-1841
▁straight	-1842
▁Down	-1843
▁ap	-1844
▁Just	-1845
ales	-1846
aves	-1847
▁inv	-1848
uc	-1849
▁Sir	-1850
▁mortal	-1851
▁Again	-1852
esh	-1853
▁van	-1854
▁ancient	-1855
▁mag	-1856
ipp	-1857
▁spoke	-1858
▁[	-1859
iant	-1860
▁hell	-1861
▁dying	-1862
by	-1863
▁Ye	-1864
▁gar	-1865
uty	-1866
▁dam	-1867
aming	-1868
ossom	-1869
▁gray	-1870
umber	-1871
▁answer	-1872
▁scarce	-1873
wh	-1874
▁Queen	-1875
▁fort	-1876
▁hang	-1877
▁Over	-1878
▁def	-1879
▁und	-1880
▁often	-1881
▁bore	-1882
▁fierce	-1883
▁leng	-1884
▁tale	-1885
▁fruit	-1886
▁given	-1887
aun	-1888
aces	-1889
▁sail	-1890
phe	-1891
▁pow	-1892
cend	-1893
ience	-1894
▁fond	-1895
umn	-1896
▁walls	-1897
▁foe	-1898
▁circ	-1899
▁inter	-1900
▁quite	-1901
cked	-1902
▁More	-1903
▁cat	-1904
▁Did	-1905
▁themselves	-1906
Twas	-1907
king	-1908
▁bree	-1909
▁space	-1910
▁height	-1911
▁empt	-1912
▁force	-1913
▁Well	-1914
▁began	-1915
osed	-1916
ities	-1917
▁temp	-1918
▁fine	-1919
▁flood	-1920
▁ghost	-1921
▁flight	-1922
ming	-1923
▁led	-1924
▁vict	-1925
▁wond	-1926
▁hide	-1927
.”	-1928
▁lust	-1929
▁tor	-1930
ky	-1931
▁Far	-1932
ume	-1933
ushed	-1934
▁pay	-1935
▁aff	-1936
▁lands	-1937
▁Only	-1938
▁corn	-1939
▁least	-1940
▁noble	-1941
rows	-1942
▁dry	-1943
▁murm	-1944
ressed	-1945
▁burning	-1946
▁stands	-1947
▁reach	-1948
▁toward	-1949
itude	-1950
▁pity	-1951
▁fresh	-1952
▁wre	-1953
▁limb	-1954
▁line	-1955
mn	-1956
▁coming	-1957
▁sy	-1958
▁shout	-1959
unk	-1960
▁eag	-1961
▁shadows	-1962
▁Bea	-1963
▁thick	-1964
▁street	-1965
▁glass	-1966
pes	-1967
urch	-1968
▁bus	-1969
▁sal	-1970
▁leaf	-1971
▁loves	-1972
com	-1973
▁fr	-1974
▁fled	-1975
▁rejoice	-1976
▁Ca	-1977
▁heavy	-1978
vell	-1979
fully	-1980
▁kept	-1981
mes	-1982
my	-1983
asy	-1984
angu	-1985
eare	-1986
▁est	-1987
▁hym	-1988
▁sacred	-1989
oot	-1990
▁court	-1991
▁west	-1992
▁heat	-1993
▁poss	-1994
▁writ	-1995
▁yellow	-1996
▁i	-1997
!--	-1998
▁hot	-1999
▁sole	-2000
▁lam	-2001
▁strife	-2002
but	-2003
▁remain	-2004
ades	-2005
▁Night	-2006
▁matter	-2007
▁kne	-2008
▁mot	-2009
▁shine	-2010
▁fat	-2011
▁underst	-2012
ater	-2013
▁flesh	-2014
haps	-2015
lect	-2016
▁lover	-2017
▁clim	-2018
▁hero	-2019
▁faces	-2020
ship	-2021
▁toil	-2022
▁yield	-2023
▁also	-2024
ys	-2025
▁ears	-2026
ax	-2027
ping	-2028
▁thin	-2029
▁cro	-2030
▁pret	-2031
ries	-2032
▁cheek	-2033
▁hem	-2034
cent	-2035
▁forgot	-2036
ded	-2037
owed	-2038
▁Wor	-2039
ages	-2040
▁Par	-2041
▁ago	-2042
▁beast	-2043
▁singing	-2044
rise	-2045
zz	-2046
▁reason	-2047
▁pa	-2048
ems	-2049
▁poet	-2050
ked	-2051
iers	-2052
▁dull	-2053
▁mourn	-2054
▁blossom	-2055
ocks	-2056
▁unf	-2057
▁Sweet	-2058
oll	-2059
▁swell	-2060
▁window	-2061
▁sple	-2062
ops	-2063
ued	-2064
though	-2065
erv	-2066
▁Spring	-2067
▁common	-2068
▁dang	-2069
▁noon	-2070
cess	-2071
ests	-2072
',	-2073
▁plan	-2074
reedom	-2075
▁length	-2076
▁brown	-2077
nde	-2078
▁dare	-2079
▁host	-2080
▁tho	-2081
ald	-2082
▁drew	-2083
▁Sm	-2084
alley	-2085
oured	-2086
▁‘	-2087
▁spee	-2088
▁unk	-2089
▁danc	-2090
▁Bet	-2091
▁Song	-2092
▁iron	-2093
▁di	-2094
▁Ever	-2095
chan	-2096
▁quest	-2097
▁inde	-2098
▁jud	-2099
▁Whil	-2100
▁pers	-2101
▁shr	-2102
▁tide	-2103
▁Under	-2104
set	-2105
▁four	-2106
ept	-2107
▁ocean	-2108
▁ins	-2109
▁used	-2110
▁false	-2111
▁lived	-2112
▁conqu	-2113
▁Ac	-2114
▁gate	-2115
▁brain	-2116
iny	-2117
urs	-2118
used	-2119
▁Has	-2120
▁band	-2121
▁purs	-2122
▁large	-2123
▁learn	-2124
▁cut	-2125
▁vast	-2126
▁shining	-2127
▁fold	-2128
▁prayer	-2129
▁mill	-2130
▁serv	-2131
▁shar	-2132
▁sink	-2133
▁Z	-2134
enty	-2135
▁Mother	-2136
▁despair	-2137
▁build	-2138
▁den	-2139
utumn	-2140
▁going	-2141
▁comfort	-2142
▁bad	-2143
▁memory	-2144
▁Thee	-2145
▁dance	-2146
▁longer	-2147
rage	-2148
▁ship	-2149
▁begin	-2150
▁broke	-2151
ony	-2152
▁virt	-2153
▁pu	-2154
▁glorious	-2155
---	-2156
▁Ap	-2157
▁real	-2158
▁splend	-2159
▁triump	-2160
▁evil	-2161
▁Two	-2162
▁cruel	-2163
▁empty	-2164
ixt	-2165
▁fir	-2166
▁pit	-2167
▁doom	-2168
hant	-2169
▁bliss	-2170
▁master	-2171
▁mountains	-2172
tering	-2173
retched	-2174
▁Day	-2175
▁eat	-2176
▁port	-2177
▁prof	-2178
▁wealth	-2179
▁ext	-2180
▁ful	-2181
▁val	-2182
ien	-2183
▁rather	-2184
▁New	-2185
▁sees	-2186
ER	-2187
oved	-2188
▁chance	-2189
▁purple	-2190
ius	-2191
▁gaze	-2192
ored	-2193
▁wed	-2194
▁gaz	-2195
▁gather	-2196
uge	-2197
▁Ho	-2198
ased	-2199
▁tomb	-2200
▁sake	-2201
▁please	-2202
ares	-2203
gged	-2204
▁Des	-2205
▁adv	-2206
▁echo	-2207
▁Lea	-2208
▁Never	-2209
▁hopes	-2210
▁prove	-2211
▁speech	-2212
▁bod	-2213
▁lot	-2214
gl	-2215
tern	-2216
▁creature	-2217
?'	-2218
▁indeed	-2219
zen	-2220
ize	-2221
nce	-2222
uring	-2223
▁wake	-2224
ca	-2225
▁waste	-2226
af	-2227
▁honour	-2228
val	-2229
aste	-2230
▁rage	-2231
▁tall	-2232
▁cries	-2233
▁mod	-2234
cher	-2235
▁ed	-2236
▁Long	-2237
▁appear	-2238
▁Sl	-2239
▁cent	-2240
▁neither	-2241
ited	-2242
ths	-2243
What	-2244
▁Men	-2245
▁England	-2246
▁certain	-2247
iffe	-2248
▁cool	-2249
aced	-2250
▁throne	-2251
aded	-2252
▁frag	-2253
▁hall	-2254
▁XX	-2255
oe	-2256
ids	-2257
amed	-2258
▁bell	-2259
▁floor	-2260
▁gener	-2261
▁present	-2262
!)	-2263
▁Could	-2264
hn	-2265
▁Gre	-2266
▁fancy	-2267
ole	-2268
ury	-2269
▁guard	-2270
▁trans	-2271
born	-2272
▁burst	-2273
▁cup	-2274
▁grown	-2275
over	-2276
▁fut	-2277
▁langu	-2278
act	-2279
othe	-2280
arrow	-2281
▁faire	-2282
▁neigh	-2283
▁reve	-2284
▁shut	-2285
▁spark	-2286
▁songs	-2287
▁&	-2288
eding	-2289
▁bent	-2290
urious	-2291
▁miss	-2292
▁fix	-2293
▁fun	-2294
▁eternal	-2295
▁fingers	-2296
▁amid	-2297
▁sons	-2298
▁whir	-2299
▁bough	-2300
▁distant	-2301
▁valley	-2302
▁wrought	-2303
zy	-2304
▁Ere	-2305
▁Light	-2306
But	-2307
▁II	-2308
▁Fair	-2309
▁spot	-2310
▁gives	-2311
▁Should	-2312
!”	-2313
▁train	-2314
▁ob	-2315
▁trembling	-2316
▁fail	-2317
▁early	-2318
▁vision	-2319
▁equ	-2320
▁6	-2321
ead	-2322
▁rhy	-2323
▁roof	-2324
▁grand	-2325
▁THE	-2326
▁caught	-2327
▁sav	-2328
▁safe	-2329
▁bend	-2330
ooth	-2331
▁nought	-2332
rel	-2333
▁simple	-2334
▁Once	-2335
▁sang	-2336
For	-2337
onnet	-2338
▁horn	-2339
▁sore	-2340
▁scene	-2341
lish	-2342
▁blast	-2343
▁Ind	-2344
▁story	-2345
▁Great	-2346
▁solemn	-2347
▁command	-2348
▁wet	-2349
▁Until	-2350
with	-2351
▁Tro	-2352
▁fears	-2353
▁smoke	-2354
▁;	-2355
▁Good	-2356
▁roses	-2357
▁bread	-2358
▁smiles	-2359
▁Gra	-2360
▁lit	-2361
▁High	-2362
▁whisper	-2363
▁opp	-2364
▁rad	-2365
▁ease	-2366
▁food	-2367
▁takes	-2368
▁compan	-2369
▁yon	-2370
.)	-2371
yal	-2372
▁Som	-2373
▁spo	-2374
▁lights	-2375
ef	-2376
▁dre	-2377
ories	-2378
▁neck	-2379
▁After	-2380
onder	-2381
chant	-2382
▁speed	-2383
▁Father	-2384
▁od	-2385
▁having	-2386
▁slowly	-2387
▁Say	-2388
▁ling	-2389
▁shed	-2390
▁wrath	-2391
),	-2392
▁fain	-2393
▁lean	-2394
▁passing	-2395
▁myst	-2396
▁immortal	-2397
▁—	-2398
bre	-2399
ceive	-2400
▁chill	-2401
▁until	-2402
▁capt	-2403
▁naked	-2404
▁hig	-2405
body	-2406
▁maiden	-2407
rank	-2408
asp	-2409
▁gods	-2410
▁First	-2411
▁flies	-2412
▁looking	-2413
sy	-2414
▁shape	-2415
▁taught	-2416
▁uns	-2417
▁limbs	-2418
na	-2419
▁ven	-2420
▁drop	-2421
▁drown	-2422
You	-2423
▁bran	-2424
▁claim	-2425
▁crowd	-2426
▁single	-2427
eks	-2428
▁coun	-2429
▁second	-2430
▁believe	-2431
▁ben	-2432
▁broad	-2433
▁John	-2434
▁pol	-2435
att	-2436
▁sch	-2437
eal	-2438
mber	-2439
pping	-2440
▁Gods	-2441
ians	-2442
olde	-2443
▁turns	-2444
ends	-2445
▁fer	-2446
▁falls	-2447
▁fires	-2448
▁tur	-2449
▁sometimes	-2450
lin	-2451
ained	-2452
▁Within	-2453
▁depart	-2454
▁fav	-2455
bes	-2456
bled	-2457
▁rare	-2458
▁sway	-2459
----------------	-2460
▁clean	-2461
▁roar	-2462
▁sort	-2463
▁shalt	-2464
▁Lady	-2465
▁voices	-2466
ede	-2467
▁strain	-2468
ON	-2469
oc	-2470
raid	-2471
▁joys	-2472
▁vill	-2473
▁heads	-2474
▁write	-2475
hil	-2476
llen	-2477
▁ride	-2478
▁breeze	-2479
ical	-2480
wise	-2481
▁wan	-2482
arent	-2483
irgin	-2484
▁appro	-2485
IN	-2486
eous	-2487
bo	-2488
aff	-2489
▁West	-2490
ider	-2491
▁steps	-2492
▁sor	-2493
▁hus	-2494
▁boys	-2495
▁send	-2496
▁Gu	-2497
▁laughter	-2498
alls	-2499
▁wol	-2500
▁Beneath	-2501
ells	-2502
▁Sea	-2503
▁Give	-2504
▁mead	-2505
erve	-2506
▁ele	-2507
▁hun	-2508
▁const	-2509
▁reign	-2510
▁sounds	-2511
▁Too	-2512
▁mil	-2513
▁decl	-2514
▁perf	-2515
wor	-2516
alks	-2517
▁falling	-2518
▁dism	-2519
▁Among	-2520
▁sister	-2521
▁midnight	-2522
▁pleasant	-2523
▁asked	-2524
▁Little	-2525
yde	-2526
▁sport	-2527
nesse	-2528
▁repl	-2529
ints	-2530
▁Dis	-2531
inted	-2532
▁warri	-2533
▁lovers	-2534
▁daughter	-2535
▁War	-2536
▁dog	-2537
retch	-2538
ghed	-2539
▁danger	-2540
ived	-2541
▁abs	-2542
▁hollow	-2543
▁throng	-2544
ait	-2545
rible	-2546
▁frame	-2547
▁neighb	-2548
▁Without	-2549
eter	-2550
▁fre	-2551
bit	-2552
more	-2553
▁nest	-2554
▁understand	-2555
▁Bel	-2556
▁Del	-2557
▁six	-2558
▁merry	-2559
▁stern	-2560
▁either	-2561
▁slain	-2562
ading	-2563
▁rocks	-2564
▁shield	-2565
▁Sil	-2566
ilight	-2567
▁bride	-2568
▁unknown	-2569
▁suddenly	-2570
▁store	-2571
▁filled	-2572
▁El	-2573
▁obs	-2574
▁sharp	-2575
▁future	-2576
pit	-2577
▁rou	-2578
▁prison	-2579
▁stones	-2580
yes	-2581
▁pet	-2582
▁bill	-2583
▁fish	-2584
▁feast	-2585
awn	-2586
twas	-2587
vest	-2588
▁Must	-2589
ushing	-2590
▁share	-2591
▁fee	-2592
▁pin	-2593
▁angel	-2594
▁Fri	-2595
▁rapt	-2596
▁steel	-2597
▁Yes	-2598
▁dem	-2599
eared	-2600
othing	-2601
▁grows	-2602
▁rust	-2603
▁Said	-2604
▁forever	-2605
des	-2606
oes	-2607
▁dost	-2608
▁pear	-2609
▁treasure	-2610
cing	-2611
▁Brit	-2612
▁kings	-2613
èd	-2614
▁bay	-2615
▁Whom	-2616
▁deeds	-2617
▁tru	-2618
▁var	-2619
orous	-2620
▁dress	-2621
▁taken	-2622
rees	-2623
ords	-2624
eness	-2625
▁alive	-2626
▁drift	-2627
▁hence	-2628
▁steep	-2629
▁tried	-2630
pher	-2631
▁aid	-2632
▁pict	-2633
▁press	-2634
▁Rem	-2635
▁Im	-2636
▁Su	-2637
road	-2638
▁heav	-2639
▁Child	-2640
▁blest	-2641
▁rising	-2642
▁English	-2643
ools	-2644
▁bones	-2645
▁streams	-2646
▁hit	-2647
▁Mary	-2648
▁greet	-2649
▁Sonnet	-2650
tw	-2651
swe	-2652
ners	-2653
▁apart	-2654
▁front	-2655
▁flying	-2656
oman	-2657
rate	-2658
▁dar	-2659
▁disp	-2660
aled	-2661
ached	-2662
▁awful	-2663
▁smooth	-2664
Oh	-2665
icked	-2666
▁Spir	-2667
▁dire	-2668
▁dumb	-2669
▁loft	-2670
▁weight	-2671
EN	-2672
lled	-2673
▁foes	-2674
▁folk	-2675
▁pier	-2676
▁stop	-2677
▁almost	-2678
▁Ma	-2679
▁utter	-2680
▁waiting	-2681
▁tune	-2682
My	-2683
▁Bes	-2684
▁queen	-2685
▁tread	-2686
▁bee	-2687
▁ones	-2688
▁stray	-2689
;--	-2690
▁dus	-2691
ledge	-2692
▁Soul	-2693
AR	-2694
long	-2695
▁foam	-2696
▁purp	-2697
▁ready	-2698
ract	-2699
▁surp	-2700
co	-2701
▁Pri	-2702
▁lose	-2703
▁east	-2704
▁prep	-2705
▁eager	-2706
▁moved	-2707
▁sighs	-2708
uct	-2709
rence	-2710
AN	-2711
It	-2712
▁Art	-2713
▁Hell	-2714
▁cease	-2715
▁seed	-2716
▁Char	-2717
band	-2718
ifts	-2719
jest	-2720
▁alle	-2721
▁herself	-2722
▁watched	-2723
rif	-2724
vail	-2725
ashion	-2726
▁creep	-2727
▁church	-2728
▁listen	-2729
▁triumph	-2730
▁Pass	-2731
▁welcome	-2732
ounds	-2733
▁Turn	-2734
▁conce	-2735
▁Fe	-2736
▁sweep	-2737
▁loving	-2738
ipe	-2739
ists	-2740
▁Alas	-2741
▁heed	-2742
▁mild	-2743
▁wilt	-2744
▁sings	-2745
▁wisdom	-2746
▁frown	-2747
▁bodies	-2748
▁twilight	-2749
ended	-2750
▁boat	-2751
▁slave	-2752
▁Mon	-2753
lands	-2754
▁afar	-2755
▁delic	-2756
▁thorn	-2757
▁Nay	-2758
▁gun	-2759
▁sens	-2760
inging	-2761
▁climb	-2762
▁keen	-2763
▁mock	-2764
lo	-2765
▁rev	-2766
gy	-2767
▁cow	-2768
▁dart	-2769
▁grim	-2770
ourney	-2771
▁haste	-2772
▁op	-2773
▁pill	-2774
▁quod	-2775
▁chief	-2776
▁measure	-2777
held	-2778
▁gift	-2779
▁loss	-2780
▁exce	-2781
▁Rose	-2782
▁bull	-2783
▁shone	-2784
▁possess	-2785
▁III	-2786
▁fig	-2787
ashed	-2788
▁cond	-2789
ises	-2790
▁guess	-2791
▁throat	-2792
▁Har	-2793
▁deed	-2794
▁fought	-2795
▁native	-2796
▁ow	-2797
▁Against	-2798
▁ours	-2799
▁Beauty	-2800
▁glit	-2801
▁nigh	-2802
▁mercy	-2803
▁whence	-2804
▁moan	-2805
▁top	-2806
▁Bo	-2807
▁Sum	-2808
▁White	-2809
▁mirth	-2810
▁mount	-2811
▁spent	-2812
▁thence	-2813
▁game	-2814
▁pine	-2815
▁curse	-2816
▁thirst	-2817
▁courage	-2818
▁compl	-2819
aws	-2820
ica	-2821
....	-2822
▁alt	-2823
▁gleam	-2824
▁softly	-2825
omp	-2826
▁clot	-2827
▁ther	-2828
▁diffe	-2829
▁shook	-2830
▁los	-2831
▁Take	-2832
▁Wind	-2833
▁fallen	-2834
▁answe	-2835
▁means	-2836
ler	-2837
▁Car	-2838
▁dies	-2839
▁borne	-2840
▁image	-2841
▁pretty	-2842
what	-2843
▁LXX	-2844
iding	-2845
▁Made	-2846
▁baby	-2847
▁five	-2848
▁worse	-2849
▁weeping	-2850
ma	-2851
▁eng	-2852
claim	-2853
▁note	-2854
ashing	-2855
▁guide	-2856
▁raise	-2857
▁brings	-2858
seen	-2859
wind	-2860
▁due	-2861
shine	-2862
▁flew	-2863
▁whil	-2864
▁Above	-2865
▁wheel	-2866
▁lake	-2867
▁prov	-2868
▁needs	-2869
▁autumn	-2870
▁hidden	-2871
rose	-2872
▁Whe	-2873
usion	-2874
▁holds	-2875
▁spake	-2876
bey	-2877
▁ray	-2878
▁tower	-2879
▁nights	-2880
har	-2881
ley	-2882
▁catch	-2883
▁works	-2884
time	-2885
ided	-2886
then	-2887
▁blows	-2888
▁track	-2889
ics	-2890
inks	-2891
▁succ	-2892
▁become	-2893
▁alas	-2894
oned	-2895
▁desert	-2896
▁glance	-2897
▁learned	-2898
▁ang	-2899
▁trem	-2900
▁frost	-2901
▁taste	-2902
▁ice	-2903
▁rul	-2904
▁flag	-2905
▁sits	-2906
▁point	-2907
▁stranger	-2908
iam	-2909
▁hom	-2910
▁veil	-2911
neath	-2912
▁forms	-2913
▁heavenly	-2914
ina	-2915
▁Mer	-2916
▁XXX	-2917
▁adm	-2918
▁unb	-2919
▁prey	-2920
IV	-2921
orses	-2922
▁cher	-2923
▁mood	-2924
▁wept	-2925
▁flames	-2926
▁narrow	-2927
▁Mus	-2928
▁East	-2929
▁changed	-2930
how	-2931
mph	-2932
▁yow	-2933
▁loose	-2934
▁virtue	-2935
▁wander	-2936
▁smiling	-2937
He	-2938
▁tu	-2939
ances	-2940
▁foul	-2941
▁shri	-2942
cience	-2943
▁blame	-2944
▁charm	-2945
▁serve	-2946
▁skill	-2947
joy	-2948
▁loo	-2949
rying	-2950
▁brood	-2951
▁glim	-2952
▁calls	-2953
▁por	-2954
▁bind	-2955
▁enem	-2956
▁fellow	-2957
nes	-2958
rid	-2959
ril	-2960
rene	-2961
▁Bre	-2962
▁inno	-2963
▁Three	-2964
▁lines	-2965
▁strike	-2966
▁freedom	-2967
▁fountain	-2968
lit	-2969
hest	-2970
▁clay	-2971
▁clos	-2972
▁easy	-2973
▁rode	-2974
▁boast	-2975
▁spell	-2976
aul	-2977
▁Br	-2978
heart	-2979
▁mass	-2980
▁names	-2981
▁laughed	-2982
▁wandering	-2983
raw	-2984
▁Fate	-2985
▁mere	-2986
▁spirits	-2987
▁z	-2988
owing	-2989
▁main	-2990
morrow	-2991
▁fet	-2992
▁prize	-2993
▁struck	-2994
bly	-2995
▁comple	-2996
▁labour	-2997
▁walked	-2998
▁blessed	-2999
▁greater	-3000
that	-3001
▁Don	-3002
▁aim	-3003
ulous	-3004
▁angu	-3005
▁North	-3006
▁bells	-3007
▁strugg	-3008
▁tempest	-3009
.--	-3010
▁ball	-3011
▁ruin	-3012
▁rough	-3013
▁Prince	-3014
▁pul	-3015
iving	-3016
▁firm	-3017
▁fleet	-3018
▁shrie	-3019
▁weather	-3020
▁answered	-3021
iol	-3022
ums	-3023
▁rule	-3024
▁magic	-3025
▁shake	-3026
▁table	-3027
umes	-3028
▁shot	-3029
AT	-3030
OR	-3031
▁stor	-3032
vern	-3033
▁woo	-3034
ester	-3035
▁health	-3036
cape	-3037
▁deem	-3038
yl	-3039
lot	-3040
hile	-3041
▁clo	-3042
▁Ange	-3043
▁Dark	-3044
▁fact	-3045
min	-3046
orse	-3047
ending	-3048
▁heavens	-3049
▁perhaps	-3050
cul	-3051
▁pil	-3052
▁afraid	-3053
VI	-3054
▁7	-3055
▁Fa	-3056
▁base	-3057
▁money	-3058
▁yours	-3059
▁sleeping	-3060
iar	-3061
bles	-3062
hern	-3063
▁ages	-3064
▁Every	-3065
bin	-3066
▁trump	-3067
▁Behold	-3068
▁endless	-3069
▁mat	-3070
▁drawn	-3071
▁smiled	-3072
kind	-3073
ushes	-3074
▁Full	-3075
▁shel	-3076
▁Dream	-3077
▁Rome	-3078
▁feed	-3079
▁pour	-3080
▁angels	-3081
blic	-3082
ites	-3083
▁las	-3084
▁knee	-3085
▁charms	-3086
▁terror	-3087
▁lightning	-3088
amb	-3089
▁Gree	-3090
▁flee	-3091
▁din	-3092
▁bark	-3093
mas	-3094
▁Ven	-3095
▁fed	-3096
▁Tell	-3097
▁huge	-3098
▁virgin	-3099
oms	-3100
dain	-3101
eeth	-3102
▁Sat	-3103
▁med	-3104
▁page	-3105
athered	-3106
▁Spirit	-3107
▁Red	-3108
inite	-3109
▁slept	-3110
ex	-3111
airs	-3112
▁Muse	-3113
▁lest	-3114
▁rude	-3115
overed	-3116
No	-3117
▁ast	-3118
▁About	-3119
▁Cons	-3120
▁Part	-3121
▁toss	-3122
▁Heart	-3123
▁chain	-3124
:--	-3125
lets	-3126
▁Bar	-3127
▁Tra	-3128
▁cost	-3129
▁mess	-3130
▁cover	-3131
▁motion	-3132
▁anguish	-3133
mson	-3134
▁Cont	-3135
▁charge	-3136
udd	-3137
▁uv	-3138
▁spr	-3139
▁Hath	-3140
▁seat	-3141
▁groan	-3142
▁mould	-3143
▁season	-3144
▁fortune	-3145
▁springs	-3146
▁skin	-3147
inking	-3148
▁World	-3149
▁Pea	-3150
▁wra	-3151
▁books	-3152
▁honey	-3153
▁knees	-3154
▁lying	-3155
▁fright	-3156
▁raised	-3157
yr	-3158
▁Arth	-3159
▁lamp	-3160
▁chair	-3161
▁seven	-3162
rang	-3163
▁Jes	-3164
▁ain	-3165
▁reb	-3166
▁ought	-3167
▁faithful	-3168
▁camp	-3169
▁question	-3170
ety	-3171
ris	-3172
▁enter	-3173
▁royal	-3174
▁stain	-3175
▁sunny	-3176
▁sphere	-3177
eps	-3178
uss	-3179
▁Save	-3180
▁join	-3181
▁drops	-3182
▁worn	-3183
▁order	-3184
▁cheeks	-3185
▁yonder	-3186
aph	-3187
hal	-3188
▁Pe	-3189
▁ah	-3190
empt	-3191
berty	-3192
▁Dear	-3193
▁plant	-3194
new	-3195
ized	-3196
▁lil	-3197
ipped	-3198
ivers	-3199
▁defe	-3200
▁harm	-3201
▁deare	-3202
▁dom	-3203
▁Came	-3204
▁Might	-3205
▁judge	-3206
▁tired	-3207
▁journey	-3208
ST	-3209
alf	-3210
cri	-3211
▁twenty	-3212
▁forward	-3213
▁unw	-3214
▁post	-3215
▁aside	-3216
▁presence	-3217
▁sung	-3218
▁hears	-3219
▁Whilst	-3220
▁wi	-3221
▁Etern	-3222
▁France	-3223
go	-3224
▁ga	-3225
▁Sleep	-3226
▁cares	-3227
▁everything	-3228
ton	-3229
▁Tho	-3230
ready	-3231
▁mart	-3232
▁requ	-3233
▁Count	-3234
▁Arthur	-3235
▁whether	-3236
▁wretched	-3237
char	-3238
▁bond	-3239
▁sunset	-3240
▁confess	-3241
ague	-3242
▁tum	-3243
lling	-3244
▁bank	-3245
▁teach	-3246
▁Ple	-3247
▁laughing	-3248
▁cap	-3249
▁cand	-3250
▁Right	-3251
alt	-3252
▁ta	-3253
That	-3254
ouses	-3255
▁Deep	-3256
▁torn	-3257
▁double	-3258
▁descend	-3259
oof	-3260
sha	-3261
utes	-3262
▁Capt	-3263
▁crew	-3264
▁marble	-3265
▁prince	-3266
▁forgotten	-3267
fer	-3268
mid	-3269
ode	-3270
rer	-3271
▁du	-3272
lier	-3273
▁deg	-3274
▁Back	-3275
▁built	-3276
▁proper	-3277
▁shades	-3278
ctor	-3279
▁Bra	-3280
▁teeth	-3281
▁boughs	-3282
▁streets	-3283
▁Hel	-3284
▁doe	-3285
▁sus	-3286
▁asleep	-3287
ply	-3288
oral	-3289
▁sto	-3290
▁didn	-3291
▁meant	-3292
▁contin	-3293
▁growing	-3294
thy	-3295
bert	-3296
▁occ	-3297
pherd	-3298
▁mast	-3299
▁reck	-3300
▁Between	-3301
▁husband	-3302
▁sunshine	-3303
To	-3304
tes	-3305
orge	-3306
▁Col	-3307
▁lack	-3308
▁parts	-3309
▁trace	-3310
attered	-3311
▁thread	-3312
vey	-3313
▁hol	-3314
▁runs	-3315
▁horses	-3316
▁kissed	-3317
▁followed	-3318
▁...	-3319
▁ign	-3320
▁idle	-3321
▁girls	-3322
▁Mo	-3323
▁ur	-3324
▁Bab	-3325
▁Poor	-3326
▁array	-3327
▁crimson	-3328
▁aught	-3329
▁daily	-3330
▁powers	-3331
oses	-3332
▁Joy	-3333
ified	-3334
▁swall	-3335
▁Win	-3336
▁wid	-3337
▁pull	-3338
▁remem	-3339
▁fashion	-3340
▁feeling	-3341
came	-3342
▁Yea	-3343
▁add	-3344
adise	-3345
ented	-3346
owers	-3347
▁prop	-3348
▁stud	-3349
▁noise	-3350
▁surely	-3351
rac	-3352
▁finger	-3353
▁moving	-3354
gar	-3355
nded	-3356
▁ming	-3357
▁equal	-3358
▁bloody	-3359
eyed	-3360
▁Make	-3361
▁laws	-3362
▁suffer	-3363
▁trouble	-3364
aths	-3365
▁milk	-3366
▁keeps	-3367
▁super	-3368
▁places	-3369
▁soldier	-3370
▁?	-3371
lic	-3372
▁Know	-3373
asting	-3374
▁thank	-3375
▁terrible	-3376
▁ph	-3377
tree	-3378
▁aye	-3379
▁Along	-3380
▁lofty	-3381
▁Son	-3382
▁nur	-3383
oping	-3384
▁ends	-3385
▁Truth	-3386
▁humble	-3387
▁replied	-3388
fold	-3389
▁buy	-3390
▁oak	-3391
▁Dead	-3392
▁rang	-3393
▁precious	-3394
▁wondrous	-3395
enes	-3396
ument	-3397
▁imag	-3398
▁task	-3399
isters	-3400
▁Black	-3401
▁Round	-3402
▁south	-3403
▁knowledge	-3404
▁IV	-3405
bered	-3406
▁luck	-3407
▁ships	-3408
▁making	-3409
▁XL	-3410
ific	-3411
▁wore	-3412
▁worst	-3413
▁school	-3414
▁standing	-3415
▁Jud	-3416
▁ant	-3417
▁fil	-3418
earer	-3419
▁expl	-3420
▁Beyond	-3421
▁design	-3422
athed	-3423
▁Moon	-3424
▁fiery	-3425
▁played	-3426
ux	-3427
VII	-3428
▁enc	-3429
bbing	-3430
rench	-3431
▁prophe	-3432
▁stately	-3433
▁hue	-3434
▁pie	-3435
▁comr	-3436
▁earn	-3437
umbers	-3438
▁awake	-3439
▁happiness	-3440
,”	-3441
Now	-3442
arm	-3443
orus	-3444
▁Heav	-3445
▁swim	-3446
▁delay	-3447
▁flash	-3448
▁verse	-3449
ails	-3450
▁fairy	-3451
▁higher	-3452
▁slumber	-3453
▁fif	-3454
illed	-3455
▁arri	-3456
▁brook	-3457
▁notes	-3458
▁Across	-3459
▁Summer	-3460
▁really	-3461
▁pot	-3462
▁swe	-3463
▁blown	-3464
▁naught	-3465
▁feather	-3466
▁towards	-3467
pse	-3468
▁Res	-3469
▁amb	-3470
▁haun	-3471
▁doors	-3472
▁whist	-3473
▁betray	-3474
con	-3475
fall	-3476
wood	-3477
▁tim	-3478
▁conc	-3479
▁Peace	-3480
▁begun	-3481
inct	-3482
▁Rep	-3483
▁Amer	-3484
▁mute	-3485
▁vale	-3486
▁April	-3487
RE	-3488
▁Fo	-3489
▁bade	-3490
▁coll	-3491
kin	-3492
ste	-3493
▁nose	-3494
▁chase	-3495
▁smell	-3496
▁spite	-3497
VIII	-3498
▁App	-3499
▁mut	-3500
▁rush	-3501
▁palace	-3502
▁parent	-3503
▁breathe	-3504
gan	-3505
ior	-3506
▁Cle	-3507
▁crime	-3508
▁Ed	-3509
illy	-3510
ores	-3511
▁Cre	-3512
▁Gold	-3513
▁throw	-3514
▁affect	-3515
▁running	-3516
bow	-3517
▁Hope	-3518
▁stoo	-3519
▁Young	-3520
▁object	-3521
aling	-3522
▁branches	-3523
▁Past	-3524
resses	-3525
▁burden	-3526
omb	-3527
▁dat	-3528
pered	-3529
range	-3530
▁moss	-3531
▁beams	-3532
▁savage	-3533
▁worlds	-3534
▁:	-3535
ffe	-3536
▁earthly	-3537
▁moonlight	-3538
▁cliff	-3539
▁swear	-3540
▁therefore	-3541
unge	-3542
▁sep	-3543
▁Holy	-3544
▁liqu	-3545
▁grant	-3546
▁warrior	-3547
▁wounded	-3548
room	-3549
ymph	-3550
ishes	-3551
▁angry	-3552
▁slight	-3553
If	-3554
▁arise	-3555
▁drunk	-3556
▁spare	-3557
off	-3558
eral	-3559
ander	-3560
ement	-3561
chance	-3562
OU	-3563
iance	-3564
▁purpose	-3565
▁village	-3566
?--	-3567
ppy	-3568
▁jew	-3569
▁pause	-3570
rupt	-3571
▁cas	-3572
▁Lest	-3573
▁blew	-3574
▁whit	-3575
▁herte	-3576
▁sheep	-3577
▁saying	-3578
▁painted	-3579
eaks	-3580
▁different	-3581
▁ut	-3582
stal	-3583
▁Ret	-3584
▁comb	-3585
▁canst	-3586
▁destro	-3587
▁stroke	-3588
▁unseen	-3589
▁rid	-3590
▁Call	-3591
▁Sing	-3592
▁bone	-3593
▁hurt	-3594
▁gates	-3595
▁further	-3596
▁promise	-3597
ae	-3598
fast	-3599
▁hal	-3600
▁Jesus	-3601
▁serene	-3602
▁thinking	-3603
hip	-3604
iced	-3605
▁subl	-3606
▁shows	-3607
▁kisses	-3608
▁scream	-3609
▁thinks	-3610
▁quickly	-3611
We	-3612
▁sez	-3613
▁insp	-3614
▁north	-3615
▁shapes	-3616
isf	-3617
irty	-3618
▁Bri	-3619
▁lip	-3620
▁Both	-3621
▁Last	-3622
▁lion	-3623
▁poison	-3624
were	-3625
iring	-3626
▁leap	-3627
▁soil	-3628
▁woes	-3629
▁displ	-3630
▁tyrant	-3631
▁reached	-3632
do	-3633
▁Land	-3634
▁Soft	-3635
▁harp	-3636
▁rece	-3637
▁tone	-3638
▁drive	-3639
▁choose	-3640
▁lifted	-3641
▁worthy	-3642
▁foolish	-3643
rat	-3644
iment	-3645
▁root	-3646
iverse	-3647
▁march	-3648
▁twice	-3649
▁abroad	-3650
▁priest	-3651
▁8	-3652
ram	-3653
▁mult	-3654
▁enjoy	-3655
▁spear	-3656
▁buried	-3657
▁shines	-3658
▁asp	-3659
▁beam	-3660
▁paid	-3661
▁brief	-3662
▁appears	-3663
IX	-3664
oked	-3665
pent	-3666
▁Eyes	-3667
▁stare	-3668
▁venge	-3669
▁person	-3670
▁knowing	-3671
bler	-3672
▁pun	-3673
▁Unto	-3674
▁flung	-3675
▁Another	-3676
ese	-3677
ural	-3678
▁lov	-3679
liest	-3680
▁tort	-3681
▁Christmas	-3682
▁diff	-3683
▁sire	-3684
▁suit	-3685
▁fault	-3686
▁locks	-3687
▁sitting	-3688
cial	-3689
▁Mad	-3690
▁Mem	-3691
▁Chan	-3692
▁mate	-3693
ishing	-3694
▁gazed	-3695
▁Du	-3696
dess	-3697
▁resol	-3698
▁wounds	-3699
▁mak	-3700
ament	-3701
▁clam	-3702
▁fade	-3703
▁cities	-3704
▁gallant	-3705
she	-3706
house	-3707
▁busy	-3708
▁altar	-3709
▁steed	-3710
▁goodly	-3711
▁remains	-3712
cil	-3713
angs	-3714
▁gri	-3715
dered	-3716
▁begg	-3717
▁fury	-3718
▁wont	-3719
▁Friend	-3720
▁majest	-3721
▁anything	-3722
▁gracious	-3723
sing	-3724
▁bew	-3725
▁mix	-3726
▁vow	-3727
▁legs	-3728
▁news	-3729
▁bears	-3730
▁frail	-3731
▁Sec	-3732
▁Fort	-3733
▁diss	-3734
▁pair	-3735
▁decay	-3736
In	-3737
aged	-3738
rors	-3739
▁row	-3740
▁tar	-3741
▁vio	-3742
▁Hill	-3743
▁edge	-3744
▁glee	-3745
▁rhyme	-3746
▁footst	-3747
▁fearful	-3748
▁radiant	-3749
▁iv	-3750
▁sir	-3751
while	-3752
▁Book	-3753
▁dusk	-3754
▁match	-3755
▁threw	-3756
▁patient	-3757
▁restless	-3758
▁gan	-3759
▁drag	-3760
▁forb	-3761
▁kingdom	-3762
ench	-3763
▁emp	-3764
▁obey	-3765
▁feels	-3766
▁fixed	-3767
▁gifts	-3768
▁closed	-3769
▁murmur	-3770
▁public	-3771
▁blossoms	-3772
▁case	-3773
▁endure	-3774
▁gently	-3775
▁shrine	-3776
urst	-3777
▁Pre	-3778
▁mort	-3779
▁adorn	-3780
▁farew	-3781
▁bought	-3782
▁inside	-3783
▁repose	-3784
▁towers	-3785
▁Thought	-3786
▁cu	-3787
tles	-3788
▁glo	-3789
ising	-3790
▁harmon	-3791
▁curious	-3792
yne	-3793
▁Pal	-3794
ighed	-3795
▁pros	-3796
▁eight	-3797
▁conquer	-3798
▁darling	-3799
▁La	-3800
ular	-3801
ffect	-3802
▁viol	-3803
▁carry	-3804
▁miles	-3805
▁mankind	-3806
▁monarch	-3807
▁yourself	-3808
▁*	-3809
bar	-3810
aine	-3811
riot	-3812
▁Amid	-3813
▁None	-3814
▁envy	-3815
▁fors	-3816
▁pard	-3817
▁disdain	-3818
▁travell	-3819
hered	-3820
▁Many	-3821
▁sour	-3822
▁week	-3823
▁Youth	-3824
▁noght	-3825
▁wolde	-3826
▁touched	-3827
ille	-3828
▁cab	-3829
▁rav	-3830
itled	-3831
▁curt	-3832
▁tend	-3833
▁desol	-3834
▁seeing	-3835
.’	-3836
▁Bu	-3837
lorn	-3838
▁South	-3839
▁stuff	-3840
▁colour	-3841
▁Nothing	-3842
▁awe	-3843
aints	-3844
ingly	-3845
angled	-3846
▁awhile	-3847
▁honest	-3848
▁outside	-3849
▁Ev	-3850
bbed	-3851
▁eve	-3852
▁Half	-3853
▁cell	-3854
▁pipe	-3855
▁fatal	-3856
▁embrace	-3857
eling	-3858
▁salt	-3859
▁brand	-3860
▁hardly	-3861
▁distance	-3862
▁dreaming	-3863
▁Dou	-3864
▁duty	-3865
▁prod	-3866
▁stat	-3867
▁tail	-3868
ention	-3869
▁shell	-3870
▁stick	-3871
▁beheld	-3872
dro	-3873
▁hail	-3874
▁price	-3875
▁delicate	-3876
▁pleasures	-3877
▁Em	-3878
pers	-3879
upid	-3880
▁Che	-3881
▁Pat	-3882
▁Fear	-3883
▁blaz	-3884
▁fanc	-3885
unning	-3886
▁incre	-3887
▁walks	-3888
This	-3889
▁banks	-3890
▁crest	-3891
▁stiff	-3892
▁expect	-3893
▁search	-3894
▁lightly	-3895
▁flat	-3896
▁swept	-3897
▁quiver	-3898
▁enchant	-3899
▁million	-3900
rag	-3901
▁LX	-3902
hast	-3903
rain	-3904
ident	-3905
▁pick	-3906
▁priv	-3907
▁temple	-3908
▁creatures	-3909
gers	-3910
▁Miss	-3911
▁Soon	-3912
▁deck	-3913
▁pall	-3914
▁rent	-3915
▁vent	-3916
▁giant	-3917
▁phant	-3918
▁kindly	-3919
▁meaning	-3920
▁Christian	-3921
▁Ha	-3922
▁Tran	-3923
liness	-3924
▁devil	-3925
▁finds	-3926
▁feeble	-3927
▁starry	-3928
▁thrown	-3929
▁infinite	-3930
col	-3931
zes	-3932
ably	-3933
otten	-3934
uries	-3935
▁rosy	-3936
▁guest	-3937
▁breaks	-3938
▁shores	-3939
▁dancing	-3940
▁Bro	-3941
▁Law	-3942
▁sel	-3943
aunce	-3944
▁Wild	-3945
▁disg	-3946
▁pace	-3947
▁blade	-3948
▁minds	-3949
▁moves	-3950
▁paint	-3951
▁veins	-3952
▁storms	-3953
▁dreadful	-3954
▁Mag	-3955
▁wax	-3956
▁trod	-3957
▁became	-3958
▁butter	-3959
inn	-3960
▁dw	-3961
▁Oft	-3962
▁exc	-3963
▁leg	-3964
wards	-3965
▁dogs	-3966
▁pant	-3967
▁pluck	-3968
▁frozen	-3969
▁clothes	-3970
▁Mr	-3971
▁Around	-3972
▁ladies	-3973
▁nations	-3974
▁sunlight	-3975
▁Therefore	-3976
ik	-3977
ov	-3978
uer	-3979
ique	-3980
▁Thine	-3981
▁turning	-3982
ora	-3983
There	-3984
▁fulf	-3985
ealous	-3986
▁aloud	-3987
▁blaze	-3988
▁hadde	-3989
▁Winter	-3990
▁farewell	-3991
yre	-3992
▁mi	-3993
reen	-3994
reme	-3995
▁grain	-3996
umbling	-3997
▁number	-3998
▁Whether	-3999
▁av	-4000
▁ec	-4001
unes	-4002
otion	-4003
▁infl	-4004
▁reply	-4005
esterday	-4006
▁fellows	-4007
▁witness	-4008
oore	-4009
riage	-4010
▁Most	-4011
▁cave	-4012
▁coast	-4013
▁perish	-4014
▁sleeps	-4015
ugh	-4016
▁VI	-4017
▁Cour	-4018
▁Home	-4019
▁imper	-4020
▁rivers	-4021
▁wicked	-4022
▁victory	-4023
▁distress	-4024
▁bud	-4025
▁net	-4026
▁Cast	-4027
▁nice	-4028
▁tiny	-4029
▁vest	-4030
▁board	-4031
▁solit	-4032
▁Master	-4033
▁beasts	-4034
▁hunger	-4035
▁mournful	-4036
▁conscious	-4037
LL	-4038
▁Morn	-4039
▁Thro	-4040
▁dece	-4041
▁Being	-4042
▁paths	-4043
▁whirl	-4044
▁plains	-4045
▁Sometimes	-4046
▁beauteous	-4047
sc	-4048
form	-4049
▁Phil	-4050
▁crying	-4051
▁pursue	-4052
▁crystal	-4053
St	-4054
itch	-4055
▁wot	-4056
▁dame	-4057
▁obsc	-4058
▁pens	-4059
▁grove	-4060
▁tramp	-4061
▁wants	-4062
▁threat	-4063
▁dreamed	-4064
fts	-4065
chen	-4066
▁pack	-4067
▁ceased	-4068
▁infant	-4069
▁sullen	-4070
▁scatter	-4071
▁started	-4072
▁Untitled	-4073
▁careless	-4074
▁Gen	-4075
▁cam	-4076
▁det	-4077
▁Jack	-4078
▁Stra	-4079
▁void	-4080
▁deser	-4081
▁guilt	-4082
▁company	-4083
▁stirred	-4084
▁sublime	-4085
▁worship	-4086
▁forehead	-4087
▁everywhere	-4088
aly	-4089
elve	-4090
▁belie	-4091
▁chains	-4092
▁express	-4093
▁harvest	-4094
▁rapture	-4095
ium	-4096
▁Dr	-4097
rets	-4098
▁Dev	-4099
▁Pres	-4100
▁rank	-4101
▁tells	-4102
▁Although	-4103
▁Fore	-4104
▁dove	-4105
▁prot	-4106
▁nearer	-4107
,)	-4108
▁Tre	-4109
▁fare	-4110
▁beard	-4111
▁crack	-4112
▁renew	-4113
▁mirror	-4114
▁surprise	-4115
▁ax	-4116
ently	-4117
▁Lond	-4118
▁cott	-4119
▁fills	-4120
▁tempt	-4121
▁Freedom	-4122
▁calling	-4123
▁picture	-4124
▁success	-4125
▁evermore	-4126
▁memories	-4127
ws	-4128
▁Er	-4129
acle	-4130
foot	-4131
noon	-4132
wixt	-4133
▁mal	-4134
▁Keep	-4135
▁Poet	-4136
▁Stri	-4137
▁slay	-4138
ounded	-4139
▁faded	-4140
▁minute	-4141
▁destroy	-4142
As	-4143
▁Ge	-4144
arse	-4145
itting	-4146
▁Faith	-4147
▁knife	-4148
▁strive	-4149
tic	-4150
wed	-4151
▁Sur	-4152
ility	-4153
▁Sure	-4154
▁vine	-4155
▁Green	-4156
▁knock	-4157
▁stock	-4158
▁attend	-4159
▁instant	-4160
▁windows	-4161
▁solitude	-4162
ES	-4163
icy	-4164
zed	-4165
▁craw	-4166
▁load	-4167
▁stag	-4168
▁Think	-4169
▁Bright	-4170
▁whatever	-4171
▁lat	-4172
▁neg	-4173
elled	-4174
▁helm	-4175
▁enemy	-4176
▁deadly	-4177
▁wanton	-4178
▁glowing	-4179
▁"'	-4180
▁Co	-4181
▁Tom	-4182
▁hush	-4183
▁sands	-4184
sm	-4185
ugg	-4186
▁Ant	-4187
▁ham	-4188
▁Jove	-4189
▁wars	-4190
▁leads	-4191
▁prime	-4192
▁stead	-4193
▁houses	-4194
▁hungry	-4195
▁myster	-4196
▁beloved	-4197
ras	-4198
ancho	-4199
ution	-4200
▁isle	-4201
▁State	-4202
▁didst	-4203
▁corner	-4204
▁damsel	-4205
▁brothers	-4206
pet	-4207
ros	-4208
hind	-4209
ision	-4210
▁prim	-4211
▁House	-4212
▁London	-4213
▁couldn	-4214
▁tumult	-4215
▁Li	-4216
irds	-4217
▁sup	-4218
▁brows	-4219
▁Perhaps	-4220
sl	-4221
ham	-4222
yng	-4223
▁Jew	-4224
▁ann	-4225
▁fan	-4226
▁rap	-4227
verse	-4228
▁hire	-4229
erable	-4230
▁River	-4231
▁bower	-4232
▁folks	-4233
▁sails	-4234
▁spray	-4235
▁castle	-4236
▁dismay	-4237
▁forlorn	-4238
▁service	-4239
▁friendly	-4240
▁gathered	-4241
So	-4242
uts	-4243
mers	-4244
▁Tri	-4245
▁June	-4246
▁Pers	-4247
▁third	-4248
▁trail	-4249
▁favour	-4250
▁horror	-4251
▁troubled	-4252
▁bridge	-4253
▁onward	-4254
▁approach	-4255
attle	-4256
▁folly	-4257
▁roots	-4258
▁Beside	-4259
▁driven	-4260
▁mystic	-4261
▁opened	-4262
▁thyself	-4263
▁scarcely	-4264
wing	-4265
▁lif	-4266
▁obl	-4267
▁offe	-4268
▁wight	-4269
▁barren	-4270
▁knights	-4271
▁shoulder	-4272
?”	-4273
elf	-4274
ism	-4275
iche	-4276
teen	-4277
▁mud	-4278
ifted	-4279
▁fret	-4280
▁shun	-4281
orious	-4282
▁Other	-4283
▁choice	-4284
▁square	-4285
▁subtle	-4286
▁already	-4287
▁flowing	-4288
Ah	-4289
cast	-4290
ynge	-4291
▁vap	-4292
comes	-4293
▁Mine	-4294
▁Star	-4295
▁scenes	-4296
Be	-4297
▁Ty	-4298
bble	-4299
ceed	-4300
▁Ger	-4301
▁nod	-4302
▁wash	-4303
▁Alone	-4304
▁Venus	-4305
arewell	-4306
▁nation	-4307
▁Sn	-4308
grim	-4309
▁vol	-4310
isted	-4311
▁balm	-4312
▁ripp	-4313
▁innocent	-4314
How	-4315
ange	-4316
udes	-4317
▁Stre	-4318
▁jest	-4319
▁pomp	-4320
▁waits	-4321
▁wilder	-4322
▁prayers	-4323
▁TH	-4324
▁hy	-4325
▁army	-4326
▁incl	-4327
▁wist	-4328
▁ashes	-4329
▁sever	-4330
▁transp	-4331
▁soldiers	-4332
▁eff	-4333
▁Seem	-4334
▁arch	-4335
▁prin	-4336
▁roam	-4337
▁today	-4338
ination	-4339
▁display	-4340
▁stopped	-4341
▁blessing	-4342
▁thousands	-4343
semb	-4344
▁env	-4345
cence	-4346
isher	-4347
▁Scot	-4348
▁foll	-4349
▁thei	-4350
acious	-4351
▁flows	-4352
▁honor	-4353
▁visit	-4354
▁burned	-4355
▁hither	-4356
▁plough	-4357
▁feature	-4358
▁tongues	-4359
oft	-4360
ploy	-4361
rice	-4362
▁der	-4363
▁lily	-4364
▁palm	-4365
▁sped	-4366
▁sooth	-4367
▁British	-4368
▁longing	-4369
▁glittering	-4370
▁9	-4371
cket	-4372
▁iss	-4373
▁coat	-4374
▁grate	-4375
▁monst	-4376
ancholy	-4377
▁speaks	-4378
▁stayed	-4379
▁wither	-4380
▁fathers	-4381
▁parting	-4382
▁passions	-4383
jo	-4384
bus	-4385
▁Ra	-4386
▁az	-4387
orts	-4388
umed	-4389
▁box	-4390
▁gown	-4391
▁hers	-4392
▁meek	-4393
▁apple	-4394
▁travel	-4395
▁earnest	-4396
▁instead	-4397
▁various	-4398
God	-4399
▁eas	-4400
▁eld	-4401
▁pop	-4402
place	-4403
there	-4404
▁tent	-4405
▁Peter	-4406
▁burns	-4407
▁echoes	-4408
▁chamber	-4409
▁walking	-4410
▁Ser	-4411
▁Sol	-4412
▁Tem	-4413
▁Vict	-4414
▁pains	-4415
▁smart	-4416
▁renown	-4417
▁foreign	-4418
nel	-4419
rab	-4420
▁dig	-4421
▁myn	-4422
perate	-4423
▁spend	-4424
▁peaceful	-4425
:—	-4426
When	-4427
oles	-4428
onel	-4429
▁Lau	-4430
▁bul	-4431
▁amaz	-4432
▁babe	-4433
▁sell	-4434
ancelot	-4435
▁French	-4436
iliar	-4437
▁Pray	-4438
▁saved	-4439
▁rolled	-4440
▁showed	-4441
▁stretch	-4442
▁breaking	-4443
IT	-4444
Why	-4445
can	-4446
ify	-4447
▁fie	-4448
▁lou	-4449
acher	-4450
▁lore	-4451
▁rear	-4452
▁suns	-4453
▁chant	-4454
▁doing	-4455
▁compass	-4456
ser	-4457
tled	-4458
▁yes	-4459
▁Fame	-4460
▁gale	-4461
▁vows	-4462
stance	-4463
▁grieve	-4464
▁hearth	-4465
▁Fortune	-4466
▁beauties	-4467
▁shepherd	-4468
▁sweetness	-4469
ences	-4470
▁Does	-4471
▁Next	-4472
▁hist	-4473
▁magn	-4474
▁rays	-4475
▁blank	-4476
▁ended	-4477
▁shock	-4478
▁spect	-4479
nie	-4480
asse	-4481
▁sacrif	-4482
cer	-4483
vin	-4484
▁Ben	-4485
▁lawn	-4486
▁blush	-4487
▁Indian	-4488
▁disapp	-4489
▁footsteps	-4490
▁somewhere	-4491
pic	-4492
ithe	-4493
▁Cat	-4494
field	-4495
ustom	-4496
▁lass	-4497
▁repe	-4498
▁sweat	-4499
▁wanted	-4500
▁America	-4501
rol	-4502
ulf	-4503
ura	-4504
▁han	-4505
▁bees	-4506
▁goal	-4507
▁surf	-4508
ancing	-4509
▁drank	-4510
▁ignor	-4511
▁paper	-4512
▁tight	-4513
▁cursed	-4514
▁thanks	-4515
▁carried	-4516
▁Lancelot	-4517
▁helpless	-4518
▁splendid	-4519
▁shoulders	-4520
▁friendship	-4521
▁mu	-4522
ouch	-4523
stri	-4524
▁cop	-4525
▁vig	-4526
▁yer	-4527
▁brid	-4528
▁Bring	-4529
▁laure	-4530
▁level	-4531
▁sides	-4532
▁withd	-4533
▁subject	-4534
▁Cur	-4535
▁Lay	-4536
elest	-4537
▁bands	-4538
▁secure	-4539
▁mystery	-4540
{.	-4541
quet	-4542
▁ves	-4543
▁fest	-4544
▁unre	-4545
▁Stand	-4546
▁belong	-4547
▁slaves	-4548
▁waited	-4549
▁rolling	-4550
▁breathing	-4551
).	-4552
cle	-4553
edy	-4554
▁Min	-4555
▁unl	-4556
ously	-4557
▁Comp	-4558
▁thor	-4559
▁Roger	-4560
▁family	-4561
▁jealous	-4562
▁language	-4563
▁vengeance	-4564
ii	-4565
▁Wat	-4566
▁ard	-4567
▁Scar	-4568
▁anim	-4569
▁ceas	-4570
▁harb	-4571
▁sins	-4572
▁Kings	-4573
▁strove	-4574
▁breasts	-4575
gn	-4576
ada	-4577
▁ol	-4578
ival	-4579
▁unm	-4580
▁sage	-4581
▁Autumn	-4582
▁wonderful	-4583
Al	-4584
ec	-4585
▁’	-4586
All	-4587
gle	-4588
olt	-4589
yle	-4590
▁fem	-4591
▁kin	-4592
▁Saint	-4593
▁Story	-4594
▁trade	-4595
lasting	-4596
▁string	-4597
non	-4598
▁Sy	-4599
atic	-4600
ilty	-4601
ldom	-4602
rawn	-4603
▁peer	-4604
▁drove	-4605
▁satisf	-4606
▁shrill	-4607
▁stormy	-4608
▁crowned	-4609
▁sweetly	-4610
▁written	-4611
▁scattered	-4612
try	-4613
iven	-4614
▁Imp	-4615
▁pool	-4616
▁bowed	-4617
▁Behind	-4618
▁sorrows	-4619
▁strings	-4620
▁trumpet	-4621
▁fragrant	-4622
uce	-4623
ital	-4624
▁Set	-4625
▁silk	-4626
earing	-4627
▁float	-4628
▁Ten	-4629
▁haw	-4630
▁suc	-4631
▁City	-4632
▁bush	-4633
▁lull	-4634
▁muse	-4635
▁midst	-4636
▁circle	-4637
▁direct	-4638
▁killed	-4639
▁steady	-4640
▁waking	-4641
▁dropped	-4642
▁yesterday	-4643
pel	-4644
you	-4645
▁bott	-4646
▁alike	-4647
▁anger	-4648
▁Church	-4649
▁begins	-4650
▁intell	-4651
▁fairest	-4652
▁chest	-4653
▁dared	-4654
▁month	-4655
▁solid	-4656
▁graves	-4657
▁shadowy	-4658
▁Paradise	-4659
▁business	-4660
▁passionate	-4661
▁Id	-4662
▁Luc	-4663
▁cal	-4664
▁Town	-4665
▁ecst	-4666
▁shat	-4667
illing	-4668
▁champ	-4669
▁seeds	-4670
▁former	-4671
▁taking	-4672
▁wreath	-4673
▁complete	-4674
▁youthful	-4675
fly	-4676
▁Af	-4677
cken	-4678
▁Dro	-4679
▁End	-4680
▁Four	-4681
▁furn	-4682
▁sank	-4683
▁draws	-4684
▁rings	-4685
▁stair	-4686
▁steal	-4687
orthern	-4688
▁reward	-4689
▁upward	-4690
▁glimmer	-4691
▁withered	-4692
ino	-4693
▁Rest	-4694
▁mars	-4695
lected	-4696
▁proof	-4697
▁returned	-4698
▁Div	-4699
▁bal	-4700
▁pip	-4701
▁rom	-4702
gment	-4703
nings	-4704
▁Hold	-4705
▁anew	-4706
▁gild	-4707
▁Whence	-4708
▁ourselves	-4709
▁Sav	-4710
▁ord	-4711
▁Forg	-4712
▁unha	-4713
▁arose	-4714
▁nymph	-4715
▁scent	-4716
▁stout	-4717
▁truly	-4718
▁sovere	-4719
CE	-4720
Who	-4721
bird	-4722
ults	-4723
▁Mid	-4724
xious	-4725
▁fart	-4726
▁sunk	-4727
▁lance	-4728
▁meadow	-4729
▁murder	-4730
▁prayed	-4731
wart	-4732
yard	-4733
▁ens	-4734
▁kit	-4735
▁whan	-4736
▁fever	-4737
▁shown	-4738
▁dreary	-4739
▁wholly	-4740
▁although	-4741
ols	-4742
▁sho	-4743
oring	-4744
▁bred	-4745
▁breed	-4746
▁cattle	-4747
▁famous	-4748
▁pressed	-4749
▁receive	-4750
▁vanished	-4751
▁afternoon	-4752
isc	-4753
tin	-4754
osen	-4755
uses	-4756
▁---	-4757
▁Boy	-4758
▁Cold	-4759
▁Pain	-4760
▁clasp	-4761
▁fruits	-4762
▁pardon	-4763
▁senses	-4764
aughters	-4765
▁Captain	-4766
▁liberty	-4767
▁splendour	-4768
▁pan	-4769
▁vex	-4770
▁Maid	-4771
▁aged	-4772
▁cock	-4773
▁soule	-4774
hearted	-4775
▁middle	-4776
uing	-4777
▁esc	-4778
▁Mark	-4779
▁brim	-4780
▁Comes	-4781
▁eagle	-4782
▁offer	-4783
▁twain	-4784
▁gloomy	-4785
gue	-4786
▁Pra	-4787
▁drum	-4788
▁roads	-4789
▁thund	-4790
▁wrote	-4791
▁ascend	-4792
▁intent	-4793
▁watching	-4794
▁melancholy	-4795
aches	-4796
asion	-4797
▁bowl	-4798
▁rail	-4799
▁weap	-4800
▁agony	-4801
▁relig	-4802
▁depths	-4803
▁haught	-4804
▁heroes	-4805
▁-–	-4806
▁Aw	-4807
▁cy	-4808
▁gn	-4809
▁Hen	-4810
venge	-4811
▁pink	-4812
▁thow	-4813
▁minst	-4814
▁seyde	-4815
▁weeds	-4816
▁letter	-4817
▁letters	-4818
very	-4819
▁ing	-4820
ative	-4821
▁shew	-4822
▁except	-4823
▁months	-4824
▁recall	-4825
▁thrust	-4826
▁whilst	-4827
▁shelter	-4828
▁winding	-4829
ias	-4830
aret	-4831
forth	-4832
▁Away	-4833
▁poets	-4834
▁lament	-4835
▁flutter	-4836
▁generous	-4837
▁gleaming	-4838
gain	-4839
when	-4840
▁bas	-4841
anced	-4842
antic	-4843
chief	-4844
▁appl	-4845
▁worm	-4846
▁fools	-4847
▁theirs	-4848
▁desires	-4849
▁constant	-4850
▁patience	-4851
▁childhood	-4852
▁Rod	-4853
▁Sad	-4854
▁ori	-4855
quent	-4856
▁Bill	-4857
▁doub	-4858
▁beach	-4859
▁tales	-4860
▁effect	-4861
▁modest	-4862
▁natural	-4863
▁tremble	-4864
fle	-4865
irl	-4866
itor	-4867
rust	-4868
they	-4869
▁Cam	-4870
▁fid	-4871
inion	-4872
▁lark	-4873
▁quar	-4874
▁woke	-4875
▁abide	-4876
▁range	-4877
▁shoot	-4878
ishment	-4879
▁daring	-4880
▁greatest	-4881
cal	-4882
ete	-4883
ubb	-4884
▁Cy	-4885
▁dey	-4886
▁mor	-4887
▁rum	-4888
▁Went	-4889
▁Grace	-4890
▁exist	-4891
▁horiz	-4892
▁seeks	-4893
▁inward	-4894
▁misery	-4895
▁dearest	-4896
▁bere	-4897
umbled	-4898
▁hangs	-4899
▁steam	-4900
▁escape	-4901
▁liquid	-4902
▁thrice	-4903
▁respect	-4904
▁Remember	-4905
▁neighbour	-4906
cip	-4907
isy	-4908
▁ay	-4909
iate	-4910
▁Mel	-4911
▁Mir	-4912
stone	-4913
▁able	-4914
▁deer	-4915
▁fray	-4916
▁plac	-4917
▁resp	-4918
▁saint	-4919
▁billows	-4920
▁slender	-4921
rey	-4922
okes	-4923
opes	-4924
▁nine	-4925
iction	-4926
▁later	-4927
▁trick	-4928
▁heights	-4929
▁Ale	-4930
▁Cal	-4931
▁Wit	-4932
▁lap	-4933
▁Conf	-4934
▁Forth	-4935
▁glide	-4936
▁separ	-4937
▁sorry	-4938
▁sprang	-4939
▁wasted	-4940
▁nighting	-4941
IS	-4942
hel	-4943
▁Ly	-4944
Come	-4945
osop	-4946
ruct	-4947
▁Age	-4948
▁Hon	-4949
▁Put	-4950
▁Fall	-4951
▁Ther	-4952
▁robe	-4953
▁Cross	-4954
▁Swift	-4955
▁dissol	-4956
▁passes	-4957
▁sholde	-4958
▁current	-4959
▁declare	-4960
▁monster	-4961
omen	-4962
▁Aye	-4963
▁shy	-4964
isten	-4965
▁Fire	-4966
▁meat	-4967
▁snake	-4968
▁shroud	-4969
▁meadows	-4970
▁sweetest	-4971
▁listening	-4972
po	-4973
▁Sk	-4974
▁Den	-4975
▁Fit	-4976
▁Rel	-4977
ugust	-4978
unken	-4979
▁lays	-4980
▁reel	-4981
▁deeper	-4982
▁wheels	-4983
▁colours	-4984
▁manhood	-4985
▁numbers	-4986
ai	-4987
mo	-4988
uns	-4989
ilus	-4990
just	-4991
▁isn	-4992
▁Adam	-4993
▁diam	-4994
▁lyre	-4995
▁rede	-4996
▁repro	-4997
▁wouldn	-4998
▁captive	-4999
▁highest	-5000
▁torrent	-5001
▁floating	-5002
▁Dri	-5003
▁Low	-5004
▁Squ	-5005
▁cho	-5006
igned	-5007
white	-5008
▁Gent	-5009
▁dazz	-5010
▁vile	-5011
▁Hence	-5012
▁azure	-5013
▁snows	-5014
▁accept	-5015
▁ghosts	-5016
▁wilderness	-5017
uz	-5018
ailed	-5019
▁Blue	-5020
▁mans	-5021
ardens	-5022
▁craft	-5023
▁lowly	-5024
▁beating	-5025
▁valiant	-5026
▁valleys	-5027
▁wonders	-5028
arts	-5029
iety	-5030
▁key	-5031
▁Slow	-5032
▁crad	-5033
▁deny	-5034
▁rend	-5035
▁pines	-5036
ounding	-5037
▁bounds	-5038
▁excell	-5039
▁gleams	-5040
▁temper	-5041
▁crossed	-5042
▁entered	-5043
▁retreat	-5044
▁everlasting	-5045
▁ze	-5046
iour	-5047
▁Cor	-5048
▁gru	-5049
▁Mind	-5050
▁ripe	-5051
▁flock	-5052
▁maybe	-5053
▁stole	-5054
▁Return	-5055
▁guilty	-5056
▁seldom	-5057
▁cunning	-5058
▁Farewell	-5059
key	-5060
▁Eu	-5061
aker	-5062
▁Inst	-5063
▁quit	-5064
athing	-5065
▁Power	-5066
▁caval	-5067
▁lilies	-5068
▁placed	-5069
▁regret	-5070
▁shiver	-5071
▁vanish	-5072
▁wretch	-5073
elestial	-5074
▁forests	-5075
▁perfume	-5076
▁wandered	-5077
IR	-5078
▁seal	-5079
▁Sorrow	-5080
▁accord	-5081
▁kindred	-5082
▁thither	-5083
rad	-5084
uit	-5085
▁Ph	-5086
gent	-5087
unch	-5088
▁Them	-5089
▁bars	-5090
▁dome	-5091
▁lend	-5092
▁spur	-5093
▁wert	-5094
inkled	-5095
▁wreck	-5096
▁gazing	-5097
▁blowing	-5098
▁madness	-5099
▁scarlet	-5100
▁solitary	-5101
▁Sa	-5102
edge	-5103
iter	-5104
zing	-5105
▁wag	-5106
ality	-5107
order	-5108
otted	-5109
ually	-5110
▁bids	-5111
▁subd	-5112
▁wolf	-5113
idence	-5114
▁Bless	-5115
▁aloft	-5116
▁joyous	-5117
▁roaring	-5118
▁following	-5119
US	-5120
ims	-5121
▁wy	-5122
abel	-5123
will	-5124
▁Mor	-5125
▁fel	-5126
▁job	-5127
▁rob	-5128
asted	-5129
▁Happ	-5130
▁Hark	-5131
▁cler	-5132
▁farm	-5133
▁symp	-5134
▁wasn	-5135
▁drear	-5136
▁grasp	-5137
▁linger	-5138
▁melody	-5139
ban	-5140
ieu	-5141
van	-5142
They	-5143
idden	-5144
▁Mart	-5145
▁deaf	-5146
▁sust	-5147
▁Brown	-5148
▁fifty	-5149
▁refuse	-5150
▁Brother	-5151
aks	-5152
apt	-5153
▁Ill	-5154
▁Bell	-5155
▁True	-5156
▁sate	-5157
▁Roman	-5158
▁pearl	-5159
▁realm	-5160
▁sadly	-5161
▁selfe	-5162
▁sparkling	-5163
eem	-5164
▁eek	-5165
▁lur	-5166
erved	-5167
gress	-5168
▁Doth	-5169
▁Eden	-5170
▁Wait	-5171
▁prow	-5172
▁exper	-5173
▁glare	-5174
▁quoth	-5175
▁silly	-5176
▁shower	-5177
▁playing	-5178
▁desolate	-5179
▁dy	-5180
quis	-5181
▁Dan	-5182
▁Hum	-5183
▁Jim	-5184
▁deb	-5185
▁dye	-5186
apers	-5187
asped	-5188
▁tyme	-5189
▁wail	-5190
▁chose	-5191
▁color	-5192
▁nurse	-5193
▁rememb	-5194
▁suppose	-5195
ara	-5196
▁Ce	-5197
aunt	-5198
gypt	-5199
▁bru	-5200
▁rud	-5201
▁wiv	-5202
vering	-5203
▁March	-5204
▁depth	-5205
▁peril	-5206
▁pulse	-5207
▁troop	-5208
▁talked	-5209
▁diamond	-5210
▁justice	-5211
▁conscience	-5212
▁underneath	-5213
lt	-5214
Let	-5215
▁18	-5216
▁Fer	-5217
▁VII	-5218
▁ess	-5219
▁Dist	-5220
▁cure	-5221
▁groves	-5222
▁spoken	-5223
irm	-5224
▁fay	-5225
▁wil	-5226
asant	-5227
twixt	-5228
▁arts	-5229
isible	-5230
▁couch	-5231
▁pious	-5232
▁chosen	-5233
▁employ	-5234
▁silken	-5235
▁eternity	-5236
Is	-5237
vet	-5238
line	-5239
▁rele	-5240
▁Woman	-5241
▁pract	-5242
▁riches	-5243
▁twelve	-5244
▁vessel	-5245
▁pilgrim	-5246
▁dwelling	-5247
▁sovereign	-5248
aud	-5249
ker	-5250
▁vac	-5251
lings	-5252
▁conv	-5253
▁emer	-5254
▁Crist	-5255
▁spoil	-5256
▁straw	-5257
▁figure	-5258
▁opening	-5259
▁cheerful	-5260
▁AN	-5261
▁egg	-5262
▁Desp	-5263
▁chat	-5264
▁mien	-5265
▁Leave	-5266
▁crept	-5267
▁plung	-5268
▁shriek	-5269
▁wintry	-5270
▁anxious	-5271
▁leaving	-5272
▁western	-5273
bu	-5274
Nay	-5275
bye	-5276
bell	-5277
rope	-5278
▁Med	-5279
▁Tow	-5280
▁Much	-5281
▁womb	-5282
▁bleak	-5283
▁clock	-5284
▁sinks	-5285
▁suppl	-5286
▁wears	-5287
▁Strong	-5288
aire	-5289
rish	-5290
▁fox	-5291
uence	-5292
▁damp	-5293
▁Beaut	-5294
▁Henry	-5295
▁haply	-5296
▁quench	-5297
▁sighed	-5298
▁swords	-5299
▁thrill	-5300
▁spreads	-5301
▁sweeter	-5302
▁grateful	-5303
ault	-5304
▁LXXX	-5305
▁Speak	-5306
▁lifts	-5307
▁quart	-5308
▁shoes	-5309
▁Unless	-5310
▁fancies	-5311
▁parents	-5312
▁complain	-5313
▁disgrace	-5314
▁overhead	-5315
▁daughters	-5316
▁desperate	-5317
aps	-5318
▁Ay	-5319
erer	-5320
▁san	-5321
▁wer	-5322
▁beds	-5323
▁dish	-5324
▁melt	-5325
ighted	-5326
▁dwelt	-5327
▁sober	-5328
▁vainly	-5329
▁advance	-5330
▁drowned	-5331
▁prevail	-5332
▁beginning	-5333
quil	-5334
▁Air	-5335
▁Dem	-5336
▁Pho	-5337
▁Sal	-5338
blest	-5339
resse	-5340
▁Hand	-5341
▁coff	-5342
▁yore	-5343
▁shouts	-5344
▁forgive	-5345
▁haughty	-5346
▁message	-5347
▁serpent	-5348
▁Mountain	-5349
▁gladness	-5350
▁stronger	-5351
▁lan	-5352
▁saf	-5353
▁voy	-5354
Where	-5355
ashes	-5356
▁Care	-5357
▁Fell	-5358
▁Mars	-5359
ipping	-5360
▁Court	-5361
▁James	-5362
▁cloth	-5363
▁plays	-5364
▁corpse	-5365
▁flaming	-5366
▁swallow	-5367
▁familiar	-5368
▁murmuring	-5369
▁perchance	-5370
▁returning	-5371
Thou	-5372
With	-5373
oted	-5374
lesse	-5375
▁Marm	-5376
▁Prin	-5377
▁hoof	-5378
▁sear	-5379
▁stem	-5380
▁surv	-5381
▁lower	-5382
▁rules	-5383
▁marked	-5384
▁wished	-5385
ante	-5386
ighty	-5387
▁bard	-5388
▁damn	-5389
▁fling	-5390
ameless	-5391
▁banner	-5392
▁wishes	-5393
▁pensive	-5394
▁swelling	-5395
▁Something	-5396
maid	-5397
pper	-5398
▁nay	-5399
▁unp	-5400
▁vel	-5401
astic	-5402
▁dere	-5403
▁Angel	-5404
▁Close	-5405
▁onely	-5406
▁swing	-5407
▁import	-5408
▁realms	-5409
▁sprung	-5410
▁Strange	-5411
▁working	-5412
▁backward	-5413
▁blooming	-5414
ET	-5415
▁Es	-5416
ghte	-5417
rian	-5418
umin	-5419
▁Sam	-5420
▁dewy	-5421
terest	-5422
▁Egypt	-5423
▁flick	-5424
▁homes	-5425
▁ranks	-5426
▁signs	-5427
▁smote	-5428
▁Things	-5429
▁giving	-5430
▁nobler	-5431
▁happier	-5432
▁mingled	-5433
'.	-5434
EA	-5435
rap	-5436
▁Te	-5437
ator	-5438
utch	-5439
▁Imm	-5440
▁Mac	-5441
▁Pur	-5442
▁sex	-5443
alled	-5444
▁Free	-5445
▁guns	-5446
▁heap	-5447
▁hind	-5448
▁mile	-5449
▁pond	-5450
▁Crown	-5451
▁avail	-5452
▁bothe	-5453
▁haunt	-5454
▁maids	-5455
▁sting	-5456
▁danced	-5457
▁sisters	-5458
▁warriors	-5459
▁suffering	-5460
br	-5461
Then	-5462
ighs	-5463
isse	-5464
rels	-5465
▁non	-5466
▁Kind	-5467
▁fern	-5468
▁flown	-5469
▁ghast	-5470
▁hurry	-5471
▁unfold	-5472
▁Morning	-5473
▁warning	-5474
.]	-5475
ob	-5476
ggy	-5477
ills	-5478
work	-5479
▁Ros	-5480
▁bag	-5481
using	-5482
▁Duke	-5483
▁Tree	-5484
▁test	-5485
▁zeal	-5486
▁fence	-5487
▁toils	-5488
▁action	-5489
▁female	-5490
▁patter	-5491
▁hearing	-5492
▁seasons	-5493
▁whispered	-5494
athy	-5495
rung	-5496
▁bon	-5497
osing	-5498
ospit	-5499
twere	-5500
udden	-5501
▁Beat	-5502
▁Lost	-5503
▁eyel	-5504
▁moor	-5505
▁rein	-5506
▁kneel	-5507
▁freely	-5508
▁account	-5509
▁covered	-5510
▁glories	-5511
▁history	-5512
▁comrades	-5513
EL	-5514
▁ken	-5515
athes	-5516
▁Hall	-5517
▁bene	-5518
▁cling	-5519
▁snowy	-5520
▁vague	-5521
▁Forget	-5522
▁bestow	-5523
▁failed	-5524
▁growth	-5525
▁warmth	-5526
▁becomes	-5527
▁bending	-5528
▁marriage	-5529
ado	-5530
arn	-5531
▁ju	-5532
▁ole	-5533
▁rod	-5534
▁Burn	-5535
▁spin	-5536
▁belly	-5537
▁final	-5538
▁habit	-5539
▁degree	-5540
▁island	-5541
▁nobody	-5542
▁repent	-5543
▁married	-5544
▁mothers	-5545
▁pleased	-5546
▁someone	-5547
▁swiftly	-5548
▁torment	-5549
▁changing	-5550
▁centuries	-5551
▁sacrifice	-5552
▁OF	-5553
aped	-5554
▁Eve	-5555
▁ber	-5556
cends	-5557
▁chim	-5558
▁crou	-5559
▁lamps	-5560
▁manly	-5561
▁named	-5562
▁stage	-5563
▁wakes	-5564
▁genius	-5565
▁lustre	-5566
▁raging	-5567
▁thirty	-5568
▁furious	-5569
▁showers	-5570
▁strains	-5571
▁Whatever	-5572
irs	-5573
▁19	-5574
▁Acc	-5575
▁Hym	-5576
▁Inf	-5577
▁Lie	-5578
▁liv	-5579
▁Bird	-5580
▁Year	-5581
▁fant	-5582
▁peep	-5583
▁tick	-5584
▁beats	-5585
▁bottom	-5586
▁strand	-5587
▁protect	-5588
▁rainbow	-5589
▁Children	-5590
▁fighting	-5591
▁hopeless	-5592
▁speaking	-5593
▁universe	-5594
RI	-5595
ona	-5596
▁Pan	-5597
oking	-5598
▁deal	-5599
▁tame	-5600
▁verd	-5601
▁loyal	-5602
▁wheat	-5603
▁Eternal	-5604
▁Marmion	-5605
▁however	-5606
▁sadness	-5607
▁pleasing	-5608
arer	-5609
▁Ast	-5610
▁Atl	-5611
▁Mur	-5612
▁Rom	-5613
▁obt	-5614
▁Alex	-5615
ivered	-5616
▁halls	-5617
▁Scarce	-5618
▁fairer	-5619
▁record	-5620
▁violet	-5621
▁William	-5622
▁process	-5623
▁Eternity	-5624
OT	-5625
arf	-5626
▁Lu	-5627
rass	-5628
ules	-5629
▁Sin	-5630
▁ash	-5631
▁impl	-5632
▁lent	-5633
▁scor	-5634
lessly	-5635
▁arrow	-5636
▁harsh	-5637
▁rises	-5638
ruction	-5639
▁feared	-5640
▁hushed	-5641
▁Goddess	-5642
▁hanging	-5643
▁downward	-5644
OM	-5645
rod	-5646
,---	-5647
iger	-5648
▁fog	-5649
▁hay	-5650
▁lak	-5651
mbers	-5652
▁Wood	-5653
▁doll	-5654
▁grin	-5655
▁mail	-5656
▁weed	-5657
▁moist	-5658
▁Except	-5659
▁folded	-5660
▁laughs	-5661
▁general	-5662
▁sighing	-5663
▁visions	-5664
gone	-5665
hall	-5666
▁inj	-5667
▁una	-5668
erves	-5669
▁Aust	-5670
▁Ball	-5671
▁span	-5672
▁vert	-5673
▁revol	-5674
▁plenty	-5675
▁shakes	-5676
▁seeking	-5677
▁bleeding	-5678
▁features	-5679
▁surround	-5680
gly	-5681
owl	-5682
▁Att	-5683
▁civ	-5684
▁icy	-5685
ables	-5686
▁Comm	-5687
▁anch	-5688
▁begu	-5689
▁rejo	-5690
▁Paris	-5691
▁Robin	-5692
▁burnt	-5693
▁merri	-5694
▁candle	-5695
▁impart	-5696
▁parted	-5697
▁Troilus	-5698
▁somehow	-5699
▁temples	-5700
▁gathering	-5701
ING	-5702
▁fu	-5703
▁Pol	-5704
▁Ste	-5705
▁pos	-5706
▁acqu	-5707
▁gest	-5708
▁poem	-5709
▁Spain	-5710
▁Water	-5711
▁flour	-5712
▁hound	-5713
▁piece	-5714
▁score	-5715
▁waving	-5716
▁breezes	-5717
▁follows	-5718
▁hurried	-5719
▁murmurs	-5720
▁ringing	-5721
▁profound	-5722
?)	-5723
worn	-5724
▁Fly	-5725
▁Ori	-5726
▁Rec	-5727
▁esp	-5728
▁gem	-5729
imate	-5730
▁VIII	-5731
▁jump	-5732
▁lock	-5733
▁myri	-5734
ainted	-5735
ignant	-5736
▁gained	-5737
▁regard	-5738
▁cottage	-5739
▁phantom	-5740
!—	-5741
don	-5742
oop	-5743
look	-5744
▁Bur	-5745
▁Fle	-5746
▁Jul	-5747
after	-5748
press	-5749
▁Pale	-5750
▁beer	-5751
▁buck	-5752
▁thra	-5753
▁Fancy	-5754
outhern	-5755
▁Rogero	-5756
▁advent	-5757
▁fading	-5758
▁paused	-5759
▁served	-5760
▁setting	-5761
▁monstrous	-5762
ón	-5763
ader	-5764
some	-5765
▁Hard	-5766
▁Play	-5767
▁buds	-5768
▁gorge	-5769
▁stamp	-5770
▁theme	-5771
▁Garden	-5772
▁coward	-5773
▁orchar	-5774
▁hideous	-5775
▁moments	-5776
▁breathed	-5777
ida	-5778
rem	-5779
anks	-5780
lock	-5781
▁Int	-5782
▁Lat	-5783
▁Ver	-5784
acles	-5785
▁Find	-5786
▁Hast	-5787
▁Shad	-5788
▁leve	-5789
▁meth	-5790
ifting	-5791
▁Ocean	-5792
▁demon	-5793
▁scant	-5794
▁treat	-5795
▁Follow	-5796
▁gladly	-5797
▁pillow	-5798
▁proved	-5799
▁draught	-5800
▁ghastly	-5801
▁private	-5802
▁tangled	-5803
▁silently	-5804
▁stillness	-5805
lar	-5806
sec	-5807
▁Ru	-5808
▁ide	-5809
▁vul	-5810
▁Born	-5811
▁check	-5812
▁haven	-5813
▁lords	-5814
▁Making	-5815
▁beggar	-5816
▁branch	-5817
▁sailor	-5818
▁wrongs	-5819
▁Monarch	-5820
▁stretched	-5821
▁treasures	-5822
--"	-5823
empl	-5824
ulls	-5825
▁Lou	-5826
▁gets	-5827
▁mask	-5828
▁pile	-5829
enance	-5830
▁labor	-5831
▁torch	-5832
▁wives	-5833
inkling	-5834
▁borrow	-5835
▁bowers	-5836
▁floods	-5837
▁harmony	-5838
▁willing	-5839
▁Pleasure	-5840
▁proclaim	-5841
▁boundless	-5842
▁slaughter	-5843
Wh	-5844
rud	-5845
▁Je	-5846
bute	-5847
gard	-5848
▁Emp	-5849
▁Jer	-5850
▁Writ	-5851
▁slew	-5852
▁rolls	-5853
▁August	-5854
▁prefer	-5855
▁obscure	-5856
▁Scotland	-5857
▁drinking	-5858
▁whispering	-5859
boy	-5860
iner	-5861
inth	-5862
▁Bed	-5863
▁Hur	-5864
▁Mrs	-5865
▁Val	-5866
▁gau	-5867
bbles	-5868
▁Arab	-5869
▁Cond	-5870
▁Head	-5871
▁dews	-5872
▁unhe	-5873
flower	-5874
▁clust	-5875
▁manif	-5876
▁raven	-5877
▁dwells	-5878
▁relief	-5879
▁repair	-5880
▁source	-5881
▁strikes	-5882
▁finished	-5883
▁increase	-5884
iel	-5885
▁Tur	-5886
▁sod	-5887
verty	-5888
▁Near	-5889
▁Sail	-5890
▁Sund	-5891
▁airy	-5892
▁limp	-5893
▁Greek	-5894
▁agree	-5895
▁hoary	-5896
▁weave	-5897
▁Better	-5898
▁thorns	-5899
▁talking	-5900
▁fragrance	-5901
▁loveliness	-5902
▁mysterious	-5903
ía	-5904
▁~	-5905
She	-5906
oks	-5907
▁aud	-5908
▁tin	-5909
close	-5910
ernal	-5911
umble	-5912
spring	-5913
▁hosts	-5914
▁melod	-5915
▁Second	-5916
▁counsel	-5917
▁daylight	-5918
gen	-5919
▁Ele	-5920
▁tid	-5921
▁tit	-5922
▁tot	-5923
▁wee	-5924
uthor	-5925
▁Hung	-5926
▁gust	-5927
▁heel	-5928
▁plum	-5929
▁sets	-5930
▁adore	-5931
▁dusky	-5932
▁rapid	-5933
▁safety	-5934
▁passage	-5935
▁flashing	-5936
▁Wherefore	-5937
▁affection	-5938
la	-5939
lest	-5940
ainty	-5941
▁Mean	-5942
▁glen	-5943
▁Blood	-5944
▁allow	-5945
▁chast	-5946
▁scour	-5947
▁suffe	-5948
▁Sudden	-5949
▁arrows	-5950
▁radiance	-5951
▁somewhat	-5952
▁wondering	-5953
mos	-5954
oor	-5955
each	-5956
unce	-5957
▁Ask	-5958
▁Wel	-5959
▁Wis	-5960
dened	-5961
▁grat	-5962
▁ward	-5963
▁Ghost	-5964
▁dusty	-5965
▁rival	-5966
▁swore	-5967
▁George	-5968
▁Majest	-5969
▁orange	-5970
▁getting	-5971
▁meeting	-5972
yss	-5973
▁Kn	-5974
arks	-5975
gins	-5976
oning	-5977
orted	-5978
▁dign	-5979
▁dise	-5980
▁exha	-5981
▁gran	-5982
▁scan	-5983
▁Music	-5984
▁cabin	-5985
▁worsh	-5986
itation	-5987
▁points	-5988
▁resist	-5989
▁Silence	-5990
▁horizon	-5991
▁kitchen	-5992
▁restore	-5993
▁supreme	-5994
▁struggle	-5995
abb	-5996
vol	-5997
▁Et	-5998
arms	-5999
▁ger	-6000
▁owe	-6001
▁thi	-6002
ulate	-6003
▁Troy	-6004
▁reed	-6005
ground	-6006
ointed	-6007
▁forty	-6008
▁mists	-6009
▁telle	-6010
▁Memory	-6011
▁blooms	-6012
▁marvel	-6013
▁flatter	-6014
▁pointed	-6015
▁prepare	-6016
▁lingering	-6017
Not	-6018
bra	-6019
gra	-6020
isp	-6021
▁Us	-6022
▁Grie	-6023
▁Pier	-6024
▁cred	-6025
▁grou	-6026
▁hark	-6027
▁lads	-6028
▁lamb	-6029
▁mete	-6030
▁size	-6031
▁tore	-6032
▁ugly	-6033
▁abode	-6034
▁steer	-6035
▁States	-6036
▁demand	-6037
▁poured	-6038
▁destiny	-6039
▁farther	-6040
▁gardens	-6041
▁majesty	-6042
▁returns	-6043
▁pictures	-6044
▁understood	-6045
cest	-6046
▁Ass	-6047
▁haz	-6048
▁Walk	-6049
▁lute	-6050
▁shud	-6051
ollect	-6052
▁Proud	-6053
▁ample	-6054
▁armed	-6055
▁poems	-6056
▁shudd	-6057
▁Angels	-6058
▁admire	-6059
▁armies	-6060
▁comrade	-6061
▁incense	-6062
▁keeping	-6063
▁happened	-6064
▁celestial	-6065
oh	-6066
eary	-6067
▁spy	-6068
othed	-6069
▁Dawn	-6070
▁hole	-6071
▁yawn	-6072
▁aband	-6073
▁slack	-6074
▁cliffs	-6075
▁divide	-6076
▁forced	-6077
▁manner	-6078
▁riding	-6079
▁consider	-6080
▁feelings	-6081
▁garments	-6082
▁quivering	-6083
,-	-6084
AL	-6085
rum	-6086
from	-6087
mits	-6088
rite	-6089
▁myr	-6090
beams	-6091
▁vice	-6092
▁bount	-6093
fulness	-6094
▁Europe	-6095
▁convey	-6096
▁heroic	-6097
▁pierce	-6098
▁despite	-6099
▁funeral	-6100
▁martial	-6101
▁tresses	-6102
▁unhappy	-6103
▁promised	-6104
nly	-6105
fire	-6106
this	-6107
▁Fro	-6108
▁inn	-6109
faced	-6110
flies	-6111
inkle	-6112
▁Word	-6113
▁airs	-6114
▁beck	-6115
▁clad	-6116
▁cook	-6117
▁desc	-6118
▁doon	-6119
itions	-6120
▁Stood	-6121
▁swich	-6122
▁resign	-6123
▁Besides	-6124
▁oppress	-6125
▁sinking	-6126
▁wherefore	-6127
cus	-6128
hor	-6129
urb	-6130
alem	-6131
▁bef	-6132
▁ded	-6133
trees	-6134
▁neat	-6135
▁phil	-6136
velled	-6137
▁cloak	-6138
▁concl	-6139
▁pangs	-6140
▁surge	-6141
▁tides	-6142
▁accents	-6143
▁discern	-6144
▁brighter	-6145
▁circling	-6146
▁whispers	-6147
any	-6148
▁CH	-6149
hens	-6150
▁Six	-6151
▁jar	-6152
▁num	-6153
▁yea	-6154
▁bask	-6155
▁link	-6156
▁soar	-6157
▁boats	-6158
▁class	-6159
▁sable	-6160
▁squad	-6161
▁nearly	-6162
▁crowded	-6163
▁curtain	-6164
▁drunken	-6165
▁woodland	-6166
▁household	-6167
car	-6168
gic	-6169
hys	-6170
ollo	-6171
oure	-6172
uted	-6173
▁Ham	-6174
▁elo	-6175
▁ire	-6176
▁Mist	-6177
▁rais	-6178
mighty	-6179
▁timid	-6180
▁blithe	-6181
▁shaken	-6182
▁Charles	-6183
▁counter	-6184
▁strangers	-6185
Mid	-6186
uish	-6187
▁Sub	-6188
▁tak	-6189
isure	-6190
iting	-6191
stand	-6192
▁Left	-6193
▁cove	-6194
▁debt	-6195
▁tied	-6196
asured	-6197
▁Pride	-6198
▁brass	-6199
▁doesn	-6200
▁folds	-6201
▁hight	-6202
▁riche	-6203
▁Knight	-6204
▁hallow	-6205
▁spears	-6206
▁stairs	-6207
▁starts	-6208
▁velvet	-6209
▁holding	-6210
▁languid	-6211
▁mortals	-6212
▁whither	-6213
▁sounding	-6214
▁10	-6215
▁spl	-6216
athom	-6217
▁Snow	-6218
▁amber	-6219
▁event	-6220
▁rains	-6221
▁reeds	-6222
▁sends	-6223
▁stubb	-6224
▁cannon	-6225
▁griefs	-6226
▁sailed	-6227
▁Liberty	-6228
▁control	-6229
▁station	-6230
▁univers	-6231
▁delights	-6232
▁millions	-6233
▁remembered	-6234
ria	-6235
▁Cr	-6236
▁IX	-6237
▁Mc	-6238
▁Pa	-6239
▁Wi	-6240
▁Saw	-6241
▁tie	-6242
▁urn	-6243
icate	-6244
icing	-6245
pense	-6246
▁Pand	-6247
▁Tears	-6248
▁admir	-6249
▁leaps	-6250
▁lonel	-6251
▁robes	-6252
▁sheet	-6253
▁snare	-6254
▁market	-6255
▁partic	-6256
▁pearls	-6257
▁valour	-6258
▁changes	-6259
▁outward	-6260
▁creation	-6261
va	-6262
za	-6263
ods	-6264
uls	-6265
Here	-6266
oped	-6267
ourn	-6268
▁Mal	-6269
▁Sch	-6270
▁coo	-6271
▁rot	-6272
▁dash	-6273
▁Makes	-6274
▁boots	-6275
▁drows	-6276
▁prest	-6277
▁chorus	-6278
▁defend	-6279
▁laurel	-6280
▁departed	-6281
▁mistress	-6282
▁separate	-6283
VE	-6284
onet	-6285
▁Dep	-6286
▁Sim	-6287
▁wha	-6288
▁Face	-6289
▁loue	-6290
▁shop	-6291
▁wits	-6292
▁yard	-6293
▁Devil	-6294
▁Helen	-6295
▁crazy	-6296
▁crush	-6297
▁horns	-6298
▁knelt	-6299
▁happen	-6300
▁missed	-6301
▁seized	-6302
▁concern	-6303
▁dressed	-6304
▁matters	-6305
▁discover	-6306
▁drooping	-6307
▁kindness	-6308
▁listened	-6309
▁occasion	-6310
▁substance	-6311
AM	-6312
low	-6313
who	-6314
rons	-6315
sect	-6316
▁Arm	-6317
aving	-6318
inity	-6319
itive	-6320
▁Says	-6321
▁cord	-6322
▁slim	-6323
▁Hands	-6324
▁waist	-6325
▁dainty	-6326
▁dragon	-6327
▁petals	-6328
▁severe	-6329
▁vulgar	-6330
▁proudly	-6331
▁invisible	-6332
OD	-6333
acy	-6334
ann	-6335
▁IN	-6336
ynde	-6337
▁Bid	-6338
▁Off	-6339
▁Pen	-6340
thren	-6341
▁gulf	-6342
▁loos	-6343
▁puts	-6344
▁caves	-6345
▁dares	-6346
▁hides	-6347
▁dismal	-6348
▁modern	-6349
▁nevere	-6350
▁judgment	-6351
▁likewise	-6352
▁influence	-6353
▁nightingale	-6354
▁,	-6355
igs	-6356
▁Rh	-6357
▁Fra	-6358
▁Hor	-6359
▁Bear	-6360
▁Rain	-6361
▁Rock	-6362
▁Supp	-6363
▁cows	-6364
▁hues	-6365
▁hunt	-6366
▁sche	-6367
▁wast	-6368
atient	-6369
leness	-6370
▁griev	-6371
▁moral	-6372
▁roofs	-6373
▁tones	-6374
▁aching	-6375
▁flocks	-6376
▁fondly	-6377
▁invent	-6378
▁mantle	-6379
▁ruined	-6380
▁sweets	-6381
▁thresh	-6382
▁utmost	-6383
▁winged	-6384
▁ecstasy	-6385
▁sailing	-6386
ige	-6387
lde	-6388
ogn	-6389
irts	-6390
ivid	-6391
▁Bay	-6392
aping	-6393
gging	-6394
inger	-6395
▁anon	-6396
▁lets	-6397
▁slip	-6398
apping	-6399
▁ahead	-6400
▁deeps	-6401
▁inner	-6402
▁ripen	-6403
▁chaste	-6404
▁groans	-6405
▁overth	-6406
▁Beautiful	-6407
By	-6408
een	-6409
ipt	-6410
osh	-6411
▁yo	-6412
ibly	-6413
pass	-6414
rove	-6415
▁Bal	-6416
▁Inv	-6417
▁Way	-6418
▁hap	-6419
ample	-6420
grown	-6421
▁Virt	-6422
▁lane	-6423
▁merc	-6424
▁owne	-6425
▁Voice	-6426
▁crave	-6427
▁Praise	-6428
▁retire	-6429
▁sevent	-6430
▁soothe	-6431
▁spheres	-6432
▁blushing	-6433
▁confusion	-6434
▁innocence	-6435
▁Av	-6436
▁hu	-6437
gend	-6438
igne	-6439
ompl	-6440
▁Ter	-6441
▁til	-6442
▁Loud	-6443
▁boon	-6444
▁chur	-6445
▁como	-6446
▁urge	-6447
▁marks	-6448
▁party	-6449
▁rocky	-6450
▁stark	-6451
▁stirs	-6452
▁tries	-6453
▁afford	-6454
▁mouths	-6455
▁summon	-6456
▁enemies	-6457
▁objects	-6458
tre	-6459
chie	-6460
▁Dam	-6461
▁cig	-6462
▁sap	-6463
▁ske	-6464
▁sow	-6465
urned	-6466
▁glows	-6467
▁minde	-6468
▁shaft	-6469
▁style	-6470
▁cradle	-6471
▁esteem	-6472
▁haunts	-6473
▁tossed	-6474
▁Straight	-6475
▁ceaseless	-6476
▁delicious	-6477
▁entertain	-6478
rt	-6479
Yes	-6480
▁je	-6481
illa	-6482
ogue	-6483
▁Mat	-6484
bling	-6485
ested	-6486
▁aven	-6487
▁gems	-6488
▁resc	-6489
▁tire	-6490
▁Quick	-6491
▁maint	-6492
▁queer	-6493
▁stoop	-6494
▁Saying	-6495
▁deemed	-6496
▁images	-6497
▁servant	-6498
▁reverence	-6499
An	-6500
OW	-6501
pr	-6502
acon	-6503
gues	-6504
hand	-6505
ulch	-6506
▁Pha	-6507
▁Spe	-6508
▁Yon	-6509
▁lod	-6510
▁une	-6511
▁wiz	-6512
asing	-6513
bound	-6514
▁Isra	-6515
▁Lear	-6516
▁bite	-6517
▁cong	-6518
▁pite	-6519
▁rout	-6520
▁suck	-6521
▁Glory	-6522
▁Mount	-6523
▁block	-6524
▁widow	-6525
▁denied	-6526
▁empire	-6527
▁reveal	-6528
▁saints	-6529
▁eyelids	-6530
▁kindled	-6531
▁priests	-6532
▁reading	-6533
▁seeming	-6534
▁breathes	-6535
▁learning	-6536
▁weakness	-6537
eav	-6538
rede	-6539
▁ath	-6540
▁rig	-6541
board	-6542
▁Five	-6543
▁herd	-6544
gainst	-6545
quence	-6546
▁Watch	-6547
▁bends	-6548
▁brake	-6549
▁glade	-6550
▁seize	-6551
▁strip	-6552
▁wrest	-6553
▁Always	-6554
▁Gentle	-6555
▁beaten	-6556
▁caress	-6557
▁centre	-6558
▁finish	-6559
▁fisher	-6560
▁merely	-6561
▁profit	-6562
▁social	-6563
▁trying	-6564
▁Himself	-6565
▁Saviour	-6566
▁cherish	-6567
▁perform	-6568
▁revenge	-6569
▁rushing	-6570
▁appeared	-6571
▁startled	-6572
▁Da	-6573
▁lye	-6574
▁rub	-6575
▁rue	-6576
ounce	-6577
unate	-6578
▁Disc	-6579
▁Phoe	-6580
▁Vain	-6581
▁trim	-6582
▁Cupid	-6583
▁absol	-6584
▁crash	-6585
▁disgu	-6586
▁shady	-6587
▁Virgin	-6588
▁deeply	-6589
▁Leaving	-6590
▁banners	-6591
▁leisure	-6592
▁dangerous	-6593
▁shattered	-6594
yet	-6595
rald	-6596
▁Ang	-6597
▁Dav	-6598
▁Sus	-6599
▁kid	-6600
▁sed	-6601
ilton	-6602
lando	-6603
vered	-6604
▁Circ	-6605
▁Grave	-6606
▁Words	-6607
▁liked	-6608
▁misty	-6609
▁rides	-6610
▁Shakes	-6611
▁armour	-6612
▁dinner	-6613
▁gilded	-6614
▁hounds	-6615
▁snatch	-6616
▁willow	-6617
▁splendor	-6618
▁stubborn	-6619
▁enchanted	-6620
▁Conscience	-6621
ido	-6622
▁glist	-6623
▁Enough	-6624
▁People	-6625
▁Sunday	-6626
▁hurled	-6627
▁ponder	-6628
▁rugged	-6629
▁saddle	-6630
▁survey	-6631
▁victor	-6632
▁leaping	-6633
▁secrets	-6634
▁surface	-6635
▁thunders	-6636
▁strangely	-6637
",	-6638
Ne	-6639
bur	-6640
esy	-6641
▁bi	-6642
rase	-6643
▁Gal	-6644
▁axe	-6645
▁ell	-6646
cript	-6647
enger	-6648
▁Span	-6649
▁chin	-6650
▁jack	-6651
▁rash	-6652
▁brill	-6653
▁hoped	-6654
▁vital	-6655
▁Reason	-6656
▁barbar	-6657
▁thrall	-6658
▁Singing	-6659
▁ghostly	-6660
▁silvery	-6661
▁interest	-6662
▁prospect	-6663
▁companions	-6664
Of	-6665
his	-6666
iot	-6667
ayed	-6668
olog	-6669
▁Any	-6670
▁git	-6671
▁sne	-6672
▁Gave	-6673
▁Wall	-6674
▁scra	-6675
▁bleed	-6676
▁revel	-6677
▁seide	-6678
▁weeps	-6679
▁larger	-6680
▁office	-6681
▁perpet	-6682
▁sooner	-6683
▁undone	-6684
▁Orlando	-6685
▁ambition	-6686
▁cavalier	-6687
▁childish	-6688
▁northern	-6689
▁philosop	-6690
▁received	-6691
LE	-6692
▁na	-6693
ando	-6694
mble	-6695
ulpt	-6696
▁Eye	-6697
▁Hun	-6698
▁Sac	-6699
▁orb	-6700
areth	-6701
ridge	-6702
▁bows	-6703
▁bust	-6704
▁mend	-6705
▁peop	-6706
▁sult	-6707
▁Field	-6708
▁scept	-6709
▁slope	-6710
▁split	-6711
▁Apollo	-6712
▁German	-6713
▁Wisdom	-6714
▁easily	-6715
▁needed	-6716
▁prompt	-6717
▁prepared	-6718
▁fountains	-6719
▁throughout	-6720
Well	-6721
mons	-6722
▁Gaw	-6723
▁Ref	-6724
▁ore	-6725
▁wou	-6726
ioned	-6727
▁Port	-6728
▁asks	-6729
▁bron	-6730
▁inha	-6731
▁ruth	-6732
▁turf	-6733
ailing	-6734
▁favor	-6735
▁fiend	-6736
▁thief	-6737
▁uncon	-6738
▁hospit	-6739
▁visage	-6740
▁courser	-6741
▁deepest	-6742
▁wedding	-6743
▁yearning	-6744
ruck	-6745
▁Ode	-6746
▁Woe	-6747
▁cit	-6748
▁rim	-6749
itate	-6750
▁Birds	-6751
▁bonds	-6752
▁clime	-6753
▁Robert	-6754
▁charac	-6755
▁cometh	-6756
▁drives	-6757
▁sights	-6758
▁washed	-6759
▁hunting	-6760
▁warlike	-6761
▁conquest	-6762
▁righteous	-6763
▁streaming	-6764
▁threshold	-6765
▁countenance	-6766
AS	-6767
ente	-6768
plex	-6769
uded	-6770
▁Cra	-6771
▁arg	-6772
▁lux	-6773
▁pad	-6774
▁tun	-6775
▁upl	-6776
green	-6777
▁Days	-6778
▁Draw	-6779
▁Fran	-6780
▁Show	-6781
▁chal	-6782
▁heal	-6783
▁rous	-6784
▁sund	-6785
▁Dougl	-6786
▁aware	-6787
▁elect	-6788
▁leafy	-6789
▁moons	-6790
▁Seeing	-6791
▁bridal	-6792
▁coffin	-6793
▁pledge	-6794
▁worked	-6795
onscious	-6796
▁attempt	-6797
▁goddess	-6798
▁building	-6799
▁bursting	-6800
▁minstrel	-6801
▁monument	-6802
ena	-6803
phan	-6804
▁Dim	-6805
▁Eag	-6806
▁Sou	-6807
▁lin	-6808
asons	-6809
etime	-6810
urous	-6811
▁Less	-6812
▁heir	-6813
▁mach	-6814
▁oath	-6815
▁susp	-6816
▁ting	-6817
▁tops	-6818
▁yoke	-6819
▁heels	-6820
▁palms	-6821
▁risen	-6822
▁saith	-6823
▁Greece	-6824
▁loudly	-6825
▁poetry	-6826
▁Looking	-6827
▁created	-6828
▁prophet	-6829
▁succeed	-6830
▁sunrise	-6831
▁violets	-6832
▁creeping	-6833
▁triumphant	-6834
'-	-6835
;—	-6836
li	-6837
gate	-6838
pine	-6839
▁Tha	-6840
▁luc	-6841
rison	-6842
▁acts	-6843
▁crit	-6844
anting	-6845
enched	-6846
▁darts	-6847
▁mixed	-6848
▁staff	-6849
▁stops	-6850
▁Silent	-6851
▁brains	-6852
▁morrow	-6853
▁trembled	-6854
bel	-6855
Till	-6856
hire	-6857
roll	-6858
vene	-6859
break	-6860
clock	-6861
erous	-6862
rious	-6863
▁bath	-6864
▁trow	-6865
ouring	-6866
vation	-6867
▁Trans	-6868
▁brute	-6869
▁dried	-6870
▁pitch	-6871
▁crowds	-6872
▁decree	-6873
▁lesson	-6874
▁mellow	-6875
▁shrink	-6876
▁troops	-6877
▁pierced	-6878
▁pinions	-6879
▁horrible	-6880
▁treacher	-6881
▁intellect	-6882
CH	-6883
wl	-6884
eve	-6885
izz	-6886
▁XI	-6887
aved	-6888
elly	-6889
tide	-6890
▁Tit	-6891
▁Jane	-6892
▁Open	-6893
▁bomb	-6894
▁dirt	-6895
▁erst	-6896
▁gore	-6897
change	-6898
racted	-6899
▁Afric	-6900
▁Grand	-6901
▁Scott	-6902
▁alien	-6903
▁ivory	-6904
▁marry	-6905
▁mouse	-6906
▁swung	-6907
▁upper	-6908
▁counse	-6909
▁faults	-6910
▁soules	-6911
▁victim	-6912
▁regions	-6913
▁wouldst	-6914
▁perfection	-6915
▁tenderness	-6916
bro	-6917
rin	-6918
▁Pet	-6919
▁syn	-6920
▁web	-6921
drops	-6922
ental	-6923
ivion	-6924
stant	-6925
▁goss	-6926
▁ills	-6927
▁Happy	-6928
▁cheap	-6929
▁flush	-6930
▁hated	-6931
▁limit	-6932
▁meets	-6933
▁rooms	-6934
▁Others	-6935
▁assemb	-6936
▁condem	-6937
▁custom	-6938
▁guests	-6939
▁jewels	-6940
▁wooden	-6941
▁conceal	-6942
▁grasses	-6943
▁poverty	-6944
▁prosper	-6945
▁selfish	-6946
▁traitor	-6947
▁believed	-6948
▁ignorant	-6949
thm	-6950
anto	-6951
blem	-6952
elle	-6953
eman	-6954
hers	-6955
oyal	-6956
umps	-6957
▁gas	-6958
chers	-6959
ottle	-6960
ourse	-6961
▁tren	-6962
▁embra	-6963
▁nerve	-6964
▁windy	-6965
▁Golden	-6966
▁Thence	-6967
▁boldly	-6968
▁crowns	-6969
▁damned	-6970
▁leader	-6971
▁locked	-6972
▁Douglas	-6973
▁mention	-6974
▁minutes	-6975
▁pursued	-6976
▁Immortal	-6977
▁hurrying	-6978
▁majestic	-6979
▁remained	-6980
▁sympathy	-6981
▁spreading	-6982
▁glimmering	-6983
▁struggling	-6984
oid	-6985
miss	-6986
rial	-6987
▁Thr	-6988
▁tal	-6989
▁toy	-6990
unted	-6991
▁Best	-6992
▁Name	-6993
▁push	-6994
▁Italy	-6995
▁drums	-6996
▁globe	-6997
▁heath	-6998
▁jewel	-6999
▁attack	-7000
▁divers	-7001
▁remote	-7002
▁rights	-7003
▁Britain	-7004
▁Delight	-7005
▁chimney	-7006
▁figures	-7007
▁knowest	-7008
▁maidens	-7009
▁miracle	-7010
▁panting	-7011
▁fleeting	-7012
▁mischief	-7013
?—	-7014
▁17	-7015
▁nu	-7016
icks	-7017
rers	-7018
ulse	-7019
▁Cry	-7020
▁Ins	-7021
▁ton	-7022
▁wuz	-7023
known	-7024
uming	-7025
urred	-7026
▁Echo	-7027
▁Rich	-7028
▁holl	-7029
▁park	-7030
▁sorwe	-7031
▁Street	-7032
▁horrid	-7033
▁joined	-7034
▁plumes	-7035
▁purcha	-7036
▁refuge	-7037
▁stupid	-7038
▁mourning	-7039
▁troubles	-7040
▁blessings	-7041
TH	-7042
ev	-7043
▁Jen	-7044
▁Pow	-7045
ipper	-7046
▁Rise	-7047
▁mare	-7048
▁whim	-7049
earest	-7050
▁civil	-7051
▁elder	-7052
▁sanct	-7053
▁weeks	-7054
▁faster	-7055
▁herald	-7056
▁planet	-7057
▁rushes	-7058
▁throws	-7059
▁wildly	-7060
▁Highland	-7061
▁charming	-7062
▁doubtful	-7063
hin	-7064
met	-7065
▁ba	-7066
▁Tim	-7067
▁hut	-7068
▁lag	-7069
▁odd	-7070
▁Dund	-7071
▁Mill	-7072
▁chap	-7073
▁chir	-7074
▁nook	-7075
▁ruff	-7076
ceived	-7077
iously	-7078
ptuous	-7079
usalem	-7080
▁brush	-7081
▁clang	-7082
▁gains	-7083
▁Virtue	-7084
▁endeav	-7085
▁bearing	-7086
▁chariot	-7087
▁thorugh	-7088
▁dripping	-7089
▁perished	-7090
▁deathless	-7091
▁traveller	-7092
▁universal	-7093
ana	-7094
iac	-7095
arus	-7096
beam	-7097
ials	-7098
mine	-7099
onde	-7100
▁Amb	-7101
▁Ber	-7102
▁Ric	-7103
ators	-7104
ellow	-7105
antage	-7106
aunted	-7107
▁Found	-7108
▁feare	-7109
▁hedge	-7110
▁merit	-7111
▁ruddy	-7112
▁Sister	-7113
▁belief	-7114
▁rhymes	-7115
▁simply	-7116
▁Content	-7117
▁Neither	-7118
▁element	-7119
▁lighted	-7120
▁patriot	-7121
▁remorse	-7122
▁wanting	-7123
▁elements	-7124
▁fearless	-7125
▁feathers	-7126
▁possible	-7127
▁servants	-7128
Ye	-7129
cia	-7130
hem	-7131
back	-7132
▁Fam	-7133
▁Gar	-7134
▁Mis	-7135
▁Til	-7136
▁dun	-7137
▁gid	-7138
▁owl	-7139
aries	-7140
earth	-7141
▁Live	-7142
▁bide	-7143
▁hook	-7144
icient	-7145
ration	-7146
▁Women	-7147
▁Years	-7148
▁abyss	-7149
▁freed	-7150
▁ruins	-7151
▁Surely	-7152
▁circum	-7153
▁courts	-7154
▁drinks	-7155
▁ragged	-7156
▁Wherein	-7157
▁blazing	-7158
▁crooked	-7159
▁science	-7160
▁writing	-7161
▁homeward	-7162
▁suffered	-7163
aby	-7164
fit	-7165
had	-7166
ache	-7167
dest	-7168
uthe	-7169
▁dru	-7170
▁oil	-7171
rates	-7172
▁Else	-7173
▁Grow	-7174
▁ache	-7175
▁flit	-7176
▁leet	-7177
▁pave	-7178
▁recl	-7179
▁spar	-7180
▁Muses	-7181
▁lilac	-7182
▁weigh	-7183
▁woven	-7184
▁estate	-7185
▁hunter	-7186
▁remove	-7187
▁repeat	-7188
▁Evening	-7189
▁Phoebus	-7190
▁climbed	-7191
▁mansion	-7192
▁virtues	-7193
▁Together	-7194
▁graceful	-7195
▁paradise	-7196
▁spacious	-7197
▁wondered	-7198
▁shuddering	-7199
GH	-7200
lor	-7201
olk	-7202
away	-7203
irth	-7204
same	-7205
star	-7206
▁Als	-7207
▁Fal	-7208
▁giv	-7209
immer	-7210
▁Asia	-7211
▁Sold	-7212
▁cele	-7213
▁hood	-7214
▁rope	-7215
atched	-7216
▁Fresh	-7217
▁Small	-7218
▁cared	-7219
▁herds	-7220
▁liber	-7221
▁metal	-7222
▁stays	-7223
▁aright	-7224
▁curled	-7225
▁supply	-7226
▁unless	-7227
▁vacant	-7228
▁accompl	-7229
▁faintly	-7230
▁thereof	-7231
▁wherein	-7232
;"	-7233
nal	-7234
▁LO	-7235
bear	-7236
▁Arg	-7237
▁map	-7238
▁tap	-7239
rable	-7240
usted	-7241
▁Arch	-7242
▁Dest	-7243
▁Kiss	-7244
▁Mont	-7245
▁hymn	-7246
▁pang	-7247
▁Chief	-7248
▁dozen	-7249
▁oppos	-7250
▁towns	-7251
▁trewe	-7252
▁twist	-7253
▁closer	-7254
▁govern	-7255
▁quaint	-7256
▁shells	-7257
▁weapon	-7258
▁drawing	-7259
▁several	-7260
▁whistle	-7261
▁headlong	-7262
▁XC	-7263
Alas	-7264
cock	-7265
hard	-7266
ixed	-7267
udge	-7268
▁mas	-7269
▁yeh	-7270
▁Pity	-7271
▁Prom	-7272
▁beha	-7273
▁lazy	-7274
▁proc	-7275
Though	-7276
▁isles	-7277
▁lakes	-7278
▁older	-7279
▁token	-7280
▁cavern	-7281
▁fairly	-7282
▁grassy	-7283
▁phrase	-7284
▁plague	-7285
▁plunge	-7286
▁yields	-7287
▁Majesty	-7288
▁battles	-7289
▁closing	-7290
▁clothed	-7291
▁portion	-7292
▁stories	-7293
▁wailing	-7294
▁tranquil	-7295
▁multitude	-7296
▁loneliness	-7297
ED	-7298
ork	-7299
odes	-7300
rier	-7301
▁Dar	-7302
▁hed	-7303
▁ivy	-7304
▁pep	-7305
antes	-7306
uckoo	-7307
▁caut	-7308
coming	-7309
▁Blind	-7310
▁curls	-7311
▁exile	-7312
▁pipes	-7313
▁polit	-7314
▁Dundee	-7315
▁againe	-7316
▁necess	-7317
▁unkind	-7318
▁arrived	-7319
▁eastern	-7320
▁manners	-7321
▁melting	-7322
▁motions	-7323
▁persons	-7324
▁praised	-7325
▁useless	-7326
▁wreaths	-7327
▁handsome	-7328
▁merchant	-7329
▁whirling	-7330
▁companion	-7331
OL	-7332
Or	-7333
ama	-7334
nut	-7335
urd	-7336
▁ge	-7337
From	-7338
ioun	-7339
mate	-7340
▁tam	-7341
hamed	-7342
▁Lies	-7343
▁Meth	-7344
▁Thom	-7345
▁haue	-7346
▁haze	-7347
▁loom	-7348
▁plot	-7349
▁pole	-7350
▁ratt	-7351
idered	-7352
▁Grief	-7353
▁drest	-7354
▁exact	-7355
▁fades	-7356
▁fails	-7357
▁issue	-7358
▁smite	-7359
▁stuck	-7360
▁vanqu	-7361
quisite	-7362
▁Having	-7363
▁Spread	-7364
▁apples	-7365
▁contri	-7366
▁fulfil	-7367
▁latest	-7368
▁overfl	-7369
▁rotten	-7370
▁driving	-7371
▁indiffe	-7372
▁Shepherd	-7373
▁contempl	-7374
▁religion	-7375
▁countless	-7376
IL	-7377
▁au	-7378
song	-7379
▁Lee	-7380
▁XII	-7381
▁ate	-7382
▁fou	-7383
▁nim	-7384
eping	-7385
onnie	-7386
▁Self	-7387
▁Sent	-7388
▁doct	-7389
▁flut	-7390
▁lure	-7391
▁rabb	-7392
▁Clear	-7393
▁creed	-7394
▁frant	-7395
▁plate	-7396
▁plume	-7397
▁vales	-7398
▁weird	-7399
▁witch	-7400
▁anchor	-7401
▁crimes	-7402
▁drowsy	-7403
▁joyful	-7404
▁sculpt	-7405
▁careful	-7406
▁disease	-7407
▁finding	-7408
▁haunted	-7409
▁telling	-7410
▁utterly	-7411
▁whereon	-7412
▁gorgeous	-7413
Yet	-7414
ico	-7415
iqu	-7416
▁Ju	-7417
▁TO	-7418
▁ox	-7419
▁Met	-7420
▁hen	-7421
▁oon	-7422
▁sly	-7423
acing	-7424
eming	-7425
ickle	-7426
▁Russ	-7427
▁boom	-7428
▁cart	-7429
▁swar	-7430
engers	-7431
▁prost	-7432
▁scale	-7433
▁skull	-7434
▁swoon	-7435
▁wiser	-7436
▁Dreams	-7437
▁Prophe	-7438
▁Seemed	-7439
▁aspire	-7440
▁author	-7441
▁lately	-7442
▁preach	-7443
▁Friends	-7444
▁therein	-7445
▁Jerusalem	-7446
▁greatness	-7447
▁landscape	-7448
▁bitterness	-7449
';	-7450
bul	-7451
fted	-7452
rine	-7453
▁Bow	-7454
▁Max	-7455
▁Tor	-7456
▁tus	-7457
▁vir	-7458
arson	-7459
▁baff	-7460
▁coal	-7461
▁date	-7462
▁stol	-7463
▁unaw	-7464
▁vein	-7465
▁bloud	-7466
▁plead	-7467
▁purse	-7468
▁sheen	-7469
▁stret	-7470
▁Edward	-7471
▁amidst	-7472
▁artist	-7473
▁entire	-7474
▁swells	-7475
▁corrupt	-7476
▁despise	-7477
▁orchard	-7478
▁wearied	-7479
▁lightnings	-7480
pro	-7481
▁Ve	-7482
ican	-7483
igns	-7484
rehe	-7485
rour	-7486
peare	-7487
phant	-7488
▁Fast	-7489
▁Sick	-7490
▁jaws	-7491
▁outl	-7492
▁sine	-7493
cially	-7494
endous	-7495
▁David	-7496
▁Judge	-7497
▁Laugh	-7498
▁consp	-7499
▁fully	-7500
▁stony	-7501
reathed	-7502
▁Israel	-7503
▁asking	-7504
▁signal	-7505
▁sleepy	-7506
▁strict	-7507
▁trance	-7508
▁Country	-7509
▁crushed	-7510
▁sustain	-7511
▁wrapped	-7512
▁Almighty	-7513
▁brethren	-7514
▁marching	-7515
▁breathless	-7516
Lo	-7517
RA	-7518
reg	-7519
▁Ke	-7520
azed	-7521
cian	-7522
gest	-7523
reek	-7524
▁mes	-7525
▁wus	-7526
amour	-7527
angle	-7528
arded	-7529
rated	-7530
▁Fill	-7531
▁Ring	-7532
▁dole	-7533
▁eggs	-7534
▁hawk	-7535
▁meal	-7536
▁moth	-7537
▁wins	-7538
icious	-7539
ulting	-7540
▁Rules	-7541
▁confl	-7542
▁views	-7543
▁cloudy	-7544
▁doubts	-7545
▁pallid	-7546
▁purest	-7547
▁recogn	-7548
▁wastes	-7549
▁Conduct	-7550
▁banquet	-7551
▁leaning	-7552
▁planned	-7553
▁release	-7554
▁sentence	-7555
▁wherever	-7556
ENT	-7557
ION	-7558
rub	-7559
▁Hy	-7560
ieft	-7561
neth	-7562
quer	-7563
rick	-7564
▁Emb	-7565
▁Lad	-7566
▁ped	-7567
urity	-7568
▁Grey	-7569
▁Held	-7570
▁Mick	-7571
▁Rust	-7572
▁blot	-7573
▁peak	-7574
▁scri	-7575
▁ties	-7576
▁Piers	-7577
▁Stars	-7578
▁brink	-7579
▁bugle	-7580
▁clung	-7581
▁speck	-7582
renched	-7583
▁Divine	-7584
▁Listen	-7585
▁astray	-7586
▁clover	-7587
▁longed	-7588
▁spider	-7589
▁wedded	-7590
▁answers	-7591
▁flashed	-7592
▁honours	-7593
▁scented	-7594
▁staring	-7595
▁upright	-7596
▁worldly	-7597
▁piercing	-7598
vo	-7599
ato	-7600
▁Od	-7601
▁gy	-7602
ency	-7603
▁Bac	-7604
▁cos	-7605
ceeds	-7606
sters	-7607
▁Also	-7608
▁Earl	-7609
▁cage	-7610
▁fren	-7611
▁whip	-7612
haired	-7613
▁Irish	-7614
▁alway	-7615
▁heark	-7616
▁indul	-7617
▁liken	-7618
▁lumin	-7619
▁uncle	-7620
▁Flower	-7621
▁defeat	-7622
▁sports	-7623
▁challen	-7624
▁conduct	-7625
▁degrees	-7626
▁twisted	-7627
▁throbbing	-7628
▁tremulous	-7629
▁uncertain	-7630
rog	-7631
drop	-7632
ella	-7633
ford	-7634
nant	-7635
▁Lab	-7636
▁Led	-7637
▁San	-7638
▁cot	-7639
▁dir	-7640
▁mol	-7641
erick	-7642
▁Lake	-7643
▁Warm	-7644
▁cups	-7645
▁idol	-7646
▁nour	-7647
▁puff	-7648
▁Lover	-7649
▁alarm	-7650
▁crawl	-7651
▁feeds	-7652
▁gross	-7653
▁stalk	-7654
▁tyran	-7655
▁commun	-7656
▁myriad	-7657
▁settle	-7658
ustrious	-7659
▁prevent	-7660
▁tribute	-7661
▁fortunes	-7662
";	-7663
▁x	-7664
Our	-7665
isa	-7666
isk	-7667
top	-7668
▁Ep	-7669
aldo	-7670
ffee	-7671
keth	-7672
lers	-7673
▁Flo	-7674
▁ale	-7675
▁Corn	-7676
▁bury	-7677
▁curl	-7678
▁dell	-7679
▁fawn	-7680
▁stab	-7681
▁Crise	-7682
▁admit	-7683
▁dense	-7684
▁mayst	-7685
▁piled	-7686
▁youre	-7687
▁Nation	-7688
▁aspect	-7689
▁brazen	-7690
▁courte	-7691
▁diffic	-7692
▁dishon	-7693
▁obtain	-7694
▁primal	-7695
▁safely	-7696
▁bravely	-7697
▁circles	-7698
▁clearly	-7699
▁shudder	-7700
▁darkened	-7701
▁goodness	-7702
▁shouting	-7703
▁stricken	-7704
▁descending	-7705
▁fluttering	-7706
ags	-7707
cra	-7708
uel	-7709
reth	-7710
▁Hom	-7711
▁Van	-7712
▁ced	-7713
▁mov	-7714
▁unn	-7715
▁Nove	-7716
▁exec	-7717
▁fres	-7718
▁joke	-7719
▁knot	-7720
▁maze	-7721
▁subt	-7722
elling	-7723
▁Relig	-7724
▁Winds	-7725
▁gaunt	-7726
▁giddy	-7727
▁guile	-7728
▁likes	-7729
▁outer	-7730
onesome	-7731
▁colors	-7732
▁floats	-7733
▁hoarse	-7734
▁imposs	-7735
▁plaint	-7736
▁pulled	-7737
▁screen	-7738
▁spells	-7739
▁stared	-7740
▁steals	-7741
▁thanne	-7742
▁wizard	-7743
▁wordes	-7744
▁amorous	-7745
▁garland	-7746
▁ordered	-7747
▁planted	-7748
▁quietly	-7749
▁shouted	-7750
▁champion	-7751
▁imperial	-7752
▁otherwise	-7753
▁possessed	-7754
▁difference	-7755
At	-7756
iah	-7757
mar	-7758
rot	-7759
cell	-7760
phon	-7761
▁Dom	-7762
▁Swe	-7763
birds	-7764
itter	-7765
ppies	-7766
usive	-7767
▁Gone	-7768
▁Tale	-7769
headed	-7770
▁Satan	-7771
▁abhor	-7772
▁aston	-7773
▁contr	-7774
▁erect	-7775
▁vaine	-7776
▁Chorus	-7777
▁engage	-7778
▁forces	-7779
▁mighte	-7780
▁rushed	-7781
▁wonted	-7782
▁General	-7783
▁masters	-7784
▁reflect	-7785
▁replies	-7786
▁resting	-7787
▁Alexander	-7788
▁attention	-7789
▁exquisite	-7790
▁fashioned	-7791
▁impatient	-7792
ios	-7793
rue	-7794
Good	-7795
anta	-7796
ette	-7797
forg	-7798
gled	-7799
uced	-7800
urdy	-7801
▁Bee	-7802
▁Cru	-7803
▁Joe	-7804
▁Oct	-7805
▁Sar	-7806
▁ply	-7807
▁riv	-7808
▁sey	-7809
aning	-7810
groom	-7811
▁Fier	-7812
culiar	-7813
rowned	-7814
▁flags	-7815
▁lusty	-7816
▁olive	-7817
▁Wonder	-7818
▁excess	-7819
▁learnt	-7820
▁pieces	-7821
▁prodig	-7822
▁rhythm	-7823
▁statue	-7824
▁varied	-7825
▁amongst	-7826
▁dignity	-7827
▁exclaim	-7828
▁flowery	-7829
▁noblest	-7830
▁drifting	-7831
▁fruitful	-7832
▁magnific	-7833
▁nameless	-7834
▁steadfast	-7835
del	-7836
jor	-7837
nge	-7838
asts	-7839
inda	-7840
itty	-7841
ulph	-7842
▁Cou	-7843
▁Pil	-7844
isies	-7845
thorn	-7846
▁Dick	-7847
▁Hail	-7848
▁Road	-7849
▁aver	-7850
▁cens	-7851
▁cert	-7852
▁howl	-7853
▁lair	-7854
▁unsp	-7855
▁vary	-7856
spread	-7857
▁fetch	-7858
▁holid	-7859
▁Rather	-7860
▁Stream	-7861
▁coffee	-7862
▁hermit	-7863
▁insect	-7864
▁loosed	-7865
▁remark	-7866
▁collect	-7867
▁howling	-7868
▁impious	-7869
▁merrily	-7870
▁mounted	-7871
▁offered	-7872
▁settled	-7873
▁affright	-7874
▁superior	-7875
▁fruitless	-7876
ago	-7877
imp	-7878
nin	-7879
andy	-7880
ases	-7881
ball	-7882
izzy	-7883
▁Arc	-7884
▁Bew	-7885
▁Rin	-7886
▁Tay	-7887
antly	-7888
icity	-7889
ourne	-7890
▁Body	-7891
▁XIII	-7892
▁seye	-7893
▁unst	-7894
▁wire	-7895
rolled	-7896
ustace	-7897
▁Seems	-7898
▁added	-7899
▁deter	-7900
▁overt	-7901
▁rites	-7902
▁whoso	-7903
▁Merlin	-7904
▁ardent	-7905
▁notice	-7906
▁reckon	-7907
▁seraph	-7908
▁steeds	-7909
▁glances	-7910
▁peasant	-7911
▁praises	-7912
▁sailors	-7913
▁shaking	-7914
▁dropping	-7915
▁trumpets	-7916
▁certainly	-7917
▁destruction	-7918
IA	-7919
pie	-7920
ule	-7921
Your	-7922
cies	-7923
yght	-7924
▁Sax	-7925
▁Tam	-7926
▁ink	-7927
Twixt	-7928
tense	-7929
▁Calm	-7930
▁Poem	-7931
▁Whan	-7932
▁coin	-7933
▁cran	-7934
▁nurs	-7935
▁thyn	-7936
urance	-7937
▁Stone	-7938
▁blend	-7939
▁chime	-7940
▁error	-7941
▁greed	-7942
▁grind	-7943
▁heaps	-7944
▁inher	-7945
▁leapt	-7946
▁longe	-7947
▁sheer	-7948
▁sinne	-7949
▁tiger	-7950
▁tooth	-7951
▁Castle	-7952
▁arrive	-7953
▁doctor	-7954
▁excuse	-7955
▁flings	-7956
▁rattle	-7957
▁unrest	-7958
▁Despair	-7959
▁Flowers	-7960
▁affairs	-7961
▁asunder	-7962
▁clasped	-7963
▁devotion	-7964
▁reckless	-7965
rut	-7966
cise	-7967
outs	-7968
vels	-7969
▁Mil	-7970
▁ted	-7971
▁Dece	-7972
▁Whis	-7973
▁boot	-7974
▁cars	-7975
▁inqu	-7976
▁keys	-7977
▁obst	-7978
▁rags	-7979
▁ramp	-7980
▁shoe	-7981
▁symb	-7982
▁thie	-7983
▁Looks	-7984
▁Place	-7985
▁Roses	-7986
▁drain	-7987
▁dunge	-7988
▁eaten	-7989
▁farre	-7990
▁fring	-7991
▁opens	-7992
▁prick	-7993
▁ridge	-7994
▁worms	-7995
▁Victor	-7996
▁formed	-7997
▁region	-7998
▁antique	-7999
▁islands	-8000
▁treason	-8001
▁uttered	-8002
▁absolute	-8003
▁curtains	-8004
▁progress	-8005
▁Meanwhile	-8006
▁whirlwind	-8007
▁procession	-8008
ege	-8009
see	-8010
▁Abb	-8011
▁Act	-8012
▁Inc	-8013
▁Sky	-8014
▁dil	-8015
▁mob	-8016
geant	-8017
which	-8018
▁fert	-8019
▁garb	-8020
▁male	-8021
▁pent	-8022
▁rack	-8023
▁rung	-8024
▁trip	-8025
▁twin	-8026
itable	-8027
▁aloof	-8028
▁clown	-8029
▁jolly	-8030
▁scoff	-8031
flowers	-8032
▁Myself	-8033
▁advice	-8034
▁engine	-8035
▁grande	-8036
▁nerves	-8037
▁placid	-8038
▁plight	-8039
▁summit	-8040
▁intense	-8041
▁Scottish	-8042
▁Thinking	-8043
▁instinct	-8044
▁southern	-8045
--'	-8046
dri	-8047
lys	-8048
son	-8049
▁ON	-8050
ethe	-8051
weed	-8052
▁Alc	-8053
▁cad	-8054
▁sla	-8055
▁vot	-8056
sweet	-8057
verns	-8058
▁Army	-8059
▁Suff	-8060
▁hise	-8061
▁rows	-8062
▁swan	-8063
▁vaul	-8064
▁Bound	-8065
▁India	-8066
▁cream	-8067
▁finde	-8068
▁fired	-8069
▁hairs	-8070
▁rebel	-8071
▁whate	-8072
▁darken	-8073
▁during	-8074
▁farmer	-8075
▁inform	-8076
▁myrtle	-8077
▁watery	-8078
▁chanced	-8079
▁defence	-8080
▁sceptre	-8081
▁tidings	-8082
▁Criseyde	-8083
▁lonesome	-8084
▁prisoner	-8085
▁resolved	-8086
▁sickness	-8087
▁swinging	-8088
▁triumphs	-8089
▁offspring	-8090
▁spiritual	-8091
00	-8092
Ch	-8093
AND	-8094
ais	-8095
itt	-8096
nor	-8097
oos	-8098
▁08	-8099
love	-8100
▁Ann	-8101
▁Ban	-8102
▁Dra	-8103
▁Fut	-8104
▁nig	-8105
▁tax	-8106
▁Baby	-8107
▁Cent	-8108
▁Meet	-8109
▁Prov	-8110
▁fals	-8111
▁herb	-8112
▁oure	-8113
▁seiz	-8114
▁thre	-8115
akened	-8116
▁Fairy	-8117
▁cheat	-8118
▁mound	-8119
▁persu	-8120
▁spied	-8121
▁sworn	-8122
▁tribe	-8123
▁wield	-8124
▁Thomas	-8125
▁doomed	-8126
▁furrow	-8127
▁hammer	-8128
▁inmost	-8129
▁plants	-8130
▁reigns	-8131
▁stride	-8132
▁Knowing	-8133
▁Rinaldo	-8134
▁echoing	-8135
▁fetters	-8136
▁garment	-8137
▁terrors	-8138
▁perceive	-8139
▁weariness	-8140
▁experience	-8141
One	-8142
emb	-8143
gie	-8144
lad	-8145
amps	-8146
▁ket	-8147
▁sae	-8148
▁tha	-8149
ishop	-8150
onian	-8151
onies	-8152
otent	-8153
peror	-8154
▁Help	-8155
▁Took	-8156
▁barn	-8157
▁bled	-8158
▁hees	-8159
▁kins	-8160
▁ribb	-8161
▁shou	-8162
▁text	-8163
▁Heard	-8164
▁Seven	-8165
▁Smith	-8166
▁daunt	-8167
▁miser	-8168
▁dances	-8169
▁fights	-8170
▁myghte	-8171
▁pulses	-8172
▁strait	-8173
▁voyage	-8174
▁Forever	-8175
▁decline	-8176
▁deliver	-8177
▁heather	-8178
▁mocking	-8179
▁piteous	-8180
▁proceed	-8181
▁shallow	-8182
▁sweeping	-8183
▁remembrance	-8184
Go	-8185
vas	-8186
erte	-8187
kins	-8188
▁Dat	-8189
▁Mic	-8190
▁mim	-8191
▁tip	-8192
orial	-8193
▁Pall	-8194
▁Work	-8195
▁belt	-8196
▁hous	-8197
▁hurl	-8198
▁musk	-8199
▁prud	-8200
▁riot	-8201
▁sone	-8202
pected	-8203
▁Hills	-8204
▁Human	-8205
▁Maybe	-8206
▁balmy	-8207
▁claws	-8208
▁faste	-8209
▁goods	-8210
▁rests	-8211
▁Leaves	-8212
▁bewild	-8213
▁orphan	-8214
▁sprite	-8215
▁states	-8216
▁vanity	-8217
▁Justice	-8218
▁Waiting	-8219
▁frantic	-8220
▁November	-8221
▁oblivion	-8222
▁breakfast	-8223
▁recollect	-8224
▁Shakespeare	-8225
);	-8226
pses	-8227
uary	-8228
▁dol	-8229
▁elf	-8230
▁Dost	-8231
▁Fool	-8232
▁Glad	-8233
▁bits	-8234
▁sown	-8235
uffled	-8236
worthy	-8237
▁Jenny	-8238
▁Jones	-8239
▁babes	-8240
▁guise	-8241
▁organ	-8242
▁pours	-8243
▁bronze	-8244
▁claims	-8245
▁darkly	-8246
▁ending	-8247
▁fiddle	-8248
▁hatred	-8249
▁liquor	-8250
▁redeem	-8251
▁retain	-8252
pecially	-8253
▁Passion	-8254
▁actions	-8255
▁compare	-8256
▁counted	-8257
▁dawning	-8258
▁fairies	-8259
▁support	-8260
▁wistful	-8261
▁Watching	-8262
▁fainting	-8263
▁luminous	-8264
▁Perchance	-8265
▁brilliant	-8266
▁fellowship	-8267
▁sweetheart	-8268
"—	-8269
Im	-8270
See	-8271
rop	-8272
tee	-8273
ders	-8274
dled	-8275
▁AND	-8276
▁Gle	-8277
▁Hug	-8278
▁Sen	-8279
▁orn	-8280
roach	-8281
▁Blow	-8282
▁Paul	-8283
▁hint	-8284
▁ofte	-8285
▁reap	-8286
▁toes	-8287
▁Frank	-8288
▁peaks	-8289
▁pools	-8290
▁shirt	-8291
▁soone	-8292
▁study	-8293
▁altars	-8294
▁column	-8295
▁hiding	-8296
▁interp	-8297
▁league	-8298
▁report	-8299
▁However	-8300
▁absence	-8301
▁captain	-8302
▁explore	-8303
▁pathway	-8304
▁planets	-8305
▁torture	-8306
▁visible	-8307
▁intellig	-8308
▁concealed	-8309
▁mysteries	-8310
▁punishment	-8311
Do	-8312
Sir	-8313
bor	-8314
cup	-8315
iza	-8316
▁DE	-8317
▁Ol	-8318
book	-8319
chus	-8320
iage	-8321
iste	-8322
umns	-8323
▁Ren	-8324
▁log	-8325
▁rat	-8326
▁raw	-8327
▁ren	-8328
▁Hymn	-8329
▁Imag	-8330
▁Safe	-8331
▁rove	-8332
pering	-8333
▁Sound	-8334
▁durst	-8335
▁heave	-8336
▁hoofs	-8337
▁juice	-8338
▁moore	-8339
▁terms	-8340
▁anyone	-8341
▁career	-8342
▁chival	-8343
▁graces	-8344
▁helmet	-8345
▁homage	-8346
▁louder	-8347
▁mutual	-8348
▁thrush	-8349
▁consent	-8350
▁dangers	-8351
▁discord	-8352
▁serious	-8353
▁shrieks	-8354
▁venture	-8355
▁forsaken	-8356
▁likeness	-8357
▁peculiar	-8358
▁trampled	-8359
ober	-8360
thou	-8361
▁Dog	-8362
▁fab	-8363
balls	-8364
heads	-8365
phere	-8366
▁Camp	-8367
▁Lion	-8368
▁Marg	-8369
▁Sire	-8370
▁ener	-8371
▁inch	-8372
▁rate	-8373
itudes	-8374
mother	-8375
ulture	-8376
▁Annie	-8377
▁Blest	-8378
▁bloke	-8379
▁tough	-8380
▁wrung	-8381
▁Thames	-8382
▁cheers	-8383
▁clings	-8384
▁relate	-8385
▁singer	-8386
▁undert	-8387
▁whatso	-8388
▁charity	-8389
▁emerald	-8390
▁foaming	-8391
▁betrayed	-8392
▁dazzling	-8393
▁lifeless	-8394
▁neighbor	-8395
▁tenderly	-8396
▁trembles	-8397
▁brightness	-8398
▁approaching	-8399
ta	-8400
oil	-8401
oso	-8402
elot	-8403
esar	-8404
iana	-8405
ully	-8406
whel	-8407
▁Mod	-8408
▁Reg	-8409
▁Rev	-8410
▁Sle	-8411
▁aug	-8412
▁aut	-8413
▁nar	-8414
▁omn	-8415
alian	-8416
cloud	-8417
illes	-8418
▁Wine	-8419
▁bald	-8420
▁goat	-8421
▁hagg	-8422
▁hoar	-8423
inting	-8424
▁Lines	-8425
▁amain	-8426
▁heare	-8427
▁marsh	-8428
▁penny	-8429
▁shelf	-8430
▁waved	-8431
▁ancest	-8432
▁chords	-8433
▁couple	-8434
▁justly	-8435
▁mingle	-8436
▁tribes	-8437
▁allowed	-8438
▁ashamed	-8439
▁heathen	-8440
▁pitiful	-8441
▁ripples	-8442
▁wearing	-8443
▁climbing	-8444
▁earliest	-8445
▁frequent	-8446
▁kneeling	-8447
▁powerful	-8448
▁somebody	-8449
▁appointed	-8450
▁existence	-8451
▁frightened	-8452
IM	-8453
UR	-8454
ja	-8455
irk	-8456
mus	-8457
▁11	-8458
▁Py	-8459
▁WH	-8460
bino	-8461
hael	-8462
▁Aff	-8463
▁Get	-8464
▁Lil	-8465
▁Mam	-8466
selfe	-8467
▁Gray	-8468
▁Seek	-8469
▁abst	-8470
▁bulk	-8471
▁core	-8472
▁seam	-8473
▁unex	-8474
▁wend	-8475
▁wink	-8476
▁Nymph	-8477
▁atmos	-8478
▁fates	-8479
▁rouse	-8480
▁slipp	-8481
▁trunk	-8482
▁vines	-8483
rescent	-8484
▁blight	-8485
▁combat	-8486
▁costly	-8487
▁greedy	-8488
▁render	-8489
▁veiled	-8490
▁Heavens	-8491
▁impress	-8492
▁pitying	-8493
▁younger	-8494
▁anywhere	-8495
▁clinging	-8496
▁rustling	-8497
▁swimming	-8498
▁touching	-8499
asc	-8500
iber	-8501
mann	-8502
▁Def	-8503
▁Run	-8504
▁Unc	-8505
▁Zer	-8506
▁etc	-8507
▁sob	-8508
armed	-8509
ckets	-8510
plend	-8511
ppled	-8512
▁ador	-8513
▁depl	-8514
▁lame	-8515
▁obed	-8516
▁pane	-8517
▁sack	-8518
▁spun	-8519
▁sugg	-8520
bbling	-8521
▁Break	-8522
▁alley	-8523
▁ether	-8524
▁faced	-8525
▁seats	-8526
▁Fierce	-8527
▁absent	-8528
▁create	-8529
▁homely	-8530
▁leaned	-8531
▁skirts	-8532
▁spouse	-8533
▁sturdy	-8534
▁Austral	-8535
▁healing	-8536
▁inspire	-8537
▁musical	-8538
▁plucked	-8539
▁quarter	-8540
▁weapons	-8541
▁Princess	-8542
▁honoured	-8543
▁maintain	-8544
▁reproach	-8545
▁according	-8546
▁elsewhere	-8547
▁satisfied	-8548
▁–	-8549
ael	-8550
lla	-8551
down	-8552
onne	-8553
pple	-8554
▁Ent	-8555
▁Gay	-8556
▁rag	-8557
▁vib	-8558
agger	-8559
amant	-8560
mered	-8561
ublic	-8562
▁Late	-8563
▁goin	-8564
▁lang	-8565
▁numb	-8566
▁weal	-8567
ouched	-8568
ounter	-8569
▁Babyl	-8570
▁alter	-8571
▁fraud	-8572
▁newly	-8573
▁offic	-8574
▁pages	-8575
▁ruled	-8576
▁Living	-8577
▁Slowly	-8578
▁blisse	-8579
▁guards	-8580
▁kindle	-8581
▁picked	-8582
▁terrif	-8583
▁Brought	-8584
▁October	-8585
▁envious	-8586
▁happens	-8587
▁lifting	-8588
▁mistake	-8589
▁opinion	-8590
▁threads	-8591
▁brooding	-8592
▁atmosphere	-8593
▁henceforth	-8594
▁tumultuous	-8595
AY	-8596
ape	-8597
vah	-8598
▁py	-8599
fare	-8600
▁Opp	-8601
alter	-8602
▁Pope	-8603
▁Tart	-8604
▁Trou	-8605
▁halt	-8606
▁reek	-8607
ossess	-8608
▁appet	-8609
▁dimly	-8610
▁doves	-8611
▁evere	-8612
▁funny	-8613
▁helpe	-8614
▁hover	-8615
▁mossy	-8616
▁murde	-8617
▁paine	-8618
▁rever	-8619
▁scare	-8620
▁value	-8621
▁vault	-8622
▁verge	-8623
ieftain	-8624
▁rested	-8625
▁wolves	-8626
▁Already	-8627
▁Instead	-8628
▁bondage	-8629
▁example	-8630
▁glitter	-8631
▁lasting	-8632
▁nightly	-8633
▁perplex	-8634
▁special	-8635
▁Wherever	-8636
▁commands	-8637
▁princely	-8638
▁soothing	-8639
▁yielding	-8640
▁questions	-8641
▁searching	-8642
▁thrilling	-8643
box	-8644
hum	-8645
pri	-8646
▁il	-8647
gles	-8648
ruit	-8649
▁Cap	-8650
▁flu	-8651
asphe	-8652
ivity	-8653
▁Dame	-8654
▁Frag	-8655
▁Gall	-8656
▁idly	-8657
▁jist	-8658
▁lain	-8659
▁stif	-8660
▁subs	-8661
aments	-8662
▁Faint	-8663
▁Royal	-8664
▁Today	-8665
▁await	-8666
▁backs	-8667
▁ditch	-8668
▁loath	-8669
▁mates	-8670
▁recon	-8671
▁simpl	-8672
▁surre	-8673
▁veils	-8674
mediate	-8675
▁Clouds	-8676
▁Genius	-8677
▁bottle	-8678
▁bridle	-8679
▁flowed	-8680
▁freeze	-8681
▁lively	-8682
▁reared	-8683
▁solace	-8684
▁throats	-8685
▁kindling	-8686
▁tempests	-8687
▁virtuous	-8688
▁wrinkled	-8689
▁gentleman	-8690
eah	-8691
psy	-8692
wis	-8693
▁Wa	-8694
adem	-8695
ephy	-8696
made	-8697
till	-8698
▁Rub	-8699
▁Sit	-8700
▁XIV	-8701
▁ros	-8702
▁sen	-8703
enced	-8704
erate	-8705
oreen	-8706
othes	-8707
▁derv	-8708
▁kick	-8709
▁rife	-8710
▁smit	-8711
▁woot	-8712
asping	-8713
▁Build	-8714
▁Storm	-8715
▁beads	-8716
▁chuck	-8717
▁cleft	-8718
▁hasty	-8719
▁print	-8720
▁Hearts	-8721
▁Shadow	-8722
▁Transl	-8723
▁bereft	-8724
▁caused	-8725
▁chapel	-8726
▁chased	-8727
▁genial	-8728
▁hevene	-8729
▁latter	-8730
▁relent	-8731
▁roused	-8732
▁rustic	-8733
▁Persian	-8734
▁besides	-8735
▁betwixt	-8736
▁fraught	-8737
▁impulse	-8738
▁members	-8739
▁neglect	-8740
▁succour	-8741
▁Religion	-8742
▁forgiven	-8743
▁slumbers	-8744
▁spotless	-8745
▁challenge	-8746
▁faithless	-8747
▁compassion	-8748
OI	-8749
ua	-8750
uk	-8751
fed	-8752
mat	-8753
▁Fu	-8754
▁si	-8755
fish	-8756
ione	-8757
tops	-8758
▁Ble	-8759
▁Cut	-8760
▁Fur	-8761
▁ais	-8762
▁bac	-8763
▁lun	-8764
▁oar	-8765
▁syl	-8766
anted	-8767
blood	-8768
ilion	-8769
▁mire	-8770
father	-8771
▁abund	-8772
▁adieu	-8773
▁reins	-8774
▁stall	-8775
▁waken	-8776
▁Priest	-8777
▁squire	-8778
▁Kingdom	-8779
▁desired	-8780
▁immense	-8781
▁leagues	-8782
▁plunged	-8783
▁thereon	-8784
▁thirsty	-8785
▁tyrants	-8786
▁bringing	-8787
▁conceive	-8788
▁courtesy	-8789
▁disguise	-8790
▁victorious	-8791
ero	-8792
hea	-8793
frey	-8794
gian	-8795
horn	-8796
oust	-8797
ront	-8798
▁bif	-8799
▁gal	-8800
▁yew	-8801
mbles	-8802
▁Nine	-8803
▁Wand	-8804
▁buff	-8805
▁enth	-8806
▁hare	-8807
▁meed	-8808
▁type	-8809
ankind	-8810
pherds	-8811
rained	-8812
uished	-8813
▁Trees	-8814
▁annoy	-8815
▁comin	-8816
▁dizzy	-8817
▁lions	-8818
▁shrew	-8819
▁tunes	-8820
▁Gather	-8821
▁Toward	-8822
▁fourth	-8823
▁guides	-8824
▁potent	-8825
▁supper	-8826
uttering	-8827
▁Blessed	-8828
▁Zerbino	-8829
▁marched	-8830
▁painful	-8831
▁stained	-8832
▁subdued	-8833
▁descends	-8834
▁harmless	-8835
"--	-8836
bet	-8837
cke	-8838
wre	-8839
lder	-8840
lley	-8841
▁hoo	-8842
▁pig	-8843
▁ung	-8844
▁vag	-8845
inary	-8846
▁Bold	-8847
▁Lily	-8848
▁Talk	-8849
▁Wise	-8850
▁York	-8851
▁grip	-8852
▁guer	-8853
▁nect	-8854
▁rill	-8855
▁syst	-8856
▁wage	-8857
pitaph	-8858
▁Fight	-8859
▁Poets	-8860
▁Start	-8861
▁armes	-8862
▁feign	-8863
▁flute	-8864
▁games	-8865
▁grape	-8866
▁peach	-8867
▁stake	-8868
▁tombs	-8869
▁traff	-8870
▁Greeks	-8871
▁attain	-8872
▁befall	-8873
▁bosoms	-8874
▁bubble	-8875
▁commit	-8876
▁consec	-8877
▁fickle	-8878
▁multip	-8879
▁slopes	-8880
▁sombre	-8881
▁strode	-8882
▁unlike	-8883
▁cypress	-8884
▁leading	-8885
▁lighter	-8886
▁pattern	-8887
▁pillars	-8888
▁refrain	-8889
▁tonight	-8890
▁watches	-8891
▁blissful	-8892
▁fiercely	-8893
▁striving	-8894
▁wanderer	-8895
▁delighted	-8896
▁difficult	-8897
▁gratitude	-8898
▁ignorance	-8899
▁judgement	-8900
▁Christians	-8901
;'	-8902
AD	-8903
ih	-8904
cis	-8905
uno	-8906
▁12	-8907
▁HE	-8908
▁Ur	-8909
▁Wr	-8910
▁XV	-8911
Look	-8912
unks	-8913
▁Gry	-8914
▁Wea	-8915
▁Wid	-8916
▁cob	-8917
blown	-8918
▁Grew	-8919
▁bord	-8920
▁clar	-8921
▁frae	-8922
▁sord	-8923
▁China	-8924
▁Doubt	-8925
▁Mercy	-8926
▁clash	-8927
▁crust	-8928
▁dames	-8929
▁gaily	-8930
▁gales	-8931
▁knowe	-8932
▁patch	-8933
▁prair	-8934
▁spots	-8935
▁Turned	-8936
▁feller	-8937
▁rebell	-8938
▁scared	-8939
▁shafts	-8940
▁softer	-8941
▁starve	-8942
▁unborn	-8943
▁Seeking	-8944
▁contain	-8945
▁convers	-8946
▁fertile	-8947
▁heaving	-8948
▁labours	-8949
▁prolong	-8950
▁scorned	-8951
▁stealth	-8952
▁Suddenly	-8953
▁Universe	-8954
▁audience	-8955
▁electric	-8956
▁elephant	-8957
▁manifold	-8958
▁measured	-8959
▁polished	-8960
▁thorough	-8961
▁violence	-8962
▁answering	-8963
▁contented	-8964
▁perpetual	-8965
▁conquering	-8966
▁neighbours	-8967
Sw	-8968
UM	-8969
bon	-8970
▁Vo	-8971
acks	-8972
aper	-8973
dles	-8974
rude	-8975
ythe	-8976
▁YOU	-8977
▁ecl	-8978
▁fow	-8979
▁nin	-8980
Twere	-8981
glass	-8982
inate	-8983
isons	-8984
▁Lamb	-8985
▁Pure	-8986
▁bast	-8987
▁bolt	-8988
▁brut	-8989
▁butt	-8990
▁clut	-8991
▁ding	-8992
▁fits	-8993
▁forc	-8994
▁ford	-8995
▁lace	-8996
▁lash	-8997
▁lids	-8998
▁pest	-8999
▁phys	-9000
▁scen	-9001
▁surm	-9002
ontent	-9003
▁Broad	-9004
▁Sense	-9005
▁chang	-9006
▁dayes	-9007
▁deeth	-9008
▁frank	-9009
▁rifle	-9010
▁schol	-9011
▁shift	-9012
▁sonne	-9013
▁spurn	-9014
▁Looked	-9015
▁Throne	-9016
▁banish	-9017
▁eating	-9018
▁fiends	-9019
▁leetle	-9020
▁nymphs	-9021
▁recess	-9022
▁richer	-9023
▁waning	-9024
▁whiles	-9025
▁Grecian	-9026
▁cheered	-9027
▁daisies	-9028
▁failing	-9029
▁imagine	-9030
▁strokes	-9031
▁extended	-9032
▁garlands	-9033
▁swallows	-9034
fig	-9035
has	-9036
ita	-9037
asps	-9038
chin	-9039
emen	-9040
itee	-9041
urre	-9042
▁Syl	-9043
▁coy	-9044
▁pup	-9045
dling	-9046
▁Pict	-9047
▁mote	-9048
▁rave	-9049
▁ween	-9050
mbling	-9051
▁Birth	-9052
▁Bride	-9053
▁Gives	-9054
▁awoke	-9055
▁choir	-9056
▁crook	-9057
▁dirty	-9058
▁hadst	-9059
▁hates	-9060
▁impet	-9061
▁purer	-9062
▁rills	-9063
▁tents	-9064
▁Doreen	-9065
▁Honour	-9066
▁Vision	-9067
▁amazed	-9068
▁consum	-9069
▁dearer	-9070
▁fathom	-9071
▁hunted	-9072
▁kingly	-9073
▁precip	-9074
▁purity	-9075
▁seated	-9076
▁transl	-9077
▁forsake	-9078
▁guessed	-9079
▁palaces	-9080
▁sepulch	-9081
▁stepped	-9082
▁tuneful	-9083
▁whirled	-9084
▁converse	-9085
▁lengthen	-9086
▁butterfly	-9087
▁cherished	-9088
▁conquered	-9089
▁fragments	-9090
▁impossible	-9091
hah	-9092
▁BE	-9093
▁oo	-9094
folk	-9095
irls	-9096
odge	-9097
vial	-9098
▁Fin	-9099
▁GOD	-9100
▁Sic	-9101
▁awa	-9102
▁dip	-9103
▁Coll	-9104
▁Form	-9105
▁Girl	-9106
▁Inde	-9107
▁batt	-9108
▁defy	-9109
▁lung	-9110
▁rand	-9111
giving	-9112
ortion	-9113
rument	-9114
▁Flood	-9115
▁Sonet	-9116
▁Songs	-9117
▁Weary	-9118
▁droop	-9119
▁fount	-9120
▁hymns	-9121
▁lucky	-9122
▁twine	-9123
▁wente	-9124
utation	-9125
▁Bridge	-9126
▁Prayer	-9127
▁Rodney	-9128
▁Thanne	-9129
▁billow	-9130
▁frosty	-9131
▁origin	-9132
▁revere	-9133
▁sultry	-9134
▁Beloved	-9135
▁essence	-9136
▁flashes	-9137
▁glimpse	-9138
▁romance	-9139
▁Thoughts	-9140
▁entrance	-9141
▁guardian	-9142
▁murmured	-9143
▁revealed	-9144
▁starting	-9145
▁thoughte	-9146
▁thrilled	-9147
▁treacherous	-9148
On	-9149
kn	-9150
His	-9151
Thy	-9152
bid	-9153
osa	-9154
mong	-9155
▁Alb	-9156
▁Dry	-9157
▁Dun	-9158
▁Obs	-9159
▁bol	-9160
andal	-9161
bells	-9162
berry	-9163
izing	-9164
lance	-9165
quest	-9166
▁Dust	-9167
▁July	-9168
▁Nile	-9169
▁cous	-9170
▁ferv	-9171
▁loth	-9172
▁peri	-9173
▁sham	-9174
▁sobs	-9175
▁spit	-9176
▁tram	-9177
ounced	-9178
rehend	-9179
▁Brave	-9180
▁Flore	-9181
▁Harry	-9182
▁Scorn	-9183
▁Short	-9184
▁bards	-9185
▁depri	-9186
▁drede	-9187
▁gloss	-9188
▁goose	-9189
▁madly	-9190
▁rider	-9191
▁usual	-9192
ception	-9193
umbered	-9194
▁Future	-9195
▁Gareth	-9196
▁active	-9197
▁brooks	-9198
▁clever	-9199
▁grapes	-9200
▁inspir	-9201
▁lesser	-9202
▁lordly	-9203
▁malice	-9204
▁musing	-9205
▁ravish	-9206
▁charmed	-9207
▁closely	-9208
▁winning	-9209
▁contempt	-9210
▁shouldst	-9211
▁courteous	-9212
▁disappear	-9213
▁gentlemen	-9214
▁whistling	-9215
▁generations	-9216
▁transparent	-9217
Tw	-9218
yt	-9219
Her	-9220
cel	-9221
era	-9222
lie	-9223
net	-9224
olf	-9225
amin	-9226
oves	-9227
rait	-9228
▁Abs	-9229
▁Adv	-9230
▁Mah	-9231
▁Rob	-9232
▁Try	-9233
▁imb	-9234
▁lid	-9235
allow	-9236
overe	-9237
zzled	-9238
▁Step	-9239
▁Wife	-9240
▁dive	-9241
▁odds	-9242
▁toll	-9243
▁Awake	-9244
▁Below	-9245
▁Quiet	-9246
▁anoon	-9247
▁beare	-9248
▁brest	-9249
▁chaos	-9250
▁noisy	-9251
▁slips	-9252
▁title	-9253
▁wills	-9254
▁darker	-9255
▁fishes	-9256
▁pearly	-9257
▁sweeps	-9258
▁withal	-9259
▁Gryphon	-9260
▁Victory	-9261
▁Written	-9262
▁animals	-9263
▁disting	-9264
▁dragged	-9265
▁foliage	-9266
▁moaning	-9267
▁nowhere	-9268
▁require	-9269
▁Northern	-9270
▁subjects	-9271
▁sorrowful	-9272
bby	-9273
cet	-9274
yrs	-9275
▁eu	-9276
iend	-9277
lymp	-9278
oost	-9279
upon	-9280
▁Vir	-9281
▁pav	-9282
olent	-9283
ospel	-9284
prise	-9285
▁dine	-9286
▁idea	-9287
▁inex	-9288
▁knit	-9289
▁nois	-9290
▁oars	-9291
▁tast	-9292
▁zone	-9293
▁Imper	-9294
▁Lords	-9295
▁Maker	-9296
▁Marie	-9297
▁Souls	-9298
▁Tower	-9299
▁Whate	-9300
▁absor	-9301
▁downe	-9302
▁finer	-9303
▁foret	-9304
▁refle	-9305
▁sleek	-9306
▁thise	-9307
▁yearn	-9308
▁Ballad	-9309
▁Battle	-9310
▁Stands	-9311
▁absurd	-9312
▁bounty	-9313
▁carved	-9314
▁dreamy	-9315
▁griefe	-9316
▁melted	-9317
▁pushed	-9318
▁sealed	-9319
▁serves	-9320
▁vapour	-9321
▁Western	-9322
▁convent	-9323
▁explain	-9324
▁gliding	-9325
▁godlike	-9326
▁granite	-9327
▁suffice	-9328
▁tedious	-9329
▁adventure	-9330
▁descended	-9331
▁springing	-9332
▁immortality	-9333
IC	-9334
▁/	-9335
asm	-9336
lem	-9337
sse	-9338
ynt	-9339
▁02	-9340
▁AR	-9341
blin	-9342
brew	-9343
five	-9344
ipse	-9345
past	-9346
▁Ire	-9347
▁ebb	-9348
▁gig	-9349
▁gut	-9350
▁mam	-9351
apped	-9352
child	-9353
cture	-9354
leton	-9355
▁Hugo	-9356
▁Jose	-9357
▁Lone	-9358
▁Sept	-9359
▁Serv	-9360
▁Stay	-9361
▁appe	-9362
▁beak	-9363
▁boar	-9364
▁dale	-9365
▁shin	-9366
ormous	-9367
▁Grant	-9368
▁Guard	-9369
▁Inter	-9370
▁cough	-9371
▁creek	-9372
▁gaudy	-9373
▁laden	-9374
▁peple	-9375
▁poore	-9376
▁swamp	-9377
▁talks	-9378
▁unfur	-9379
▁union	-9380
▁venom	-9381
▁wrist	-9382
olesome	-9383
ulation	-9384
▁Coming	-9385
▁Nought	-9386
▁Temple	-9387
▁aghast	-9388
▁cleare	-9389
▁credit	-9390
▁enters	-9391
▁expand	-9392
▁sinful	-9393
▁sinner	-9394
▁Eustace	-9395
▁Richard	-9396
▁Spirits	-9397
▁clearer	-9398
▁greatly	-9399
▁heavily	-9400
▁holiday	-9401
▁hostile	-9402
▁leather	-9403
▁marvell	-9404
▁project	-9405
▁scenery	-9406
▁smoking	-9407
▁smother	-9408
▁December	-9409
▁Roderick	-9410
▁foremost	-9411
▁squadrons	-9412
▁delightful	-9413
▁unconscious	-9414
ID	-9415
rys	-9416
apes	-9417
blue	-9418
cles	-9419
▁Dec	-9420
▁Ioy	-9421
Which	-9422
anger	-9423
ardin	-9424
cribe	-9425
rayed	-9426
ungle	-9427
▁bale	-9428
▁fist	-9429
▁hiss	-9430
▁toys	-9431
inesse	-9432
mitted	-9433
strils	-9434
▁Cloud	-9435
▁Ellen	-9436
▁Olymp	-9437
▁coral	-9438
▁pound	-9439
▁throb	-9440
▁unite	-9441
▁Palace	-9442
▁Sailor	-9443
▁Triump	-9444
▁animal	-9445
▁deceit	-9446
▁effort	-9447
▁leaped	-9448
▁random	-9449
▁sordid	-9450
▁speche	-9451
▁verses	-9452
▁youths	-9453
attering	-9454
▁cigaret	-9455
▁deserts	-9456
▁divided	-9457
▁drifted	-9458
▁extreme	-9459
▁hapless	-9460
▁harbour	-9461
▁highway	-9462
▁machine	-9463
▁pasture	-9464
▁princes	-9465
▁strives	-9466
▁Margaret	-9467
▁everyone	-9468
▁lovelier	-9469
▁phantoms	-9470
▁character	-9471
▁excellent	-9472
▁fantastic	-9473
▁transform	-9474
▁speechless	-9475
je	-9476
ILL	-9477
gal	-9478
ula	-9479
▁ps	-9480
aten	-9481
omon	-9482
pled	-9483
vish	-9484
worm	-9485
▁Dor	-9486
▁Est	-9487
▁Mau	-9488
▁XVI	-9489
▁toe	-9490
azing	-9491
force	-9492
riend	-9493
riots	-9494
▁Doom	-9495
▁Fitz	-9496
▁Hang	-9497
▁Hist	-9498
▁bane	-9499
▁drip	-9500
▁hart	-9501
▁lots	-9502
▁warn	-9503
uments	-9504
▁Dread	-9505
▁Horse	-9506
▁benef	-9507
▁occup	-9508
▁pilot	-9509
aunting	-9510
▁Empire	-9511
▁alarms	-9512
▁bellow	-9513
▁climbs	-9514
▁clutch	-9515
▁deaths	-9516
▁dreamt	-9517
▁drifts	-9518
▁legend	-9519
▁shoots	-9520
▁spoils	-9521
▁symbol	-9522
▁thrift	-9523
▁Welcome	-9524
▁berries	-9525
▁candles	-9526
▁finally	-9527
▁gesture	-9528
▁humming	-9529
▁reality	-9530
▁scourge	-9531
▁showing	-9532
▁verdant	-9533
▁wealthy	-9534
▁chivalry	-9535
▁deserted	-9536
▁flourish	-9537
▁glancing	-9538
▁opposite	-9539
▁reverent	-9540
▁tomorrow	-9541
▁westward	-9542
run	-9543
wit	-9544
yer	-9545
▁Di	-9546
awed	-9547
eled	-9548
rack	-9549
▁Exp	-9550
urbed	-9551
▁Ages	-9552
▁Moor	-9553
▁Tall	-9554
▁buzz	-9555
▁duke	-9556
▁oper	-9557
▁plag	-9558
▁poll	-9559
▁stee	-9560
▁ster	-9561
▁wove	-9562
closed	-9563
▁False	-9564
▁amend	-9565
▁belov	-9566
▁dealt	-9567
▁herit	-9568
▁ideal	-9569
▁kills	-9570
▁knave	-9571
▁leans	-9572
▁nails	-9573
▁nobly	-9574
▁scope	-9575
▁Change	-9576
▁assail	-9577
▁curses	-9578
▁inland	-9579
▁leaden	-9580
▁proves	-9581
▁shaped	-9582
▁spared	-9583
▁stains	-9584
▁thinke	-9585
▁Babylon	-9586
▁Bacchus	-9587
▁Ireland	-9588
▁Whither	-9589
▁blinded	-9590
▁columns	-9591
▁fitting	-9592
▁glasses	-9593
▁guerdon	-9594
▁hearken	-9595
▁quarrel	-9596
▁request	-9597
▁slipped	-9598
▁soaring	-9599
▁princess	-9600
▁shifting	-9601
▁uplifted	-9602
▁barbarous	-9603
▁neglected	-9604
▁shivering	-9605
▁instrument	-9606
▁passengers	-9607
SE	-9608
!''	-9609
eau	-9610
leg	-9611
why	-9612
▁ni	-9613
aned	-9614
iper	-9615
mond	-9616
olph	-9617
ples	-9618
sels	-9619
wall	-9620
▁Hir	-9621
▁Hus	-9622
ciety	-9623
drawn	-9624
ucked	-9625
▁Answ	-9626
▁grad	-9627
▁mane	-9628
▁monk	-9629
▁owns	-9630
▁wold	-9631
▁wool	-9632
dening	-9633
▁Breat	-9634
▁Faire	-9635
▁Touch	-9636
▁dwarf	-9637
▁sandy	-9638
▁splin	-9639
▁vigil	-9640
ference	-9641
▁Desire	-9642
▁Rustum	-9643
▁Thrice	-9644
▁canvas	-9645
▁mental	-9646
▁papers	-9647
▁shared	-9648
▁snakes	-9649
▁spaces	-9650
▁swings	-9651
▁truths	-9652
coloured	-9653
▁Spanish	-9654
▁address	-9655
▁carries	-9656
▁cleared	-9657
▁council	-9658
▁fancied	-9659
▁fearing	-9660
▁pageant	-9661
▁sobbing	-9662
▁heedless	-9663
▁impetuous	-9664
▁transient	-9665
▁withdrawn	-9666
▁butterflies	-9667
▁indifferent	-9668
éd	-9669
Don	-9670
inc	-9671
nim	-9672
ups	-9673
vis	-9674
zer	-9675
▁14	-9676
Love	-9677
agan	-9678
bows	-9679
feit	-9680
icke	-9681
▁Ach	-9682
▁Big	-9683
▁Cri	-9684
▁Les	-9685
▁Nap	-9686
▁ech	-9687
▁pir	-9688
gling	-9689
quake	-9690
▁Bull	-9691
▁Lift	-9692
▁Seas	-9693
▁Seen	-9694
▁Sons	-9695
▁Wide	-9696
▁XVII	-9697
▁braw	-9698
▁cruc	-9699
▁duly	-9700
▁gang	-9701
▁lawe	-9702
▁plow	-9703
▁risk	-9704
▁stom	-9705
cribed	-9706
▁apace	-9707
▁chear	-9708
▁kynde	-9709
▁porch	-9710
▁sugar	-9711
▁swine	-9712
mission	-9713
▁Albert	-9714
▁Caesar	-9715
▁Doctor	-9716
▁bullet	-9717
▁calmly	-9718
▁creeps	-9719
▁nectar	-9720
▁reluct	-9721
▁rustle	-9722
▁sticks	-9723
▁stores	-9724
▁sylvan	-9725
▁Eastern	-9726
▁Towards	-9727
▁caverns	-9728
▁century	-9729
▁charged	-9730
▁furnace	-9731
▁gleamed	-9732
▁offence	-9733
▁surpass	-9734
▁thrills	-9735
▁crossing	-9736
▁sunbeams	-9737
▁withdrew	-9738
▁darkening	-9739
▁exceeding	-9740
▁flowering	-9741
▁minstrels	-9742
▁flickering	-9743
▁sufficient	-9744
▁imagination	-9745
".	-9746
aus	-9747
gon	-9748
rep	-9749
too	-9750
▁13	-9751
OICE	-9752
bury	-9753
ctic	-9754
eart	-9755
rill	-9756
vert	-9757
year	-9758
▁qui	-9759
bands	-9760
iable	-9761
▁Bore	-9762
▁Foot	-9763
▁Isle	-9764
▁Lucy	-9765
▁Wilt	-9766
▁bier	-9767
▁ruby	-9768
▁snug	-9769
fields	-9770
winged	-9771
▁Bible	-9772
▁Canto	-9773
▁Maxim	-9774
▁Super	-9775
▁lanes	-9776
▁lesse	-9777
▁swarm	-9778
▁thumb	-9779
▁trial	-9780
▁decent	-9781
▁hasten	-9782
▁mocked	-9783
▁orient	-9784
▁tracks	-9785
▁baffled	-9786
▁ceiling	-9787
▁deserve	-9788
▁fifteen	-9789
▁flushed	-9790
▁shimmer	-9791
▁stooped	-9792
▁summons	-9793
▁toiling	-9794
▁vapours	-9795
▁applause	-9796
▁grandeur	-9797
▁ruthless	-9798
▁scornful	-9799
▁stealing	-9800
▁Mountains	-9801
▁eloquence	-9802
▁loveliest	-9803
▁particular	-9804
▁strengthen	-9805
▁yourselves	-9806
lay	-9807
och	-9808
pon	-9809
ugs	-9810
▁Ox	-9811
▁SE	-9812
▁ST	-9813
dies	-9814
enci	-9815
fles	-9816
onna	-9817
▁dul	-9818
▁jet	-9819
▁lik	-9820
▁wyn	-9821
inded	-9822
inese	-9823
liche	-9824
world	-9825
▁Feel	-9826
▁List	-9827
▁Prof	-9828
▁crag	-9829
▁gear	-9830
▁publ	-9831
▁Table	-9832
▁kinds	-9833
▁lyric	-9834
▁necks	-9835
▁plent	-9836
▁waked	-9837
▁Joseph	-9838
▁Milton	-9839
▁Saints	-9840
▁alight	-9841
▁awaken	-9842
▁border	-9843
▁chiefs	-9844
▁chilly	-9845
▁discip	-9846
▁helped	-9847
▁humbly	-9848
▁likely	-9849
▁portal	-9850
▁prepar	-9851
▁scheme	-9852
▁toiled	-9853
▁tricks	-9854
▁Believe	-9855
▁arrayed	-9856
▁athwart	-9857
▁cruelty	-9858
▁deceive	-9859
▁emotion	-9860
▁fishing	-9861
▁gathers	-9862
▁granted	-9863
▁grieved	-9864
▁harness	-9865
▁inhabit	-9866
▁nearest	-9867
▁poppies	-9868
▁wanders	-9869
▁nostrils	-9870
▁pavement	-9871
▁glistening	-9872
):	-9873
.—	-9874
aur	-9875
▁EN	-9876
even	-9877
oven	-9878
▁Lar	-9879
▁Pac	-9880
▁foo	-9881
hable	-9882
still	-9883
ursed	-9884
▁Bare	-9885
▁Cass	-9886
▁LOVE	-9887
▁affl	-9888
▁boss	-9889
▁carn	-9890
▁eleg	-9891
▁undo	-9892
▁vass	-9893
ranged	-9894
uddled	-9895
▁Alike	-9896
▁Enter	-9897
▁Grass	-9898
▁Thing	-9899
▁XVIII	-9900
▁bland	-9901
▁chaff	-9902
▁lists	-9903
▁reads	-9904
▁sixty	-9905
▁swain	-9906
▁meanes	-9907
▁pocket	-9908
▁tragic	-9909
▁Hearing	-9910
▁Michael	-9911
▁Outside	-9912
▁failure	-9913
▁grieves	-9914
▁guarded	-9915
▁inherit	-9916
▁lingers	-9917
▁painter	-9918
▁plainly	-9919
▁raiment	-9920
▁willows	-9921
▁American	-9922
▁Beatrice	-9923
▁Darkness	-9924
▁darkling	-9925
▁minister	-9926
▁shameful	-9927
▁watchful	-9928
▁withdraw	-9929
▁melodious	-9930
▁salvation	-9931
▁shepherds	-9932
▁transport	-9933
▁bridegroom	-9934
OST	-9935
enc	-9936
may	-9937
wes	-9938
▁."	-9939
oint	-9940
thus	-9941
▁Cro	-9942
▁Ful	-9943
▁Hot	-9944
▁Own	-9945
▁PAR	-9946
▁Sem	-9947
▁ape	-9948
▁apt	-9949
▁arc	-9950
▁dug	-9951
▁fug	-9952
▁Elys	-9953
▁Noon	-9954
▁Reve	-9955
▁Sapp	-9956
▁crop	-9957
▁curs	-9958
▁doun	-9959
▁heem	-9960
▁smil	-9961
erving	-9962
footed	-9963
icated	-9964
▁Cried	-9965
▁Drink	-9966
▁Julia	-9967
▁chick	-9968
▁exult	-9969
▁farms	-9970
▁goble	-9971
▁moans	-9972
▁olden	-9973
▁prone	-9974
▁prose	-9975
▁spill	-9976
▁tints	-9977
▁wille	-9978
▁Almost	-9979
▁Thebes	-9980
▁basket	-9981
▁flakes	-9982
▁harbor	-9983
▁harder	-9984
▁invite	-9985
▁nursed	-9986
▁orders	-9987
▁parson	-9988
▁police	-9989
▁scorne	-9990
▁sheets	-9991
▁sunken	-9992
▁blasted	-9993
▁sheaves	-9994
▁sparrow	-9995
▁strayed	-9996
▁bounding	-9997
▁heritage	-9998
▁prophecy	-9999
▁restrain	-10000
▁tortured	-10001
▁September	-10002
▁dauntless	-10003
▁immediate	-10004
zo	-10005
.''	-10006
ech	-10007
imb	-10008
voc	-10009
▁2.	-10010
▁ll	-10011
Dear	-10012
eale	-10013
mbre	-10014
nels	-10015
oner	-10016
otes	-10017
thro	-10018
umbs	-10019
▁Aur	-10020
▁Spl	-10021
▁Tar	-10022
▁XIX	-10023
▁gum	-10024
Image	-10025
cloth	-10026
▁Cain	-10027
▁Quod	-10028
▁Shar	-10029
▁Very	-10030
▁linn	-10031
▁rebu	-10032
▁sill	-10033
▁swam	-10034
▁upst	-10035
action	-10036
orable	-10037
▁Burst	-10038
▁Often	-10039
▁Saxon	-10040
▁Trust	-10041
▁ambit	-10042
▁bathe	-10043
▁germs	-10044
▁mater	-10045
▁mimic	-10046
▁owned	-10047
▁peyne	-10048
▁slugg	-10049
▁stung	-10050
▁toast	-10051
▁wring	-10052
osition	-10053
▁Govern	-10054
▁Silver	-10055
▁Strike	-10056
▁Yellow	-10057
▁beware	-10058
▁breeds	-10059
▁cleave	-10060
▁coarse	-10061
▁dashed	-10062
▁glides	-10063
▁martyr	-10064
▁needle	-10065
▁stolen	-10066
▁Prophet	-10067
▁bubbles	-10068
▁controu	-10069
▁corners	-10070
▁killing	-10071
▁privile	-10072
▁produce	-10073
▁thereby	-10074
▁appetite	-10075
▁disclose	-10076
▁distinct	-10077
▁mightier	-10078
▁matchless	-10079
▁religious	-10080
▁sleepless	-10081
▁twinkling	-10082
Er	-10083
Ex	-10084
Sp	-10085
UT	-10086
vil	-10087
▁01	-10088
▁ez	-10089
anes	-10090
noch	-10091
oise	-10092
real	-10093
shad	-10094
sick	-10095
▁Few	-10096
▁Leg	-10097
▁Wed	-10098
ccess	-10099
ceans	-10100
mates	-10101
▁Cler	-10102
▁Hour	-10103
▁Pant	-10104
▁Pear	-10105
▁Read	-10106
▁Send	-10107
▁lett	-10108
▁nail	-10109
▁pian	-10110
▁pron	-10111
▁qual	-10112
▁whel	-10113
▁Clare	-10114
▁Smile	-10115
▁Trump	-10116
▁binds	-10117
▁brine	-10118
▁conne	-10119
▁decks	-10120
▁dight	-10121
▁medic	-10122
▁peers	-10123
▁robin	-10124
▁rural	-10125
▁weren	-10126
ustomed	-10127
▁Tyrant	-10128
▁Valley	-10129
▁appeal	-10130
▁bushes	-10131
▁clothe	-10132
▁cuckoo	-10133
▁extend	-10134
▁patron	-10135
▁stalks	-10136
▁stress	-10137
▁unchan	-10138
▁united	-10139
▁viewed	-10140
▁balance	-10141
▁blasphe	-10142
▁blushes	-10143
▁bruised	-10144
▁burthen	-10145
▁decreed	-10146
▁dungeon	-10147
▁escaped	-10148
▁knocked	-10149
▁sincere	-10150
▁spotted	-10151
▁traffic	-10152
▁unheard	-10153
▁varying	-10154
▁wayward	-10155
▁Pandarus	-10156
▁argument	-10157
▁chestnut	-10158
▁dominion	-10159
▁enormous	-10160
▁measures	-10161
▁monsters	-10162
▁perilous	-10163
▁presents	-10164
▁stripped	-10165
▁brightest	-10166
▁encounter	-10167
▁messenger	-10168
▁discovered	-10169
HER	-10170
Nor	-10171
lyn	-10172
▁Ba	-10173
bred	-10174
eded	-10175
este	-10176
inne	-10177
oute	-10178
qual	-10179
▁Adm	-10180
▁Fre	-10181
▁Got	-10182
▁HER	-10183
▁Ida	-10184
▁ach	-10185
Neath	-10186
Twill	-10187
cheth	-10188
inous	-10189
olved	-10190
▁Prep	-10191
▁aims	-10192
▁exer	-10193
▁eyed	-10194
▁plat	-10195
▁semb	-10196
▁tour	-10197
▁upro	-10198
▁wyse	-10199
alling	-10200
earied	-10201
essels	-10202
hereal	-10203
▁Homer	-10204
▁Quest	-10205
▁Rhine	-10206
▁atoms	-10207
▁conse	-10208
▁lucid	-10209
▁noont	-10210
▁quaff	-10211
▁seest	-10212
▁tarry	-10213
▁worry	-10214
▁Butter	-10215
▁Streng	-10216
▁beacon	-10217
▁bonnie	-10218
▁burial	-10219
▁cherry	-10220
▁devils	-10221
▁expire	-10222
▁heaped	-10223
▁reject	-10224
▁ripple	-10225
▁scanty	-10226
▁soften	-10227
▁stable	-10228
▁Camelot	-10229
▁Chinese	-10230
▁Thunder	-10231
▁Whereon	-10232
▁attract	-10233
▁deplore	-10234
▁forgets	-10235
▁opprest	-10236
▁profess	-10237
▁shortly	-10238
▁swaying	-10239
▁battered	-10240
▁confound	-10241
▁crescent	-10242
▁grievous	-10243
▁languish	-10244
▁standard	-10245
▁towering	-10246
▁wavering	-10247
▁endeavour	-10248
▁scorching	-10249
▁harmonious	-10250
▁thundering	-10251
▁magnificent	-10252
UN	-10253
GHT	-10254
ean	-10255
emon	-10256
icle	-10257
veth	-10258
▁CXX	-10259
▁Ext	-10260
▁Jac	-10261
▁hab	-10262
▁noo	-10263
▁wip	-10264
inent	-10265
ively	-10266
selve	-10267
▁Cher	-10268
▁Cool	-10269
▁Goes	-10270
▁Inno	-10271
▁Shut	-10272
▁eats	-10273
▁glut	-10274
▁mixt	-10275
▁seyn	-10276
▁unqu	-10277
------	-10278
bright	-10279
urning	-10280
▁Orion	-10281
▁Trist	-10282
▁amaze	-10283
▁broom	-10284
▁muche	-10285
▁races	-10286
▁sages	-10287
▁shove	-10288
▁swete	-10289
ceeding	-10290
theless	-10291
▁Caught	-10292
▁Hebrew	-10293
▁Voices	-10294
▁bathed	-10295
▁bended	-10296
▁chairs	-10297
▁energy	-10298
▁finest	-10299
▁fitful	-10300
▁losing	-10301
▁mounts	-10302
▁scales	-10303
▁sickly	-10304
▁untold	-10305
▁Emperor	-10306
▁Holding	-10307
▁abandon	-10308
▁altered	-10309
▁fragile	-10310
▁haggard	-10311
▁natures	-10312
▁peoples	-10313
▁rocking	-10314
▁Dreaming	-10315
▁carriage	-10316
▁numerous	-10317
▁whiteness	-10318
▁motionless	-10319
Un	-10320
alo	-10321
cts	-10322
whe	-10323
xes	-10324
aign	-10325
ieth	-10326
ilee	-10327
unte	-10328
▁Haw	-10329
▁Unw	-10330
▁Vis	-10331
▁lyf	-10332
▁ult	-10333
black	-10334
fires	-10335
ummer	-10336
▁Arms	-10337
▁Flow	-10338
▁Horn	-10339
▁Lull	-10340
▁Sees	-10341
▁Told	-10342
▁boil	-10343
▁curb	-10344
▁daff	-10345
▁hadn	-10346
▁kyng	-10347
▁waft	-10348
semble	-10349
▁Cause	-10350
▁Falls	-10351
▁Sight	-10352
▁VOICE	-10353
▁bared	-10354
▁beste	-10355
▁godly	-10356
▁moods	-10357
▁strew	-10358
▁suits	-10359
▁trout	-10360
▁Breath	-10361
▁Isabel	-10362
▁Philip	-10363
▁blasts	-10364
▁comely	-10365
▁riddle	-10366
▁scythe	-10367
▁smells	-10368
▁teares	-10369
ashioned	-10370
umerable	-10371
▁Colonel	-10372
▁blindly	-10373
▁central	-10374
▁crosses	-10375
▁filling	-10376
▁pursues	-10377
▁accident	-10378
▁destined	-10379
▁kingdoms	-10380
▁amazement	-10381
▁forgetting	-10382
Ay	-10383
hib	-10384
beit	-10385
such	-10386
▁Neg	-10387
▁Sty	-10388
▁baw	-10389
▁elm	-10390
▁les	-10391
ainst	-10392
bbled	-10393
estic	-10394
iless	-10395
itute	-10396
raged	-10397
▁Band	-10398
▁Mess	-10399
▁gilt	-10400
▁tard	-10401
▁tres	-10402
leaves	-10403
▁Dying	-10404
▁herbs	-10405
▁kinde	-10406
▁laste	-10407
▁mocks	-10408
▁quake	-10409
▁snuff	-10410
▁theyr	-10411
▁wells	-10412
▁Called	-10413
▁breach	-10414
▁cheese	-10415
▁cotton	-10416
▁covert	-10417
▁devour	-10418
▁earned	-10419
▁floors	-10420
▁incess	-10421
▁nimble	-10422
▁nobles	-10423
▁pencil	-10424
▁unjust	-10425
▁useful	-10426
▁Sitting	-10427
▁demands	-10428
▁dischar	-10429
▁doorway	-10430
▁floated	-10431
▁liberal	-10432
▁suggest	-10433
▁virgins	-10434
▁blinding	-10435
▁brimming	-10436
▁eastward	-10437
▁eloquent	-10438
▁hawthorn	-10439
▁humanity	-10440
▁instruct	-10441
▁destroyed	-10442
▁fulfilled	-10443
▁prostrate	-10444
▁starlight	-10445
ba	-10446
opy	-10447
owe	-10448
pin	-10449
upp	-10450
win	-10451
▁Si	-10452
addy	-10453
clad	-10454
ifer	-10455
ogra	-10456
oken	-10457
olds	-10458
rand	-10459
ruth	-10460
uall	-10461
zzle	-10462
▁Add	-10463
▁Dew	-10464
▁Gro	-10465
▁Lin	-10466
▁gin	-10467
▁sam	-10468
▁vie	-10469
mined	-10470
ratch	-10471
ville	-10472
▁Drew	-10473
▁Hero	-10474
▁Hush	-10475
▁Kept	-10476
▁Need	-10477
▁Sole	-10478
▁Weep	-10479
▁conj	-10480
▁enam	-10481
▁flaw	-10482
▁orbs	-10483
▁pays	-10484
▁prob	-10485
▁stan	-10486
▁Enoch	-10487
▁Quite	-10488
▁Shine	-10489
▁Turns	-10490
▁balls	-10491
▁eaves	-10492
▁glove	-10493
▁grete	-10494
▁owner	-10495
▁penit	-10496
▁piety	-10497
▁slide	-10498
▁sorts	-10499
▁vowed	-10500
berries	-10501
raction	-10502
thought	-10503
▁Indeed	-10504
▁Softly	-10505
▁bugles	-10506
▁covers	-10507
▁device	-10508
▁knyght	-10509
▁marrow	-10510
▁packed	-10511
▁tasted	-10512
▁thighs	-10513
▁thrive	-10514
▁traced	-10515
▁writes	-10516
▁Betwixt	-10517
▁Hermann	-10518
▁Solomon	-10519
▁Turning	-10520
▁bidding	-10521
▁bounded	-10522
▁clamour	-10523
▁forbear	-10524
▁implore	-10525
▁mourned	-10526
▁reasons	-10527
▁removed	-10528
▁spright	-10529
▁survive	-10530
▁touches	-10531
▁warrant	-10532
▁himselfe	-10533
▁methinks	-10534
▁preacher	-10535
▁receives	-10536
▁torrents	-10537
▁abandoned	-10538
▁condition	-10539
▁countries	-10540
▁important	-10541
.,	-10542
ka	-10543
acc	-10544
ano	-10545
nat	-10546
▁Hu	-10547
▁ot	-10548
Than	-10549
deep	-10550
oric	-10551
ruly	-10552
shot	-10553
▁Jan	-10554
▁gor	-10555
▁hae	-10556
▁tod	-10557
▁unh	-10558
Sweet	-10559
agers	-10560
aging	-10561
brate	-10562
kward	-10563
roken	-10564
▁Purs	-10565
▁atom	-10566
▁duck	-10567
▁pist	-10568
▁sapp	-10569
atures	-10570
irling	-10571
▁Eight	-10572
▁Press	-10573
▁aglow	-10574
▁domes	-10575
▁fatig	-10576
▁holes	-10577
▁lambs	-10578
▁reson	-10579
▁spies	-10580
ourable	-10581
▁Aurora	-10582
▁falcon	-10583
▁firmly	-10584
▁glooms	-10585
▁pounds	-10586
▁rescue	-10587
▁resemb	-10588
▁strung	-10589
▁Forgive	-10590
▁Princes	-10591
▁assured	-10592
▁beaming	-10593
▁bullets	-10594
▁clouded	-10595
▁dazzled	-10596
▁seventy	-10597
▁slavery	-10598
▁sparkle	-10599
▁thicket	-10600
▁thrones	-10601
▁tossing	-10602
▁Atlantic	-10603
▁Florence	-10604
▁casement	-10605
▁chambers	-10606
▁currents	-10607
▁ethereal	-10608
▁inspired	-10609
▁stirring	-10610
▁advantage	-10611
▁rejoicing	-10612
▁worthless	-10613
▁consciousness	-10614
CT	-10615
__	-10616
OND	-10617
die	-10618
yse	-10619
▁('	-10620
▁CX	-10621
▁Ut	-10622
Have	-10623
case	-10624
erie	-10625
high	-10626
rapt	-10627
ruce	-10628
▁Lot	-10629
▁XXI	-10630
▁ank	-10631
▁hes	-10632
▁nam	-10633
dying	-10634
ifies	-10635
itors	-10636
▁Coun	-10637
▁Host	-10638
▁Laid	-10639
▁Noah	-10640
▁Room	-10641
▁Sigh	-10642
▁Tong	-10643
▁Wake	-10644
▁bang	-10645
▁bash	-10646
▁pinn	-10647
▁snar	-10648
▁tawn	-10649
▁Bloom	-10650
▁Creat	-10651
▁Dante	-10652
▁Thank	-10653
▁Third	-10654
▁Thous	-10655
▁Uncle	-10656
▁cedar	-10657
▁curve	-10658
▁dwind	-10659
▁hoard	-10660
▁hunts	-10661
▁illum	-10662
▁linen	-10663
▁melts	-10664
▁milky	-10665
▁odour	-10666
▁squir	-10667
▁troph	-10668
▁vexed	-10669
▁wrapt	-10670
▁aboute	-10671
▁copper	-10672
▁manere	-10673
▁notion	-10674
▁roared	-10675
▁swayed	-10676
▁brittle	-10677
▁condemn	-10678
▁equally	-10679
▁grounds	-10680
▁pretend	-10681
▁refused	-10682
▁remaine	-10683
▁thieves	-10684
▁trouthe	-10685
aughtered	-10686
urrection	-10687
▁Standing	-10688
▁coloured	-10689
▁greeting	-10690
▁lingered	-10691
▁position	-10692
▁whenever	-10693
▁eternally	-10694
▁plaintive	-10695
▁surrender	-10696
▁excellence	-10697
▁neighbouring	-10698
pa	-10699
vi	-10700
eld	-10701
tho	-10702
nigh	-10703
riel	-10704
urid	-10705
▁Alt	-10706
▁Hes	-10707
▁Lit	-10708
▁Por	-10709
▁Rol	-10710
▁Vio	-10711
▁WHE	-10712
▁eke	-10713
▁sew	-10714
aract	-10715
bbers	-10716
ilies	-10717
ubble	-10718
vious	-10719
▁Anon	-10720
▁Crow	-10721
▁Erin	-10722
▁Hair	-10723
▁Move	-10724
▁Sear	-10725
▁Sign	-10726
▁View	-10727
▁bile	-10728
▁kids	-10729
▁mand	-10730
▁nerv	-10731
▁sett	-10732
▁wane	-10733
▁wher	-10734
ential	-10735
inkles	-10736
licted	-10737
ranger	-10738
umbles	-10739
▁Dutch	-10740
▁Loved	-10741
▁Spoon	-10742
▁Wrong	-10743
▁flank	-10744
▁froth	-10745
▁grope	-10746
▁group	-10747
▁hardy	-10748
▁holly	-10749
▁hurts	-10750
▁hyeah	-10751
▁meads	-10752
▁paced	-10753
▁penet	-10754
▁pursu	-10755
▁seren	-10756
▁Island	-10757
▁Thanks	-10758
▁critic	-10759
▁exting	-10760
▁fleece	-10761
▁frenzy	-10762
▁interv	-10763
▁masses	-10764
▁oother	-10765
▁rabbit	-10766
▁sleeve	-10767
▁vertue	-10768
cription	-10769
▁Smiling	-10770
▁couldst	-10771
▁moonlit	-10772
▁reaches	-10773
▁tumbled	-10774
▁wakeful	-10775
▁wasting	-10776
▁painting	-10777
▁pastures	-10778
▁preserve	-10779
▁sometime	-10780
▁tumbling	-10781
▁everybody	-10782
▁exhausted	-10783
▁senseless	-10784
▁expression	-10785
Ar	-10786
cut	-10787
lle	-10788
rup	-10789
sea	-10790
atre	-10791
reet	-10792
roun	-10793
stra	-10794
▁jam	-10795
▁mit	-10796
▁wig	-10797
imely	-10798
olate	-10799
▁cats	-10800
▁dide	-10801
▁sere	-10802
▁stal	-10803
▁trap	-10804
▁wole	-10805
▁Begin	-10806
▁Moses	-10807
▁Perse	-10808
▁Teach	-10809
▁knell	-10810
▁riven	-10811
▁seeme	-10812
▁skirt	-10813
▁spurs	-10814
▁sulph	-10815
ication	-10816
olation	-10817
▁Crying	-10818
▁Maiden	-10819
▁Struck	-10820
▁Wealth	-10821
▁handle	-10822
▁loaded	-10823
▁maketh	-10824
▁mostly	-10825
▁othere	-10826
▁polite	-10827
▁reconc	-10828
▁singin	-10829
▁vigour	-10830
▁approve	-10831
▁disturb	-10832
▁glanced	-10833
▁legions	-10834
▁mirrors	-10835
▁muffled	-10836
▁peacock	-10837
▁pursuit	-10838
▁stature	-10839
▁trusted	-10840
▁vessels	-10841
▁weighed	-10842
▁whereof	-10843
▁Methinks	-10844
▁expected	-10845
▁groaning	-10846
▁hundreds	-10847
▁lustrous	-10848
▁purchase	-10849
▁starving	-10850
▁strained	-10851
▁Somewhere	-10852
▁struggled	-10853
▁woodlands	-10854
▁Friendship	-10855
:-	-10856
ga	-10857
afe	-10858
arc	-10859
gri	-10860
por	-10861
aude	-10862
ibus	-10863
ilet	-10864
▁Dow	-10865
▁Fif	-10866
▁Hol	-10867
▁Lim	-10868
▁Los	-10869
▁Wot	-10870
▁afl	-10871
▁lep	-10872
▁maz	-10873
▁paw	-10874
▁wad	-10875
▁wik	-10876
alted	-10877
icker	-10878
uckle	-10879
winds	-10880
▁CHOR	-10881
▁Iron	-10882
▁Knew	-10883
▁beet	-10884
▁grav	-10885
▁haul	-10886
▁maim	-10887
▁pled	-10888
lights	-10889
rehens	-10890
stones	-10891
unched	-10892
▁Allah	-10893
▁Lands	-10894
▁Throw	-10895
▁Waves	-10896
▁beech	-10897
▁beene	-10898
▁brick	-10899
▁bunch	-10900
▁extra	-10901
▁lawns	-10902
▁loins	-10903
▁medit	-10904
▁pants	-10905
▁poppy	-10906
▁quell	-10907
▁rainy	-10908
▁slime	-10909
▁sprou	-10910
akening	-10911
retches	-10912
venture	-10913
▁Roland	-10914
▁assist	-10915
▁batter	-10916
▁bursts	-10917
▁creeds	-10918
▁destin	-10919
▁lances	-10920
▁margin	-10921
▁offend	-10922
▁pillar	-10923
▁restra	-10924
▁saving	-10925
▁shrewd	-10926
▁Present	-10927
▁Science	-10928
▁achieve	-10929
▁borders	-10930
▁budding	-10931
▁commend	-10932
▁curling	-10933
▁endured	-10934
▁listens	-10935
▁partner	-10936
▁possest	-10937
▁resound	-10938
▁stomach	-10939
▁thanked	-10940
▁hovering	-10941
▁noontide	-10942
▁carefully	-10943
▁interrupt	-10944
▁labouring	-10945
▁presently	-10946
▁solitudes	-10947
▁sorrowing	-10948
▁utterance	-10949
▁wholesome	-10950
?’	-10951
ez	-10952
▁¡	-10953
het	-10954
wey	-10955
Some	-10956
brow	-10957
dens	-10958
mark	-10959
mony	-10960
oard	-10961
oria	-10962
wine	-10963
▁Non	-10964
▁Ran	-10965
▁sie	-10966
aunts	-10967
horse	-10968
icles	-10969
sooth	-10970
▁Bend	-10971
▁Bent	-10972
▁Lust	-10973
▁Turk	-10974
▁XXII	-10975
▁bays	-10976
▁beth	-10977
▁jail	-10978
▁parl	-10979
▁pige	-10980
▁pran	-10981
▁tele	-10982
▁toad	-10983
▁unse	-10984
iments	-10985
nowing	-10986
onnets	-10987
udding	-10988
▁Phant	-10989
▁Shame	-10990
▁Shone	-10991
▁abuse	-10992
▁crows	-10993
▁gaine	-10994
▁lodge	-10995
▁perch	-10996
▁rears	-10997
▁recom	-10998
▁scars	-10999
▁squee	-11000
▁valor	-11001
▁wiles	-11002
▁Depart	-11003
▁Pallas	-11004
▁Square	-11005
▁barred	-11006
▁causes	-11007
▁decide	-11008
▁echoed	-11009
▁foeman	-11010
▁galley	-11011
▁glowed	-11012
▁hailed	-11013
▁hurric	-11014
▁odours	-11015
▁shrank	-11016
▁sparks	-11017
▁subdue	-11018
▁suspic	-11019
▁boyhood	-11020
▁eclipse	-11021
▁partial	-11022
▁quality	-11023
▁quicken	-11024
▁rightly	-11025
▁starved	-11026
▁statues	-11027
▁swelled	-11028
▁tearful	-11029
▁torches	-11030
▁yawning	-11031
▁Southern	-11032
▁carrying	-11033
▁cheering	-11034
▁manifest	-11035
▁movement	-11036
▁torments	-11037
▁unworthy	-11038
▁advancing	-11039
▁murderous	-11040
▁screaming	-11041
▁suspended	-11042
▁blossoming	-11043
▁possession	-11044
azz	-11045
oys	-11046
rah	-11047
Give	-11048
bone	-11049
coat	-11050
kers	-11051
mist	-11052
stro	-11053
ucky	-11054
vyse	-11055
▁Wha	-11056
▁bou	-11057
▁kan	-11058
▁nut	-11059
▁sau	-11060
atisf	-11061
borne	-11062
eries	-11063
phone	-11064
▁Felt	-11065
▁Glug	-11066
▁Ioye	-11067
▁Pour	-11068
▁Vers	-11069
▁excl	-11070
▁feat	-11071
▁gait	-11072
▁rehe	-11073
▁Cease	-11074
▁Scene	-11075
▁dawns	-11076
▁facts	-11077
▁plans	-11078
▁repay	-11079
▁sires	-11080
▁sloth	-11081
▁stale	-11082
▁tawny	-11083
▁urged	-11084
▁vouch	-11085
fection	-11086
▁Lovely	-11087
▁Lovers	-11088
▁Nobody	-11089
▁abound	-11090
▁depend	-11091
▁disple	-11092
▁domain	-11093
▁emblem	-11094
▁fabric	-11095
▁harlot	-11096
▁heaves	-11097
▁mornin	-11098
▁scroll	-11099
▁shrunk	-11100
▁unable	-11101
▁vernal	-11102
▁Soldier	-11103
▁Washing	-11104
▁belongs	-11105
▁contest	-11106
▁cricket	-11107
▁earlier	-11108
▁princip	-11109
▁profane	-11110
▁provide	-11111
▁smitten	-11112
▁yielded	-11113
▁Tristram	-11114
▁breakers	-11115
▁drowning	-11116
▁happiest	-11117
▁knightly	-11118
▁melodies	-11119
▁supplied	-11120
▁firmament	-11121
▁perfectly	-11122
▁straining	-11123
▁swallowed	-11124
▁affections	-11125
▁thoughtful	-11126
▁tremendous	-11127
▁underground	-11128
--------------	-11129
RY	-11130
▁à	-11131
elp	-11132
ima	-11133
mal	-11134
mic	-11135
oue	-11136
▁Tu	-11137
Poor	-11138
cade	-11139
eard	-11140
enth	-11141
nday	-11142
nies	-11143
onds	-11144
rich	-11145
wife	-11146
▁Isa	-11147
▁dow	-11148
▁jug	-11149
▁lic	-11150
▁mum	-11151
▁nun	-11152
▁pry	-11153
▁tas	-11154
asies	-11155
ephyr	-11156
ician	-11157
stall	-11158
usset	-11159
water	-11160
▁Bank	-11161
▁Bost	-11162
▁Enid	-11163
▁Fond	-11164
▁Saul	-11165
▁Whit	-11166
▁besp	-11167
▁cake	-11168
▁guid	-11169
▁nede	-11170
▁twit	-11171
▁usur	-11172
isting	-11173
▁Hours	-11174
▁Yield	-11175
▁adown	-11176
▁blent	-11177
▁crags	-11178
▁deity	-11179
▁enlar	-11180
▁fader	-11181
▁fared	-11182
▁ident	-11183
▁incon	-11184
▁litel	-11185
▁mines	-11186
rateful	-11187
▁Either	-11188
▁Ground	-11189
▁Taking	-11190
▁babies	-11191
▁blades	-11192
▁dearly	-11193
▁famine	-11194
▁forbid	-11195
▁framed	-11196
▁frolic	-11197
▁frowns	-11198
▁gaping	-11199
▁limpid	-11200
▁loveth	-11201
▁luxury	-11202
▁robber	-11203
▁shaggy	-11204
▁sheath	-11205
▁strewn	-11206
▁wisely	-11207
▁Whereby	-11208
▁clerkes	-11209
▁entreat	-11210
▁flicker	-11211
▁plunder	-11212
▁pouring	-11213
▁richest	-11214
▁sinners	-11215
▁travail	-11216
▁tyranny	-11217
▁winters	-11218
▁Judgment	-11219
▁Philosop	-11220
▁diamonds	-11221
▁horsemen	-11222
▁offering	-11223
▁quenched	-11224
▁unbroken	-11225
▁ascending	-11226
▁conqueror	-11227
▁remembers	-11228
▁sentiment	-11229
▁Translated	-11230
▁accomplish	-11231
▁mouldering	-11232
apa	-11233
cat	-11234
▁Op	-11235
Take	-11236
adin	-11237
boat	-11238
idel	-11239
inge	-11240
oons	-11241
rect	-11242
urse	-11243
▁mun	-11244
ardon	-11245
arter	-11246
cknow	-11247
erest	-11248
gnant	-11249
ingle	-11250
ocked	-11251
pheus	-11252
plain	-11253
▁Bard	-11254
▁Fain	-11255
▁Juno	-11256
▁Race	-11257
▁Shed	-11258
▁gull	-11259
▁lied	-11260
▁nets	-11261
▁para	-11262
▁rats	-11263
▁skil	-11264
▁trad	-11265
icking	-11266
otions	-11267
▁Alice	-11268
▁Borne	-11269
▁Folly	-11270
▁Laura	-11271
▁Times	-11272
▁XXIII	-11273
▁brace	-11274
▁dirge	-11275
▁fayre	-11276
▁flare	-11277
▁petty	-11278
▁reced	-11279
▁rigid	-11280
▁screw	-11281
▁sniff	-11282
▁stems	-11283
▁troth	-11284
▁vivid	-11285
▁Athens	-11286
▁Cannot	-11287
▁Columb	-11288
▁Ginger	-11289
▁Hector	-11290
▁Venice	-11291
▁advers	-11292
▁carpet	-11293
▁coldly	-11294
▁compos	-11295
▁enfold	-11296
▁invade	-11297
▁perils	-11298
▁remind	-11299
▁resort	-11300
▁richly	-11301
▁treads	-11302
▁wisest	-11303
▁wrecks	-11304
▁Calling	-11305
▁Comfort	-11306
▁Descend	-11307
▁Travell	-11308
▁charger	-11309
▁compact	-11310
▁complex	-11311
▁contend	-11312
▁corpses	-11313
▁horrors	-11314
▁individ	-11315
▁kissing	-11316
▁letting	-11317
▁sternly	-11318
▁studied	-11319
▁uncouth	-11320
▁hallowed	-11321
▁strongly	-11322
▁celebrate	-11323
▁freshness	-11324
▁privilege	-11325
▁afterwards	-11326
▁reflection	-11327
▁innumerable	-11328
▁remembering	-11329
▁slaughtered	-11330
▁nightingales	-11331
▁Æ	-11332
eme	-11333
lim	-11334
uto	-11335
▁16	-11336
ager	-11337
▁Ara	-11338
▁Mos	-11339
▁Pay	-11340
▁obe	-11341
▁sty	-11342
▁wey	-11343
▁Bees	-11344
▁Begg	-11345
▁Murm	-11346
▁Nept	-11347
▁Ship	-11348
▁Vill	-11349
▁card	-11350
▁cere	-11351
▁cram	-11352
▁flin	-11353
▁frog	-11354
▁fron	-11355
▁gret	-11356
▁latt	-11357
▁lick	-11358
▁lime	-11359
▁pred	-11360
▁term	-11361
atters	-11362
ensive	-11363
itches	-11364
▁Space	-11365
▁citiz	-11366
▁hairy	-11367
▁neuer	-11368
▁rusty	-11369
▁sways	-11370
▁unbel	-11371
▁whale	-11372
▁wider	-11373
▁wilds	-11374
▁Lights	-11375
▁Squire	-11376
▁ambush	-11377
▁blazed	-11378
▁choked	-11379
▁feebly	-11380
▁gallop	-11381
▁glossy	-11382
▁grands	-11383
▁knives	-11384
▁period	-11385
▁ranged	-11386
▁spires	-11387
▁stings	-11388
▁whiche	-11389
▁willed	-11390
together	-11391
▁Bearing	-11392
▁Italian	-11393
▁Passing	-11394
▁chatter	-11395
▁dervish	-11396
▁hateful	-11397
▁hissing	-11398
▁meanest	-11399
▁putting	-11400
▁renewed	-11401
▁sounded	-11402
▁threats	-11403
▁Daughter	-11404
▁Mistress	-11405
▁frowning	-11406
▁imprison	-11407
▁murdered	-11408
▁stooping	-11409
▁wheeling	-11410
▁whistled	-11411
▁falsehood	-11412
▁followers	-11413
▁mightiest	-11414
▁neighbors	-11415
▁overthrow	-11416
▁reflected	-11417
UE	-11418
May	-11419
Say	-11420
amy	-11421
bol	-11422
cry	-11423
jud	-11424
oph	-11425
yst	-11426
Lord	-11427
berg	-11428
door	-11429
eles	-11430
gedy	-11431
icit	-11432
onge	-11433
pter	-11434
rink	-11435
uest	-11436
unts	-11437
▁Die	-11438
▁Rid	-11439
▁Vol	-11440
▁fen	-11441
▁pac	-11442
These	-11443
acked	-11444
cible	-11445
issed	-11446
itary	-11447
logue	-11448
opard	-11449
outhe	-11450
uding	-11451
▁Nell	-11452
▁Plow	-11453
▁Pret	-11454
▁aust	-11455
▁blur	-11456
▁clan	-11457
▁feud	-11458
▁fowl	-11459
▁newe	-11460
▁team	-11461
ithing	-11462
rament	-11463
▁Latin	-11464
▁achie	-11465
▁hazel	-11466
▁links	-11467
▁lotus	-11468
▁ruine	-11469
▁soars	-11470
▁surpr	-11471
▁Beware	-11472
▁altern	-11473
▁builds	-11474
▁insult	-11475
▁limits	-11476
▁molten	-11477
▁rarely	-11478
▁scorns	-11479
▁Forgael	-11480
▁builded	-11481
▁chances	-11482
▁fervent	-11483
▁furnish	-11484
▁mockery	-11485
▁praying	-11486
▁railway	-11487
▁sunbeam	-11488
▁teeming	-11489
▁banished	-11490
▁cataract	-11491
▁churches	-11492
▁conveyed	-11493
▁declared	-11494
▁exulting	-11495
▁perfumes	-11496
▁scorning	-11497
▁shrieked	-11498
▁trophies	-11499
▁discourse	-11500
▁hereafter	-11501
▁stripling	-11502
▁withstand	-11503
▁pilgrimage	-11504
▁repentance	-11505
▁illustrious	-11506
"?	-11507
ás	-11508
ño	-11509
ahs	-11510
bod	-11511
cre	-11512
got	-11513
haw	-11514
sil	-11515
war	-11516
▁15	-11517
▁MY	-11518
▁fy	-11519
alty	-11520
itar	-11521
rift	-11522
▁!--	-11523
▁Din	-11524
▁Hat	-11525
▁Psy	-11526
▁Und	-11527
▁XXV	-11528
▁abl	-11529
▁hew	-11530
anche	-11531
bloom	-11532
human	-11533
mouth	-11534
times	-11535
worth	-11536
▁Evil	-11537
▁Flor	-11538
▁Hass	-11539
▁Park	-11540
▁Sabb	-11541
▁Weak	-11542
▁XXIV	-11543
▁cane	-11544
▁cant	-11545
▁fane	-11546
▁fuss	-11547
▁girt	-11548
▁gits	-11549
▁keel	-11550
▁oaks	-11551
▁reef	-11552
▁sith	-11553
▁thir	-11554
enting	-11555
gering	-11556
ggling	-11557
▁Brain	-11558
▁Haste	-11559
▁Sword	-11560
▁Twice	-11561
▁amiss	-11562
▁birch	-11563
▁caste	-11564
▁cells	-11565
▁clerk	-11566
▁lithe	-11567
▁sneer	-11568
▁tryst	-11569
▁yards	-11570
aculous	-11571
inished	-11572
▁Bishop	-11573
▁Chance	-11574
▁Hither	-11575
▁Sappho	-11576
▁Twenty	-11577
▁deject	-11578
▁eagles	-11579
▁feelin	-11580
▁forego	-11581
▁hearty	-11582
▁lavish	-11583
▁powder	-11584
▁selves	-11585
▁upland	-11586
▁warned	-11587
stricken	-11588
▁Someone	-11589
▁Thither	-11590
▁beggars	-11591
▁conceit	-11592
▁darkest	-11593
▁endures	-11594
▁forsook	-11595
▁fulfill	-11596
▁needful	-11597
▁observe	-11598
▁protest	-11599
▁shatter	-11600
▁spectre	-11601
▁summers	-11602
▁victims	-11603
▁whereby	-11604
▁whoever	-11605
▁continue	-11606
▁farthest	-11607
▁inclined	-11608
▁promises	-11609
▁supposed	-11610
▁ultimate	-11611
▁guiltless	-11612
▁unwilling	-11613
▁visionary	-11614
▁withering	-11615
▁Especially	-11616
▁considered	-11617
▁enterprise	-11618
▁slumbering	-11619
aba	-11620
cos	-11621
din	-11622
igo	-11623
via	-11624
▁ep	-11625
▁lu	-11626
anda	-11627
ardo	-11628
auld	-11629
cern	-11630
gade	-11631
loat	-11632
▁Ath	-11633
▁Cup	-11634
▁Dea	-11635
▁dot	-11636
▁sue	-11637
▁tig	-11638
▁wal	-11639
dream	-11640
ether	-11641
▁Jeho	-11642
▁Line	-11643
▁Prot	-11644
▁XXVI	-11645
▁asso	-11646
▁barb	-11647
▁cuts	-11648
▁mene	-11649
▁orac	-11650
▁shru	-11651
▁stup	-11652
▁tart	-11653
▁wary	-11654
Gainst	-11655
▁Diana	-11656
▁Frost	-11657
▁Glass	-11658
▁Lives	-11659
▁Wings	-11660
▁atone	-11661
▁baron	-11662
▁cards	-11663
▁casts	-11664
▁daisy	-11665
▁desir	-11666
▁labyr	-11667
▁manye	-11668
▁mused	-11669
▁sheds	-11670
▁slant	-11671
▁spire	-11672
ioneers	-11673
ruments	-11674
▁Alpine	-11675
▁Boston	-11676
▁Please	-11677
▁Sounds	-11678
▁Walter	-11679
▁afloat	-11680
▁bolder	-11681
▁cousin	-11682
▁deform	-11683
▁devise	-11684
▁embers	-11685
▁gossip	-11686
▁loaths	-11687
▁poetic	-11688
▁polish	-11689
▁salute	-11690
▁shaded	-11691
▁sunlit	-11692
▁swiche	-11693
▁tables	-11694
▁Blossom	-11695
▁Johnnie	-11696
▁combine	-11697
▁hollows	-11698
▁knoweth	-11699
▁laurels	-11700
▁lawless	-11701
▁respons	-11702
▁schools	-11703
▁scratch	-11704
▁wronged	-11705
forgotten	-11706
▁Ambition	-11707
▁chilling	-11708
▁divinely	-11709
▁domestic	-11710
▁sluggish	-11711
▁thankful	-11712
▁blackness	-11713
▁complaint	-11714
▁forbidden	-11715
▁noiseless	-11716
▁Everything	-11717
▁flattering	-11718
▁brotherhood	-11719
],	-11720
Yea	-11721
ett	-11722
hap	-11723
jer	-11724
oro	-11725
agne	-11726
cted	-11727
erne	-11728
flow	-11729
itan	-11730
lees	-11731
nine	-11732
port	-11733
rade	-11734
vate	-11735
vous	-11736
ynth	-11737
▁Ign	-11738
▁Nat	-11739
▁Wre	-11740
▁upb	-11741
▁wro	-11742
aunch	-11743
▁coil	-11744
▁lyke	-11745
▁mone	-11746
▁pert	-11747
▁slid	-11748
▁tarn	-11749
▁walt	-11750
Behold	-11751
ciless	-11752
entine	-11753
▁Learn	-11754
▁Major	-11755
▁Ready	-11756
▁Skies	-11757
▁arrog	-11758
▁assay	-11759
▁bould	-11760
▁brist	-11761
▁copse	-11762
▁dower	-11763
▁passe	-11764
▁spilt	-11765
▁wages	-11766
▁wooed	-11767
owering	-11768
▁Accord	-11769
▁Answer	-11770
▁Breast	-11771
▁Graces	-11772
▁Norman	-11773
▁Passed	-11774
▁Tartar	-11775
▁affair	-11776
▁beings	-11777
▁bigger	-11778
▁bowels	-11779
▁counts	-11780
▁futile	-11781
▁glades	-11782
▁impass	-11783
▁meteor	-11784
▁rocked	-11785
▁tumble	-11786
▁Creator	-11787
▁Romance	-11788
▁awkward	-11789
▁lessons	-11790
▁myriads	-11791
▁resolve	-11792
▁satisfy	-11793
▁captives	-11794
▁constell	-11795
▁gestures	-11796
▁hospital	-11797
▁merciful	-11798
▁reaching	-11799
▁restored	-11800
▁rippling	-11801
▁tempting	-11802
▁vanquish	-11803
▁fortunate	-11804
▁prophetic	-11805
▁sheltered	-11806
▁overthrown	-11807
▁worshipped	-11808
fo	-11809
xx	-11810
ANG	-11811
ARD	-11812
cur	-11813
dam	-11814
ely	-11815
jos	-11816
mel	-11817
ola	-11818
rig	-11819
▁CL	-11820
▁Ni	-11821
▁ti	-11822
Thus	-11823
dust	-11824
life	-11825
quin	-11826
uine	-11827
ulet	-11828
arice	-11829
eward	-11830
icted	-11831
ifter	-11832
oleon	-11833
ragon	-11834
ribly	-11835
▁Fled	-11836
▁Scri	-11837
▁assu	-11838
▁file	-11839
▁laps	-11840
▁lump	-11841
▁nupt	-11842
▁wipe	-11843
ctions	-11844
ension	-11845
handed	-11846
twould	-11847
▁Eager	-11848
▁Force	-11849
▁Judas	-11850
▁Louis	-11851
▁Loves	-11852
▁Titan	-11853
▁Troye	-11854
▁chide	-11855
▁deign	-11856
▁erthe	-11857
▁livid	-11858
▁looke	-11859
▁nests	-11860
▁regal	-11861
▁relie	-11862
▁synne	-11863
▁tolde	-11864
▁uncom	-11865
▁Hesper	-11866
▁Mighty	-11867
▁abject	-11868
▁aboard	-11869
▁dagger	-11870
▁glassy	-11871
▁goblet	-11872
▁heaved	-11873
▁hoping	-11874
▁kettle	-11875
▁lowest	-11876
▁observ	-11877
▁oceans	-11878
▁preced	-11879
▁shamed	-11880
▁turret	-11881
▁woeful	-11882
auncelot	-11883
▁Springs	-11884
▁Success	-11885
▁engines	-11886
▁exactly	-11887
▁hunters	-11888
▁violent	-11889
▁Midnight	-11890
▁conflict	-11891
▁spinning	-11892
▁supplies	-11893
▁unawares	-11894
▁vengeful	-11895
▁Knowledge	-11896
▁afflicted	-11897
▁continued	-11898
▁departing	-11899
▁forthwith	-11900
▁hurricane	-11901
▁strongest	-11902
▁churchyard	-11903
▁desolation	-11904
▁earthquake	-11905
▁contentment	-11906
▁immediately	-11907
!-	-11908
END	-11909
Ere	-11910
eye	-11911
god	-11912
hol	-11913
sey	-11914
▁Ec	-11915
▁GH	-11916
▁Il	-11917
▁vn	-11918
IRST	-11919
aver	-11920
clos	-11921
cont	-11922
hill	-11923
ikes	-11924
keep	-11925
lied	-11926
ndes	-11927
word	-11928
▁Cad	-11929
▁Fat	-11930
▁Hal	-11931
▁Lam	-11932
▁McG	-11933
▁Unf	-11934
▁Viv	-11935
▁aqu	-11936
▁fac	-11937
▁gam	-11938
▁pas	-11939
forms	-11940
onets	-11941
pents	-11942
uster	-11943
▁Aunt	-11944
▁Brad	-11945
▁Derv	-11946
▁Fury	-11947
▁Gosh	-11948
▁Holl	-11949
▁Lead	-11950
▁Oure	-11951
▁Rang	-11952
▁Sand	-11953
▁Shal	-11954
▁amor	-11955
▁deye	-11956
▁grac	-11957
▁phot	-11958
▁smok	-11959
▁syll	-11960
usions	-11961
▁GHOST	-11962
▁Going	-11963
▁Rosal	-11964
▁Sunne	-11965
▁Union	-11966
▁XXVII	-11967
▁avoid	-11968
▁brisk	-11969
▁edges	-11970
▁elbow	-11971
▁helle	-11972
▁maker	-11973
▁monot	-11974
▁prays	-11975
▁satin	-11976
▁scarf	-11977
▁snail	-11978
ibility	-11979
▁Common	-11980
▁Secret	-11981
▁Smooth	-11982
▁Unseen	-11983
▁agreed	-11984
▁arches	-11985
▁assign	-11986
▁bonnet	-11987
▁broods	-11988
▁christ	-11989
▁closes	-11990
▁matron	-11991
▁punish	-11992
▁rounds	-11993
▁stares	-11994
▁bestows	-11995
▁blended	-11996
▁cadence	-11997
▁dispers	-11998
▁dollars	-11999
▁misfort	-12000
▁nodding	-12001
▁penance	-12002
▁swarthy	-12003
▁villain	-12004
▁Strength	-12005
▁bestowed	-12006
▁brighten	-12007
▁brightly	-12008
▁confused	-12009
▁contract	-12010
▁mornings	-12011
▁politics	-12012
▁shivered	-12013
▁squadron	-12014
▁succeeds	-12015
▁whistles	-12016
▁clamorous	-12017
▁confessed	-12018
▁indignant	-12019
▁instantly	-12020
▁meanwhile	-12021
▁merciless	-12022
▁reluctant	-12023
▁shrinking	-12024
▁voiceless	-12025
da	-12026
ERS	-12027
nay	-12028
omy	-12029
poc	-12030
▁03	-12031
▁RO	-12032
▁ef	-12033
arte	-12034
erth	-12035
hung	-12036
onis	-12037
post	-12038
ques	-12039
tong	-12040
your	-12041
▁Fan	-12042
▁Use	-12043
▁bin	-12044
▁dut	-12045
▁guy	-12046
▁mee	-12047
▁mos	-12048
▁upt	-12049
icest	-12050
▁Mass	-12051
▁Mede	-12052
▁Thor	-12053
▁Want	-12054
▁Zion	-12055
▁beau	-12056
▁cope	-12057
▁cult	-12058
▁lave	-12059
▁lyve	-12060
▁omin	-12061
▁prel	-12062
▁puri	-12063
▁tips	-12064
▁vist	-12065
ograph	-12066
rating	-12067
▁Conce	-12068
▁Deity	-12069
▁Shade	-12070
▁chord	-12071
▁coude	-12072
▁downy	-12073
▁dropt	-12074
▁falle	-12075
▁harps	-12076
▁joust	-12077
▁lurid	-12078
▁oblig	-12079
▁outst	-12080
▁shops	-12081
▁taper	-12082
▁woful	-12083
colored	-12084
ishable	-12085
pecting	-12086
rewhile	-12087
ucation	-12088
▁Forest	-12089
▁Mister	-12090
▁School	-12091
▁arrest	-12092
▁daffod	-12093
▁devout	-12094
▁feasts	-12095
▁handed	-12096
▁manage	-12097
▁mourns	-12098
▁throbs	-12099
▁trifle	-12100
▁trusty	-12101
▁whiter	-12102
▁Unknown	-12103
▁beholds	-12104
▁chained	-12105
▁chiefly	-12106
▁cracked	-12107
▁dreaded	-12108
▁feeding	-12109
▁fiercer	-12110
▁glaring	-12111
▁lacking	-12112
▁mischie	-12113
▁prowess	-12114
▁prudent	-12115
▁reeking	-12116
▁reeling	-12117
▁sensual	-12118
▁trivial	-12119
▁whereso	-12120
fashioned	-12121
▁Likewise	-12122
▁mingling	-12123
▁murderer	-12124
▁snatched	-12125
▁striking	-12126
▁witnesse	-12127
▁crumbling	-12128
▁exclaimed	-12129
▁feathered	-12130
▁semblance	-12131
▁shrieking	-12132
▁transcend	-12133
▁withouten	-12134
▁admiration	-12135
▁gentleness	-12136
▁circumstance	-12137
-'	-12138
OP	-12139
'--	-12140
Old	-12141
jan	-12142
phy	-12143
▁vi	-12144
adel	-12145
cund	-12146
issa	-12147
lace	-12148
orms	-12149
skin	-12150
▁Dru	-12151
▁Kne	-12152
▁SHE	-12153
▁ark	-12154
▁err	-12155
▁hee	-12156
▁lac	-12157
▁nas	-12158
built	-12159
cross	-12160
erson	-12161
laden	-12162
ology	-12163
ships	-12164
▁Beth	-12165
▁Camb	-12166
▁Diss	-12167
▁Dull	-12168
▁Fred	-12169
▁Glen	-12170
▁Joan	-12171
▁Merc	-12172
▁Myst	-12173
▁Roll	-12174
▁Sang	-12175
▁WHEN	-12176
▁XXIX	-12177
▁bait	-12178
▁cust	-12179
▁ende	-12180
▁goon	-12181
▁heau	-12182
▁jade	-12183
▁lurk	-12184
▁ware	-12185
enesse	-12186
itched	-12187
ucking	-12188
unting	-12189
verted	-12190
▁Began	-12191
▁Broke	-12192
▁Burns	-12193
▁Drawn	-12194
▁Heavy	-12195
▁Keats	-12196
▁Satur	-12197
▁Stern	-12198
▁accus	-12199
▁aspir	-12200
▁cobwe	-12201
▁decor	-12202
▁ferns	-12203
▁ferry	-12204
▁flint	-12205
▁forge	-12206
▁foule	-12207
▁herde	-12208
▁local	-12209
▁lungs	-12210
▁newsp	-12211
▁owene	-12212
▁piano	-12213
▁purif	-12214
▁scold	-12215
▁seene	-12216
▁shorn	-12217
▁speke	-12218
▁thigh	-12219
▁warms	-12220
▁Horace	-12221
▁Martha	-12222
▁Poetry	-12223
▁cathed	-12224
▁center	-12225
▁dearth	-12226
▁demons	-12227
▁eighty	-12228
▁hearse	-12229
▁hedges	-12230
▁joints	-12231
▁linked	-12232
▁mechan	-12233
▁ordain	-12234
▁poised	-12235
▁rabble	-12236
▁sorely	-12237
▁speeds	-12238
▁trains	-12239
▁tropic	-12240
▁volume	-12241
▁Francis	-12242
▁Nations	-12243
▁Pandare	-12244
▁Sabbath	-12245
▁Walking	-12246
▁assault	-12247
▁augment	-12248
▁bloomed	-12249
▁bloomin	-12250
▁doctors	-12251
▁freight	-12252
▁longest	-12253
▁lurking	-12254
▁outrage	-12255
▁precept	-12256
▁records	-12257
▁refresh	-12258
▁Whenever	-12259
▁birthday	-12260
▁borrowed	-12261
▁darksome	-12262
▁exercise	-12263
▁infernal	-12264
▁listless	-12265
▁mounting	-12266
▁muttered	-12267
▁perfumed	-12268
▁skeleton	-12269
▁softness	-12270
▁tattered	-12271
▁assembled	-12272
▁cloudless	-12273
▁favourite	-12274
▁enchantment	-12275
'!	-12276
].	-12277
án	-12278
gre	-12279
hot	-12280
tan	-12281
▁""	-12282
▁AM	-12283
ayne	-12284
cold	-12285
hair	-12286
lesh	-12287
llis	-12288
lyss	-12289
orns	-12290
town	-12291
west	-12292
▁Bod	-12293
▁Bon	-12294
▁Enc	-12295
▁Gil	-12296
▁Tea	-12297
▁bis	-12298
▁ned	-12299
▁sip	-12300
▁tul	-12301
avour	-12302
gered	-12303
ollen	-12304
ooped	-12305
ranch	-12306
twill	-12307
▁Boys	-12308
▁Chat	-12309
▁Decl	-12310
▁Kyng	-12311
▁Mast	-12312
▁Mock	-12313
▁Post	-12314
▁Prim	-12315
▁Pull	-12316
▁Sour	-12317
▁beef	-12318
▁bien	-12319
▁clod	-12320
▁club	-12321
▁olde	-12322
▁pals	-12323
▁rice	-12324
▁shap	-12325
▁whar	-12326
illery	-12327
itious	-12328
orting	-12329
outing	-12330
raught	-12331
rising	-12332
shaped	-12333
▁Baron	-12334
▁Didst	-12335
▁Plain	-12336
▁besee	-12337
▁chere	-12338
▁churl	-12339
▁dazed	-12340
▁devel	-12341
▁famed	-12342
▁filth	-12343
▁infer	-12344
▁roars	-12345
▁shack	-12346
▁shred	-12347
▁wagon	-12348
onsense	-12349
▁Filled	-12350
▁Ladies	-12351
▁ardour	-12352
▁climes	-12353
▁driver	-12354
▁eldest	-12355
▁immort	-12356
▁jungle	-12357
▁obeyed	-12358
▁presum	-12359
▁robbed	-12360
▁roving	-12361
▁russet	-12362
▁wikked	-12363
▁Captive	-12364
▁Shadows	-12365
▁Subject	-12366
▁Suppose	-12367
▁austere	-12368
▁bearded	-12369
▁colored	-12370
▁descent	-12371
▁lullaby	-12372
▁prairie	-12373
▁screams	-12374
▁wrecked	-12375
▁Achilles	-12376
▁beguiled	-12377
▁eighteen	-12378
▁offended	-12379
▁overcome	-12380
▁smallest	-12381
▁steadily	-12382
▁unfathom	-12383
▁ambitious	-12384
▁emptiness	-12385
▁faltering	-12386
▁greenwood	-12387
▁loathsome	-12388
▁comprehend	-12389
▁vanquished	-12390
'?	-12391
De	-12392
Re	-12393
ari	-12394
cas	-12395
ini	-12396
lam	-12397
oty	-12398
par	-12399
ppe	-12400
pty	-12401
▁SH	-12402
iron	-12403
mill	-12404
test	-12405
ucks	-12406
▁Dig	-12407
▁Rea	-12408
▁jaw	-12409
▁lee	-12410
▁pel	-12411
▁rib	-12412
▁tan	-12413
Shall	-12414
ately	-12415
brown	-12416
cules	-12417
istle	-12418
ivere	-12419
maids	-12420
ption	-12421
ribut	-12422
stood	-12423
umped	-12424
unity	-12425
▁Geor	-12426
▁Grim	-12427
▁Lesb	-12428
▁Side	-12429
▁Sits	-12430
▁Stud	-12431
▁desk	-12432
▁peas	-12433
▁shul	-12434
▁Arise	-12435
▁Bells	-12436
▁FIRST	-12437
▁Naked	-12438
▁beset	-12439
▁canoe	-12440
▁chalk	-12441
▁coach	-12442
▁coats	-12443
▁crops	-12444
▁daint	-12445
▁estab	-12446
▁groom	-12447
▁holde	-12448
▁whine	-12449
ashions	-12450
ingling	-12451
strings	-12452
wrought	-12453
▁Beheld	-12454
▁Border	-12455
▁Brings	-12456
▁Broken	-12457
▁Psyche	-12458
▁XXVIII	-12459
▁confin	-12460
▁easier	-12461
▁falter	-12462
▁hazard	-12463
▁marred	-12464
▁mindes	-12465
▁racing	-12466
▁sicken	-12467
▁traces	-12468
▁trench	-12469
▁Jehovah	-12470
▁Maurice	-12471
▁Whoever	-12472
▁bashful	-12473
▁courtly	-12474
▁hopeful	-12475
▁nervous	-12476
▁noonday	-12477
▁pricked	-12478
▁scandal	-12479
▁society	-12480
▁softest	-12481
▁soothed	-12482
▁steeple	-12483
▁stilled	-12484
▁trained	-12485
▁turrets	-12486
▁verdure	-12487
▁weaving	-12488
▁wildest	-12489
▁wishing	-12490
▁bitterly	-12491
▁crawling	-12492
▁footstep	-12493
▁moisture	-12494
▁pressing	-12495
▁property	-12496
▁pursuing	-12497
▁reckoned	-12498
▁repeated	-12499
▁threaten	-12500
▁youngest	-12501
▁Launcelot	-12502
▁Wherewith	-12503
▁miserable	-12504
▁obedience	-12505
▁perceived	-12506
▁Throughout	-12507
▁appearance	-12508
▁confidence	-12509
▁resistless	-12510
▁whatsoever	-12511
▁straightway	-12512
CK	-12513
ATH	-12514
erd	-12515
jah	-12516
nis	-12517
say	-12518
two	-12519
▁Ta	-12520
Such	-12521
face	-12522
lars	-12523
▁Dey	-12524
▁Jub	-12525
▁Laz	-12526
▁Mom	-12527
▁Pig	-12528
▁bos	-12529
▁jag	-12530
▁mul	-12531
▁tok	-12532
▁wry	-12533
Never	-12534
enser	-12535
happy	-12536
ibald	-12537
iners	-12538
iture	-12539
piece	-12540
rouds	-12541
▁Bapt	-12542
▁Firm	-12543
▁Rede	-12544
▁Ruin	-12545
▁Wing	-12546
▁caus	-12547
▁corp	-12548
▁cush	-12549
▁disd	-12550
▁fixt	-12551
▁hive	-12552
▁lyes	-12553
▁tint	-12554
▁unve	-12555
▁vind	-12556
estine	-12557
inence	-12558
struck	-12559
tofore	-12560
▁Abbot	-12561
▁Beast	-12562
▁Bliss	-12563
▁Dance	-12564
▁Grown	-12565
▁Shake	-12566
▁Widow	-12567
▁acted	-12568
▁certe	-12569
▁elles	-12570
▁maner	-12571
▁novel	-12572
▁petal	-12573
▁prais	-12574
▁sangu	-12575
▁taint	-12576
▁Amidst	-12577
▁Lament	-12578
▁Parent	-12579
▁Stella	-12580
▁brutal	-12581
▁celebr	-12582
▁chimes	-12583
▁descry	-12584
▁events	-12585
▁lordes	-12586
▁oldest	-12587
▁partly	-12588
▁promis	-12589
▁quarry	-12590
▁ribbon	-12591
▁rooted	-12592
▁sentin	-12593
▁snares	-12594
▁stored	-12595
▁sucked	-12596
▁themes	-12597
▁untrue	-12598
▁weaves	-12599
▁whirls	-12600
▁Bellman	-12601
▁Courage	-12602
▁Neptune	-12603
▁burdens	-12604
▁cluster	-12605
▁consume	-12606
▁dashing	-12607
▁extends	-12608
▁gentler	-12609
▁missing	-12610
▁redress	-12611
▁seaward	-12612
▁spurred	-12613
▁Infinite	-12614
▁Saturday	-12615
▁Sergeant	-12616
▁comforts	-12617
▁overflow	-12618
▁overwhel	-12619
▁wretches	-12620
▁Returning	-12621
▁dissolved	-12622
▁poisonous	-12623
▁prisoners	-12624
▁struggles	-12625
▁travelled	-12626
▁marvellous	-12627
▁miraculous	-12628
▁Remembering	-12629
▁conversation	-12630
IND	-12631
ONG	-12632
TER	-12633
Was	-12634
dal	-12635
sar	-12636
▁HA	-12637
Tell	-12638
hinx	-12639
inke	-12640
isly	-12641
nest	-12642
said	-12643
walk	-12644
▁Nin	-12645
▁ope	-12646
▁soe	-12647
Young	-12648
craft	-12649
grass	-12650
ilian	-12651
inish	-12652
olpho	-12653
oughs	-12654
smith	-12655
stead	-12656
▁Arts	-12657
▁Fold	-12658
▁Lips	-12659
▁Mere	-12660
▁Parn	-12661
▁THOU	-12662
▁balc	-12663
▁brew	-12664
▁dede	-12665
▁drou	-12666
▁euer	-12667
▁peal	-12668
▁reft	-12669
▁sich	-12670
▁skim	-12671
▁tack	-12672
▁trot	-12673
▁wren	-12674
icable	-12675
idious	-12676
ounted	-12677
quered	-12678
ulsive	-12679
upiter	-12680
▁Knows	-12681
▁Order	-12682
▁Quoth	-12683
▁Sarac	-12684
▁Sharp	-12685
▁Snark	-12686
▁Whole	-12687
▁briny	-12688
▁embro	-12689
▁helps	-12690
▁lampl	-12691
▁moste	-12692
▁perce	-12693
▁swims	-12694
crowned	-12695
emberbo	-12696
pitious	-12697
▁Hunger	-12698
▁attire	-12699
▁curves	-12700
▁diadem	-12701
▁exists	-12702
▁girdle	-12703
▁grains	-12704
▁hinder	-12705
▁kneels	-12706
▁knowne	-12707
▁minist	-12708
▁rudely	-12709
▁steers	-12710
atisfied	-12711
▁Ancient	-12712
▁Priests	-12713
▁beguile	-12714
▁bravest	-12715
▁claimed	-12716
▁courses	-12717
▁dancers	-12718
▁gallery	-12719
▁heavier	-12720
▁leaders	-12721
▁lighten	-12722
▁loftier	-12723
▁ominous	-12724
▁outcast	-12725
▁procure	-12726
▁rescued	-12727
▁scholar	-12728
▁sharply	-12729
▁surging	-12730
▁tempted	-12731
▁trewely	-12732
▁unaware	-12733
ourneying	-12734
▁descried	-12735
▁disaster	-12736
▁forsooth	-12737
▁gentlest	-12738
▁horseman	-12739
▁leafless	-12740
▁orchards	-12741
▁ornament	-12742
▁pleading	-12743
▁rattling	-12744
▁sapphire	-12745
▁secretly	-12746
▁shadowed	-12747
▁viewless	-12748
▁buildings	-12749
▁changeful	-12750
▁confident	-12751
▁continent	-12752
▁undaunted	-12753
?-	-12754
Bl	-12755
Can	-12756
ata	-12757
eff	-12758
ghy	-12759
jar	-12760
wel	-12761
▁Gr	-12762
▁ME	-12763
COND	-12764
amer	-12765
anas	-12766
free	-12767
ggie	-12768
laid	-12769
oler	-12770
only	-12771
play	-12772
sino	-12773
uned	-12774
veys	-12775
writ	-12776
▁Cow	-12777
▁FOR	-12778
▁Hay	-12779
▁Len	-12780
▁Mol	-12781
▁Rhy	-12782
▁bor	-12783
▁bry	-12784
▁hie	-12785
▁liz	-12786
▁moo	-12787
hetic	-12788
ially	-12789
▁Dumb	-12790
▁Hide	-12791
▁Kill	-12792
▁Lane	-12793
▁Pole	-12794
▁XXXI	-12795
▁auld	-12796
▁bapt	-12797
▁claw	-12798
▁eyen	-12799
▁mold	-12800
▁odor	-12801
▁pans	-12802
▁pore	-12803
▁rans	-12804
▁unif	-12805
▁wrap	-12806
▁zest	-12807
ically	-12808
insing	-12809
olence	-12810
stream	-12811
urable	-12812
▁Abbey	-12813
▁Cheer	-12814
▁Dowel	-12815
▁Flesh	-12816
▁afore	-12817
▁ayein	-12818
▁bench	-12819
▁burne	-12820
▁chasm	-12821
▁dregs	-12822
▁fares	-12823
▁gulls	-12824
▁hards	-12825
▁ideas	-12826
▁lapse	-12827
▁lined	-12828
▁ridic	-12829
▁scrat	-12830
▁seith	-12831
▁shuts	-12832
▁sneak	-12833
▁staid	-12834
▁tails	-12835
▁theft	-12836
▁wende	-12837
▁wires	-12838
▁wiste	-12839
▁Africa	-12840
▁CHORUS	-12841
▁Itself	-12842
▁Orsino	-12843
▁Tender	-12844
▁Tongue	-12845
▁begged	-12846
▁envied	-12847
▁erring	-12848
▁oppose	-12849
▁paints	-12850
▁queens	-12851
▁savour	-12852
▁smould	-12853
▁turbul	-12854
▁twined	-12855
▁uproar	-12856
▁wilful	-12857
▁Elysian	-12858
▁Plowman	-12859
▁censure	-12860
▁college	-12861
▁drained	-12862
▁engaged	-12863
▁exalted	-12864
▁frowned	-12865
▁lantern	-12866
▁pebbles	-12867
▁recover	-12868
▁scarred	-12869
▁serving	-12870
▁singers	-12871
▁Astolpho	-12872
▁Napoleon	-12873
▁Prologue	-12874
▁Zemberbo	-12875
▁composed	-12876
▁deceived	-12877
▁defiance	-12878
▁evenings	-12879
▁freezing	-12880
▁grieving	-12881
▁jewelled	-12882
▁portrait	-12883
▁trailing	-12884
▁untimely	-12885
▁burnished	-12886
▁remaining	-12887
▁revolving	-12888
▁accustomed	-12889
▁altogether	-12890
▁characters	-12891
▁conclusion	-12892
▁proportion	-12893
▁stretching	-12894
▁surrounded	-12895
▁tempestuous	-12896
hu	-12897
Are	-12898
EAD	-12899
bru	-12900
ili	-12901
ubs	-12902
▁eb	-12903
aith	-12904
enix	-12905
rock	-12906
▁ARG	-12907
▁Fun	-12908
▁Hid	-12909
▁huh	-12910
▁ram	-12911
▁vit	-12912
atory	-12913
estes	-12914
icide	-12915
lying	-12916
phisa	-12917
pture	-12918
roned	-12919
▁Been	-12920
▁Case	-12921
▁Gord	-12922
▁Hind	-12923
▁Joys	-12924
▁Tomb	-12925
▁Wear	-12926
▁bats	-12927
▁buoy	-12928
▁gnaw	-12929
▁paws	-12930
▁rind	-12931
▁roug	-12932
▁sted	-12933
▁toun	-12934
▁twig	-12935
ethyst	-12936
lysses	-12937
oosing	-12938
rapped	-12939
versed	-12940
▁Brook	-12941
▁Canst	-12942
▁Chant	-12943
▁Cruel	-12944
▁Dwell	-12945
▁Early	-12946
▁Grows	-12947
▁Hangs	-12948
▁Hopes	-12949
▁Swept	-12950
▁bites	-12951
▁corse	-12952
▁curly	-12953
▁myght	-12954
▁negro	-12955
▁recre	-12956
▁slake	-12957
▁tasks	-12958
▁weake	-12959
ulating	-12960
▁Claude	-12961
▁Letter	-12962
▁Secure	-12963
▁Shines	-12964
▁Waters	-12965
▁aflame	-12966
▁ashore	-12967
▁benign	-12968
▁bettre	-12969
▁cruell	-12970
▁debate	-12971
▁defect	-12972
▁festal	-12973
▁gifted	-12974
▁indign	-12975
▁kinder	-12976
▁review	-12977
▁sunder	-12978
▁supple	-12979
▁trunks	-12980
▁vouchs	-12981
▁Geraint	-12982
▁anybody	-12983
▁blanket	-12984
▁fulness	-12985
▁healthy	-12986
▁mangled	-12987
▁remnant	-12988
▁severed	-12989
▁sliding	-12990
▁smaller	-12991
▁sympath	-12992
▁travels	-12993
▁twinkle	-12994
▁vagrant	-12995
▁warfare	-12996
▁washing	-12997
▁wearily	-12998
fortunate	-12999
▁Creation	-13000
▁Heavenly	-13001
▁Treasure	-13002
▁cautious	-13003
▁disdaine	-13004
▁divinity	-13005
▁drunkard	-13006
▁embraced	-13007
▁enduring	-13008
▁festival	-13009
▁pictured	-13010
▁poisoned	-13011
▁pregnant	-13012
▁slightly	-13013
▁unfurled	-13014
▁President	-13015
▁cigarette	-13016
▁departure	-13017
▁ministers	-13018
▁outspread	-13019
▁philosophy	-13020
▁intelligence	-13021
:'	-13022
alp	-13023
fal	-13024
ois	-13025
oli	-13026
uld	-13027
▁Az	-13028
▁FA	-13029
▁Ot	-13030
▁ae	-13031
Like	-13032
adas	-13033
amon	-13034
hole	-13035
ifix	-13036
pert	-13037
racy	-13038
▁Gab	-13039
▁Hit	-13040
▁Ice	-13041
▁Lib	-13042
▁NOT	-13043
▁Pel	-13044
▁Pit	-13045
▁Rap	-13046
▁fib	-13047
▁ioy	-13048
▁lew	-13049
▁org	-13050
blind	-13051
hound	-13052
onted	-13053
▁Amen	-13054
▁Avon	-13055
▁Bind	-13056
▁Door	-13057
▁Emer	-13058
▁Plan	-13059
▁aren	-13060
▁dank	-13061
▁fasc	-13062
▁frum	-13063
▁mice	-13064
▁vnto	-13065
ulated	-13066
▁Neigh	-13067
▁beget	-13068
▁belle	-13069
▁bluff	-13070
▁carol	-13071
▁fangs	-13072
▁geese	-13073
▁glads	-13074
▁glitt	-13075
▁impro	-13076
▁longs	-13077
▁panic	-13078
▁parch	-13079
▁puiss	-13080
▁quail	-13081
▁sinew	-13082
▁spade	-13083
▁spice	-13084
▁turne	-13085
▁yeeld	-13086
angling	-13087
figured	-13088
▁Fisher	-13089
▁Lincol	-13090
▁Senlin	-13091
▁Violet	-13092
▁actual	-13093
▁clocks	-13094
▁foemen	-13095
▁graced	-13096
▁landed	-13097
▁linnet	-13098
▁menace	-13099
▁mutter	-13100
▁receiv	-13101
▁sodden	-13102
▁splash	-13103
▁warmed	-13104
▁weaker	-13105
▁wooing	-13106
▁Epitaph	-13107
▁Possess	-13108
▁Whereat	-13109
▁adamant	-13110
▁appeare	-13111
▁bayonet	-13112
▁beautif	-13113
▁casting	-13114
▁castles	-13115
▁emptied	-13116
▁furrows	-13117
▁groaned	-13118
▁injured	-13119
▁lattice	-13120
▁nuptial	-13121
▁peopled	-13122
▁presume	-13123
▁stamped	-13124
▁stubble	-13125
▁surmise	-13126
▁Laughing	-13127
▁Stranger	-13128
▁clothing	-13129
▁downcast	-13130
▁hillside	-13131
▁lightest	-13132
▁livelong	-13133
▁medicine	-13134
▁overlook	-13135
▁pathless	-13136
▁pressure	-13137
▁pretence	-13138
▁primrose	-13139
▁resolute	-13140
▁reverend	-13141
▁romantic	-13142
▁sparrows	-13143
▁Dervishes	-13144
▁dishonour	-13145
▁necessity	-13146
▁qualities	-13147
▁venerable	-13148
▁wherewith	-13149
▁womanhood	-13150
▁bewildered	-13151
▁discontent	-13152
▁generation	-13153
▁simplicity	-13154
▁disappeared	-13155
▁instruments	-13156
▁thoughtless	-13157
▁threatening	-13158
Ac	-13159
En	-13160
ki	-13161
wa	-13162
ëd	-13163
▁)	-13164
BER	-13165
emn	-13166
ión	-13167
toe	-13168
yth	-13169
zas	-13170
▁Ze	-13171
Will	-13172
agre	-13173
arie	-13174
asta	-13175
call	-13176
fing	-13177
iard	-13178
ighe	-13179
ihil	-13180
itud	-13181
mare	-13182
oled	-13183
oops	-13184
part	-13185
rays	-13186
ride	-13187
rily	-13188
▁Hap	-13189
▁Ile	-13190
▁Ned	-13191
▁gap	-13192
▁jub	-13193
▁poy	-13194
▁sem	-13195
▁tub	-13196
▁urg	-13197
Would	-13198
ensed	-13199
erers	-13200
gends	-13201
grims	-13202
oused	-13203
plete	-13204
ustry	-13205
▁Envy	-13206
▁Gate	-13207
▁Goth	-13208
▁Laws	-13209
▁Thri	-13210
▁bund	-13211
▁cash	-13212
▁hilt	-13213
▁loaf	-13214
▁mens	-13215
▁oxen	-13216
▁rood	-13217
▁wily	-13218
filled	-13219
houses	-13220
inions	-13221
▁Blown	-13222
▁Carol	-13223
▁Curse	-13224
▁Faces	-13225
▁Fiend	-13226
▁Hymen	-13227
▁Langu	-13228
▁Memor	-13229
▁Scots	-13230
▁Shore	-13231
▁Shows	-13232
▁Slave	-13233
▁Worth	-13234
▁cords	-13235
▁crisp	-13236
▁diver	-13237
▁dross	-13238
▁fable	-13239
▁goode	-13240
▁knots	-13241
▁lewed	-13242
▁plank	-13243
▁sobre	-13244
▁unsha	-13245
▁veget	-13246
embered	-13247
forward	-13248
inction	-13249
▁Accept	-13250
▁Affect	-13251
▁Famine	-13252
▁Fields	-13253
▁Ghosts	-13254
▁Lucret	-13255
▁Naught	-13256
▁Redeem	-13257
▁Serene	-13258
▁aisles	-13259
▁bleeds	-13260
▁bruise	-13261
▁brutes	-13262
▁carven	-13263
▁colder	-13264
▁filthy	-13265
▁grimly	-13266
▁keeper	-13267
▁lasses	-13268
▁revive	-13269
▁smoked	-13270
▁stoops	-13271
▁surges	-13272
▁system	-13273
▁werkes	-13274
▁History	-13275
▁Husband	-13276
▁Lincoln	-13277
▁Whereof	-13278
▁Wrought	-13279
▁arrange	-13280
▁breadth	-13281
▁cleaves	-13282
▁dispute	-13283
▁diverse	-13284
▁efforts	-13285
▁plagues	-13286
▁saddest	-13287
▁servile	-13288
▁shields	-13289
▁superst	-13290
▁teacher	-13291
▁trample	-13292
▁vaulted	-13293
▁Marphisa	-13294
▁Proclaim	-13295
▁Promethe	-13296
▁assembly	-13297
▁caresses	-13298
▁fondness	-13299
▁mystical	-13300
▁occurred	-13301
▁practice	-13302
▁resplend	-13303
▁speeches	-13304
▁stalwart	-13305
▁tinkling	-13306
▁displayed	-13307
▁galloping	-13308
▁increased	-13309
▁despairing	-13310
▁unexpected	-13311
▁contemplation	-13312
IST	-13313
hee	-13314
▁Ga	-13315
▁SP	-13316
▁os	-13317
best	-13318
bolt	-13319
core	-13320
lass	-13321
much	-13322
orce	-13323
▁Bus	-13324
▁Eth	-13325
▁Gri	-13326
▁Jap	-13327
▁Nan	-13328
▁jer	-13329
▁rip	-13330
▁wif	-13331
blems	-13332
chery	-13333
ights	-13334
shore	-13335
▁Conv	-13336
▁Gran	-13337
▁Hipp	-13338
▁Jean	-13339
▁Loch	-13340
▁Mour	-13341
▁Nest	-13342
▁Pros	-13343
▁Stir	-13344
▁Vast	-13345
▁dred	-13346
▁dyed	-13347
▁hack	-13348
▁hove	-13349
▁loit	-13350
▁owls	-13351
▁plea	-13352
▁pris	-13353
▁ribs	-13354
clouds	-13355
ements	-13356
ilence	-13357
▁Built	-13358
▁Eagle	-13359
▁Enjoy	-13360
▁Glugs	-13361
▁Laure	-13362
▁Moved	-13363
▁Plato	-13364
▁alwey	-13365
▁barge	-13366
▁choke	-13367
▁clank	-13368
▁cramp	-13369
▁feith	-13370
▁fifth	-13371
▁joint	-13372
▁moder	-13373
▁shawl	-13374
▁shiny	-13375
▁stove	-13376
▁thyng	-13377
▁waxed	-13378
▁Darius	-13379
▁Easter	-13380
▁Hidden	-13381
▁Regard	-13382
▁Sacred	-13383
▁barley	-13384
▁bifore	-13385
▁bygone	-13386
▁canopy	-13387
▁clamor	-13388
▁collar	-13389
▁dancer	-13390
▁denies	-13391
▁ebbing	-13392
▁fitted	-13393
▁flanks	-13394
▁gravel	-13395
▁grudge	-13396
▁highly	-13397
▁invest	-13398
▁issued	-13399
▁loosen	-13400
▁plates	-13401
▁repres	-13402
▁scents	-13403
▁shifts	-13404
▁tastes	-13405
▁thatch	-13406
▁timber	-13407
▁Certain	-13408
▁Fairies	-13409
▁Ulysses	-13410
▁boiling	-13411
▁compose	-13412
▁crawled	-13413
▁damsels	-13414
▁devoted	-13415
▁dresses	-13416
▁effects	-13417
▁follies	-13418
▁grasped	-13419
▁huddled	-13420
▁massive	-13421
▁noticed	-13422
▁odorous	-13423
▁regular	-13424
▁sleeper	-13425
▁tainted	-13426
▁yearned	-13427
▁clutched	-13428
▁controul	-13429
▁fastened	-13430
▁haunting	-13431
▁husbands	-13432
▁loosened	-13433
▁manfully	-13434
▁nonsense	-13435
▁ordained	-13436
▁peerless	-13437
▁pitiless	-13438
▁renowned	-13439
▁steaming	-13440
▁withhold	-13441
▁writhing	-13442
▁Gentlemen	-13443
▁conceived	-13444
▁labyrinth	-13445
▁sensation	-13446
▁discipline	-13447
▁shimmering	-13448
Ow	-13449
▁{	-13450
oir	-13451
▁Ob	-13452
IGHT	-13453
agon	-13454
anse	-13455
dale	-13456
ipes	-13457
ombs	-13458
pale	-13459
stre	-13460
ynes	-13461
▁Cit	-13462
▁Hem	-13463
▁Jon	-13464
▁Lur	-13465
▁Oth	-13466
▁Tou	-13467
▁Won	-13468
▁hey	-13469
▁loc	-13470
▁sov	-13471
▁vom	-13472
asket	-13473
enses	-13474
falls	-13475
gence	-13476
iders	-13477
istic	-13478
odied	-13479
ossed	-13480
rails	-13481
urnal	-13482
▁Chir	-13483
▁Crom	-13484
▁Dove	-13485
▁Hate	-13486
▁Huge	-13487
▁Jews	-13488
▁Stan	-13489
▁Stat	-13490
▁adds	-13491
▁cind	-13492
▁copy	-13493
▁flor	-13494
▁goad	-13495
▁igno	-13496
▁pose	-13497
▁sale	-13498
▁soap	-13499
▁soup	-13500
▁spak	-13501
▁unri	-13502
▁unsh	-13503
▁vote	-13504
▁weel	-13505
anders	-13506
intage	-13507
ocracy	-13508
▁Adieu	-13509
▁Athen	-13510
▁Ceres	-13511
▁Fates	-13512
▁Fleet	-13513
▁Isaac	-13514
▁Mabel	-13515
▁Mirth	-13516
▁Thick	-13517
▁bored	-13518
▁brawn	-13519
▁carri	-13520
▁excel	-13521
▁fumes	-13522
▁lured	-13523
▁oaths	-13524
▁piles	-13525
▁route	-13526
▁skins	-13527
▁tires	-13528
▁tools	-13529
▁undef	-13530
itution	-13531
ression	-13532
▁Charms	-13533
▁Goddes	-13534
▁Onward	-13535
▁Prison	-13536
▁Romans	-13537
▁Worthy	-13538
▁allure	-13539
▁behest	-13540
▁cloven	-13541
▁confer	-13542
▁droops	-13543
▁intric	-13544
▁knocks	-13545
▁paynim	-13546
▁raving	-13547
▁rubies	-13548
▁tavern	-13549
▁tigers	-13550
▁vaults	-13551
▁Forward	-13552
▁Jupiter	-13553
▁Picture	-13554
▁Somehow	-13555
▁commune	-13556
▁cutting	-13557
▁darting	-13558
▁diviner	-13559
▁glisten	-13560
▁mission	-13561
▁modesty	-13562
▁passive	-13563
▁pastime	-13564
▁poplars	-13565
▁retired	-13566
▁rounded	-13567
▁sharpen	-13568
▁shrines	-13569
▁skilful	-13570
▁summits	-13571
▁swollen	-13572
▁Egyptian	-13573
▁Hercules	-13574
▁Somebody	-13575
▁bubbling	-13576
▁conspire	-13577
▁exchange	-13578
▁fashions	-13579
▁fragment	-13580
▁gigantic	-13581
▁grinning	-13582
▁homeless	-13583
▁miracles	-13584
▁mistaken	-13585
▁mourners	-13586
▁plunging	-13587
▁proudest	-13588
▁sanguine	-13589
▁Chieftain	-13590
▁Thousands	-13591
▁believing	-13592
▁blindness	-13593
▁mortality	-13594
▁rapturous	-13595
▁sightless	-13596
▁southward	-13597
▁stumbling	-13598
▁suppliant	-13599
▁heretofore	-13600
''	-13601
SS	-13602
fé	-13603
ya	-13604
▁_	-13605
ANT	-13606
ATE	-13607
URE	-13608
did	-13609
mud	-13610
rof	-13611
▁04	-13612
▁05	-13613
▁Gi	-13614
▁Ir	-13615
▁PO	-13616
alms	-13617
anim	-13618
boys	-13619
cups	-13620
erva	-13621
gued	-13622
hrab	-13623
iall	-13624
leth	-13625
mont	-13626
pane	-13627
vary	-13628
ymes	-13629
yrus	-13630
▁Dad	-13631
▁Equ	-13632
▁Kat	-13633
▁MER	-13634
▁Obl	-13635
▁Sid	-13636
▁Sym	-13637
▁bly	-13638
▁pic	-13639
acity	-13640
raced	-13641
rites	-13642
rophe	-13643
since	-13644
▁Anna	-13645
▁Cock	-13646
▁Cong	-13647
▁Diam	-13648
▁Hood	-13649
▁Rail	-13650
▁Temp	-13651
▁agon	-13652
▁ayre	-13653
▁drow	-13654
▁hust	-13655
▁huts	-13656
▁judg	-13657
▁logs	-13658
▁pend	-13659
▁snap	-13660
▁uses	-13661
▁vase	-13662
aining	-13663
formed	-13664
inable	-13665
otence	-13666
▁Chaos	-13667
▁Climb	-13668
▁Keeps	-13669
▁Takes	-13670
▁Verse	-13671
▁bonny	-13672
▁carve	-13673
▁clink	-13674
▁fated	-13675
▁flits	-13676
▁forme	-13677
▁havoc	-13678
▁hints	-13679
▁ingen	-13680
▁maist	-13681
▁model	-13682
▁odors	-13683
▁plaid	-13684
▁sette	-13685
▁swans	-13686
▁sward	-13687
▁total	-13688
▁vocal	-13689
▁wrack	-13690
through	-13691
velling	-13692
▁Bitter	-13693
▁Excell	-13694
▁Persia	-13695
▁Powers	-13696
▁Purple	-13697
▁Rememb	-13698
▁XXXIII	-13699
▁bileve	-13700
▁craggy	-13701
▁craven	-13702
▁formal	-13703
▁frames	-13704
▁gloves	-13705
▁ladder	-13706
▁parade	-13707
▁piping	-13708
▁streak	-13709
▁toilet	-13710
▁Amongst	-13711
▁Breathe	-13712
▁Herself	-13713
▁Orpheus	-13714
▁Russian	-13715
▁Shelley	-13716
▁Shining	-13717
▁balcony	-13718
▁channel	-13719
▁craving	-13720
▁dappled	-13721
▁decrees	-13722
▁dragons	-13723
▁handful	-13724
▁infancy	-13725
▁issuing	-13726
▁loathed	-13727
▁schemes	-13728
▁stifled	-13729
▁supplic	-13730
▁suspect	-13731
▁topmost	-13732
▁trodden	-13733
▁visited	-13734
▁Angelica	-13735
▁advanced	-13736
▁crowding	-13737
▁entirely	-13738
▁fettered	-13739
▁fugitive	-13740
▁huntsman	-13741
▁impotent	-13742
▁intimate	-13743
▁luckless	-13744
▁screamed	-13745
▁searched	-13746
▁thickets	-13747
▁Traveller	-13748
▁champions	-13749
▁chieftain	-13750
▁fluttered	-13751
▁ponderous	-13752
▁stretches	-13753
▁surprised	-13754
▁willingly	-13755
▁Forgetting	-13756
▁distracted	-13757
▁intellectual	-13758
-1	-13759
PH	-13760
UL	-13761
sk	-13762
AST	-13763
Aye	-13764
OME	-13765
bac	-13766
lan	-13767
uds	-13768
▁Io	-13769
acre	-13770
ador	-13771
anch	-13772
bing	-13773
cery	-13774
gold	-13775
have	-13776
issh	-13777
leaf	-13778
orth	-13779
otic	-13780
pose	-13781
roof	-13782
step	-13783
tico	-13784
tips	-13785
▁Bad	-13786
▁Fem	-13787
▁Mex	-13788
▁Nod	-13789
▁Unm	-13790
▁Wol	-13791
▁enl	-13792
▁laz	-13793
oster	-13794
oures	-13795
these	-13796
veled	-13797
venue	-13798
▁Bess	-13799
▁Drop	-13800
▁Eliz	-13801
▁Hugh	-13802
▁Lena	-13803
▁Ling	-13804
▁Pent	-13805
▁Pine	-13806
▁Sage	-13807
▁ampl	-13808
▁bamb	-13809
▁bulw	-13810
▁clap	-13811
▁gums	-13812
▁hats	-13813
▁hond	-13814
▁hump	-13815
▁stam	-13816
▁volu	-13817
iament	-13818
ission	-13819
manent	-13820
minded	-13821
▁Cenci	-13822
▁Feast	-13823
▁Lethe	-13824
▁Meant	-13825
▁Nurse	-13826
▁Raven	-13827
▁Spect	-13828
▁Swell	-13829
▁Trade	-13830
▁bolts	-13831
▁braid	-13832
▁calam	-13833
▁divin	-13834
▁idiot	-13835
▁lends	-13836
▁lurks	-13837
▁motor	-13838
▁omnip	-13839
▁preye	-13840
▁retir	-13841
▁scree	-13842
▁shrub	-13843
▁silks	-13844
▁witty	-13845
clouded	-13846
compass	-13847
ictions	-13848
uttered	-13849
▁Health	-13850
▁Moving	-13851
▁ablaze	-13852
▁contag	-13853
▁corrid	-13854
▁crouch	-13855
▁errors	-13856
▁giants	-13857
▁guided	-13858
▁highte	-13859
▁intend	-13860
▁nothin	-13861
▁paines	-13862
▁shares	-13863
▁submit	-13864
▁thorny	-13865
▁thwart	-13866
▁tranqu	-13867
▁triple	-13868
▁truthe	-13869
▁welcom	-13870
insingen	-13871
▁Confess	-13872
▁Minerva	-13873
▁Thyself	-13874
▁Triumph	-13875
▁bridges	-13876
▁capital	-13877
▁clatter	-13878
▁concent	-13879
▁doleful	-13880
▁honored	-13881
▁improve	-13882
▁naughty	-13883
▁nourish	-13884
▁respond	-13885
▁slander	-13886
▁stumble	-13887
▁thinkin	-13888
▁treated	-13889
▁wheeled	-13890
▁workman	-13891
▁Bedivere	-13892
▁accursed	-13893
▁amethyst	-13894
▁contrary	-13895
▁deserved	-13896
▁designed	-13897
▁despised	-13898
▁dissolve	-13899
▁drenched	-13900
▁idleness	-13901
▁launched	-13902
▁shooting	-13903
▁solemnly	-13904
▁sportive	-13905
▁tempered	-13906
▁trenches	-13907
▁worthier	-13908
▁cathedral	-13909
▁condemned	-13910
▁deepening	-13911
▁intervals	-13912
▁plenteous	-13913
▁stockings	-13914
▁Themselves	-13915
▁completely	-13916
▁confession	-13917
▁enchanting	-13918
▁misfortune	-13919
▁questioned	-13920
▁relentless	-13921
▁continually	-13922
▁foundations	-13923
▁surrounding	-13924
:"	-13925
ni	-13926
rh	-13927
sn	-13928
▁á	-13929
AIN	-13930
Did	-13931
LIN	-13932
dog	-13933
gus	-13934
olv	-13935
▁20	-13936
▁ny	-13937
amor	-13938
appy	-13939
eace	-13940
four	-13941
lark	-13942
lost	-13943
mast	-13944
▁Eat	-13945
▁Hig	-13946
▁Pot	-13947
▁Qui	-13948
▁Tus	-13949
▁hug	-13950
▁poo	-13951
While	-13952
akers	-13953
anges	-13954
eares	-13955
ethin	-13956
fered	-13957
mbled	-13958
never	-13959
▁Abra	-13960
▁Anne	-13961
▁Budd	-13962
▁Fine	-13963
▁Gawd	-13964
▁Kate	-13965
▁Main	-13966
▁Mead	-13967
▁PART	-13968
▁Prod	-13969
▁Rode	-13970
▁Sore	-13971
▁dips	-13972
▁ensh	-13973
▁film	-13974
▁fuel	-13975
▁gamb	-13976
▁gram	-13977
▁pads	-13978
▁scow	-13979
▁spec	-13980
▁stew	-13981
▁stun	-13982
istent	-13983
legged	-13984
ppling	-13985
rishna	-13986
uction	-13987
utions	-13988
▁Febru	-13989
▁Phara	-13990
▁Santa	-13991
▁Spart	-13992
▁Write	-13993
▁acres	-13994
▁alert	-13995
▁blink	-13996
▁blunt	-13997
▁camel	-13998
▁dropp	-13999
▁paces	-14000
▁pinch	-14001
▁plane	-14002
▁ruler	-14003
▁safer	-14004
▁stopt	-14005
▁wiped	-14006
▁worke	-14007
stances	-14008
▁Adonis	-14009
▁Breaks	-14010
▁Gawain	-14011
▁Gospel	-14012
▁Repent	-14013
▁Riding	-14014
▁Rivers	-14015
▁Saturn	-14016
▁Smiles	-14017
▁Sohrab	-14018
▁Speech	-14019
▁acknow	-14020
▁betide	-14021
▁blinds	-14022
▁brands	-14023
▁cheery	-14024
▁cherub	-14025
▁clasps	-14026
▁coasts	-14027
▁cracks	-14028
▁dipped	-14029
▁lashes	-14030
▁launch	-14031
▁milder	-14032
▁nether	-14033
▁ninety	-14034
▁noises	-14035
▁progen	-14036
▁relics	-14037
▁rumour	-14038
▁sinews	-14039
▁Saracen	-14040
▁adorned	-14041
▁checked	-14042
▁chilled	-14043
▁confine	-14044
▁drought	-14045
▁flights	-14046
▁horrour	-14047
▁humbled	-14048
▁incline	-14049
▁insects	-14050
▁legends	-14051
▁palfrey	-14052
▁pausing	-14053
▁respite	-14054
▁scanned	-14055
▁shelves	-14056
▁sunless	-14057
▁tourney	-14058
▁workmen	-14059
▁Brothers	-14060
▁Laughter	-14061
▁bayonets	-14062
▁clusters	-14063
▁confined	-14064
▁consumed	-14065
▁disorder	-14066
▁erewhile	-14067
▁favorite	-14068
▁fireside	-14069
▁humility	-14070
▁instance	-14071
▁lovingly	-14072
▁mansions	-14073
▁outright	-14074
▁perforce	-14075
▁possibly	-14076
▁probably	-14077
▁serpents	-14078
▁stedfast	-14079
▁throwing	-14080
▁trusting	-14081
▁villages	-14082
▁wreathed	-14083
▁Wandering	-14084
▁oppressed	-14085
▁uttermost	-14086
▁individual	-14087
▁minstrelsy	-14088
▁multitudes	-14089
▁scattering	-14090
▁Imagination	-14091
▁resurrection	-14092
!’	-14093
uf	-14094
ITH	-14095
ITY	-14096
Per	-14097
aza	-14098
dis	-14099
iem	-14100
loe	-14101
nty	-14102
spe	-14103
ulp	-14104
uph	-14105
!'--	-14106
Just	-14107
comb	-14108
cond	-14109
holy	-14110
ilar	-14111
rils	-14112
urbs	-14113
vice	-14114
▁Ash	-14115
▁Cot	-14116
▁Inn	-14117
▁Wil	-14118
▁gur	-14119
▁sic	-14120
▁sym	-14121
Since	-14122
locks	-14123
quire	-14124
their	-14125
▁Dane	-14126
▁Dare	-14127
▁Died	-14128
▁Dire	-14129
▁Disp	-14130
▁Eats	-14131
▁Flag	-14132
▁Gene	-14133
▁Stop	-14134
▁Tort	-14135
▁blem	-14136
▁chis	-14137
▁grot	-14138
▁gush	-14139
▁kepe	-14140
▁meas	-14141
▁opal	-14142
▁pelf	-14143
▁plus	-14144
▁sane	-14145
atives	-14146
ourage	-14147
▁Brand	-14148
▁Damas	-14149
▁Flies	-14150
▁Image	-14151
▁Madam	-14152
▁Maria	-14153
▁Rough	-14154
▁Steal	-14155
▁Tells	-14156
▁Woods	-14157
▁XXXII	-14158
▁deems	-14159
▁dooth	-14160
▁gazes	-14161
▁girth	-14162
▁glens	-14163
▁heron	-14164
▁latch	-14165
▁maple	-14166
▁patri	-14167
▁plies	-14168
▁psalm	-14169
▁redou	-14170
▁relax	-14171
▁ropes	-14172
▁siege	-14173
▁slepe	-14174
▁trowe	-14175
▁truce	-14176
▁twigs	-14177
▁wrang	-14178
▁Magdal	-14179
▁Morals	-14180
▁Queens	-14181
▁SECOND	-14182
▁Seraph	-14183
▁Willie	-14184
▁boasts	-14185
▁casque	-14186
▁crafty	-14187
▁delays	-14188
▁detect	-14189
▁doubly	-14190
▁eleven	-14191
▁entran	-14192
▁errand	-14193
▁habits	-14194
▁healed	-14195
▁holden	-14196
▁inclin	-14197
▁inviol	-14198
▁jumped	-14199
▁learns	-14200
▁merits	-14201
▁offers	-14202
▁poplar	-14203
▁poster	-14204
▁sadder	-14205
▁tapers	-14206
▁tapest	-14207
▁truest	-14208
▁turtle	-14209
▁uphold	-14210
▁wattle	-14211
▁yearly	-14212
▁Burning	-14213
▁Dancing	-14214
▁Godfrey	-14215
▁Holland	-14216
▁Krishna	-14217
▁Lucasta	-14218
▁Sisters	-14219
▁accurst	-14220
▁adverse	-14221
▁affords	-14222
▁bathing	-14223
▁classic	-14224
▁comment	-14225
▁languor	-14226
▁lowered	-14227
▁portals	-14228
▁Cristene	-14229
▁Cromwell	-14230
▁February	-14231
▁Twilight	-14232
▁accepted	-14233
▁dismayed	-14234
▁ecstatic	-14235
▁eyeballs	-14236
▁intended	-14237
▁prepares	-14238
▁raptures	-14239
▁serenely	-14240
▁straying	-14241
▁summoned	-14242
▁thrushes	-14243
▁Trembling	-14244
▁authority	-14245
▁commanded	-14246
▁incessant	-14247
▁merriment	-14248
▁powerless	-14249
▁sepulchre	-14250
▁shuddered	-14251
▁stainless	-14252
▁thronging	-14253
▁Prometheus	-14254
▁affliction	-14255
▁changeless	-14256
▁government	-14257
▁journeying	-14258
▁mournfully	-14259
▁travellers	-14260
▁travelling	-14261
▁Highlanders	-14262
▁distinguish	-14263
▁resplendent	-14264
▁forgetfulness	-14265
▁understanding	-14266
bee	-14267
iop	-14268
obs	-14269
ubl	-14270
▁''	-14271
▁VV	-14272
avan	-14273
icon	-14274
nons	-14275
orde	-14276
thew	-14277
▁Doe	-14278
▁Ram	-14279
▁Ung	-14280
▁hog	-14281
▁jes	-14282
▁mug	-14283
▁pew	-14284
encia	-14285
found	-14286
guard	-14287
loved	-14288
merce	-14289
ordes	-14290
osity	-14291
uriel	-14292
▁Chic	-14293
▁Kent	-14294
▁News	-14295
▁Ours	-14296
▁Toil	-14297
▁Vale	-14298
▁awry	-14299
▁chew	-14300
▁dice	-14301
▁guts	-14302
▁halo	-14303
▁hies	-14304
▁irre	-14305
▁joyn	-14306
▁mode	-14307
▁mole	-14308
▁perj	-14309
▁poke	-14310
▁pump	-14311
▁ranc	-14312
acinth	-14313
attled	-14314
ensity	-14315
erring	-14316
▁Admir	-14317
▁Belie	-14318
▁Bread	-14319
▁Calls	-14320
▁Drunk	-14321
▁Empty	-14322
▁Flame	-14323
▁Flung	-14324
▁Minst	-14325
▁Sands	-14326
▁Ships	-14327
▁Tempt	-14328
▁backe	-14329
▁bened	-14330
▁chrys	-14331
▁coals	-14332
▁dilig	-14333
▁disar	-14334
▁dishe	-14335
▁dunno	-14336
▁evils	-14337
▁felon	-14338
▁goats	-14339
▁hotel	-14340
▁idols	-14341
▁modes	-14342
▁posts	-14343
▁prate	-14344
▁proff	-14345
▁robed	-14346
▁saugh	-14347
▁seeke	-14348
▁sleet	-14349
▁smoot	-14350
▁turmo	-14351
▁wreak	-14352
istence	-14353
lighted	-14354
▁Author	-14355
▁Danger	-14356
▁Giving	-14357
▁Hoping	-14358
▁Sunset	-14359
▁abides	-14360
▁boards	-14361
▁decked	-14362
▁dimmed	-14363
▁disast	-14364
▁dollar	-14365
▁flutes	-14366
▁humour	-14367
▁judged	-14368
▁lawyer	-14369
▁muster	-14370
▁repine	-14371
▁Clothed	-14372
▁Command	-14373
▁Fathers	-14374
▁applied	-14375
▁butcher	-14376
▁clarion	-14377
▁consort	-14378
▁dreamer	-14379
▁exhaust	-14380
▁ignoble	-14381
▁mourner	-14382
▁relieve	-14383
▁undying	-14384
▁upbraid	-14385
▁upwards	-14386
▁vassals	-14387
▁acquaint	-14388
▁avenging	-14389
▁becoming	-14390
▁chearful	-14391
▁counsels	-14392
▁daybreak	-14393
▁discreet	-14394
▁illusion	-14395
▁knocking	-14396
▁observed	-14397
▁pavilion	-14398
▁prisoned	-14399
▁scatters	-14400
▁stumbled	-14401
▁thronged	-14402
▁Linsingen	-14403
▁abundance	-14404
▁beholding	-14405
▁blameless	-14406
▁comforted	-14407
▁declining	-14408
▁direction	-14409
▁doubtless	-14410
▁presented	-14411
▁trackless	-14412
▁Providence	-14413
▁Washington	-14414
▁meditation	-14415
▁protection	-14416
▁quickening	-14417
▁rebellious	-14418
▁temptation	-14419
"!	-14420
fu	-14421
ña	-14422
▁|	-14423
cap	-14424
eek	-14425
gge	-14426
sou	-14427
usk	-14428
▁Cæ	-14429
▁Ef	-14430
Time	-14431
abit	-14432
asty	-14433
bore	-14434
bout	-14435
cche	-14436
gery	-14437
nous	-14438
rend	-14439
scar	-14440
tail	-14441
utor	-14442
▁MAN	-14443
▁THY	-14444
▁Vul	-14445
▁dor	-14446
▁smo	-14447
▁soj	-14448
▁tab	-14449
Allas	-14450
arked	-14451
atoes	-14452
epend	-14453
heard	-14454
inter	-14455
orter	-14456
ulent	-14457
yards	-14458
▁Fish	-14459
▁Gala	-14460
▁Harp	-14461
▁Heat	-14462
▁Lean	-14463
▁Shan	-14464
▁Shot	-14465
▁Tear	-14466
▁Toss	-14467
▁alma	-14468
▁aure	-14469
▁bags	-14470
▁cors	-14471
▁dyes	-14472
▁foil	-14473
▁fram	-14474
▁gape	-14475
▁hips	-14476
▁loke	-14477
▁pell	-14478
▁pyre	-14479
▁seer	-14480
▁wick	-14481
closes	-14482
idents	-14483
ingled	-14484
isions	-14485
ivious	-14486
oughed	-14487
▁Eliza	-14488
▁Guine	-14489
▁Haply	-14490
▁Honey	-14491
▁Japan	-14492
▁Revol	-14493
▁Sheep	-14494
▁Sighs	-14495
▁XXXIV	-14496
▁appar	-14497
▁ashen	-14498
▁begot	-14499
▁camps	-14500
▁crude	-14501
▁curst	-14502
▁drags	-14503
▁entre	-14504
▁fluid	-14505
▁ledge	-14506
▁muddy	-14507
▁pined	-14508
▁poise	-14509
▁rails	-14510
▁refus	-14511
▁reste	-14512
▁saves	-14513
▁scrub	-14514
▁squat	-14515
▁whips	-14516
▁wines	-14517
rations	-14518
▁Attend	-14519
▁Flying	-14520
▁Mammon	-14521
▁Palmer	-14522
▁Sphinx	-14523
▁Yonder	-14524
▁abrupt	-14525
▁alleys	-14526
▁ambros	-14527
▁blamed	-14528
▁duties	-14529
▁fetter	-14530
▁fringe	-14531
▁halted	-14532
▁honors	-14533
▁imagin	-14534
▁infamy	-14535
▁lawful	-14536
▁musket	-14537
▁permit	-14538
▁pistol	-14539
▁restor	-14540
▁result	-14541
▁sighte	-14542
▁threes	-14543
▁tokens	-14544
▁trails	-14545
▁Despite	-14546
▁Further	-14547
▁Perfect	-14548
▁Pharaoh	-14549
▁arrives	-14550
▁artless	-14551
▁ascends	-14552
▁bracken	-14553
▁buckler	-14554
▁chicken	-14555
▁delayed	-14556
▁fretted	-14557
▁genuine	-14558
▁glamour	-14559
▁marches	-14560
▁marshes	-14561
▁padshah	-14562
▁parched	-14563
▁raining	-14564
▁rotting	-14565
▁seventh	-14566
▁steamer	-14567
▁telleth	-14568
▁vantage	-14569
▁Gardener	-14570
▁autumnal	-14571
▁awakened	-14572
▁clenched	-14573
▁covering	-14574
▁crouched	-14575
▁embraces	-14576
▁fourteen	-14577
▁jealousy	-14578
▁mariners	-14579
▁meanings	-14580
▁ordinary	-14581
▁penaunce	-14582
▁practise	-14583
▁quarters	-14584
▁ramparts	-14585
▁regiment	-14586
▁released	-14587
▁securely	-14588
▁slanting	-14589
▁smoothly	-14590
▁indulgent	-14591
▁interpret	-14592
▁methought	-14593
▁nightfall	-14594
▁preserved	-14595
▁soundless	-14596
▁Government	-14597
▁confounded	-14598
▁corruption	-14599
▁determined	-14600
▁distressed	-14601
._	-14602
AG	-14603
Ho	-14604
UD	-14605
hi	-14606
Too	-14607
VER	-14608
eer	-14609
ela	-14610
eze	-14611
ibi	-14612
iva	-14613
urt	-14614
yte	-14615
▁BO	-14616
!"--	-14617
alus	-14618
anke	-14619
ario	-14620
hips	-14621
mens	-14622
must	-14623
rize	-14624
sequ	-14625
yers	-14626
▁Fil	-14627
▁Ide	-14628
▁Pry	-14629
▁Rad	-14630
▁dub	-14631
▁orl	-14632
▁str	-14633
▁tug	-14634
▁wex	-14635
avish	-14636
bacco	-14637
idian	-14638
issus	-14639
odden	-14640
three	-14641
▁Cand	-14642
▁Fare	-14643
▁Lyre	-14644
▁Repe	-14645
▁Ruth	-14646
▁Sway	-14647
▁THEE	-14648
▁Wash	-14649
▁XXXV	-14650
▁bass	-14651
▁dand	-14652
▁doin	-14653
▁espy	-14654
▁fere	-14655
▁gory	-14656
▁lorn	-14657
▁nece	-14658
▁owes	-14659
▁rape	-14660
▁sall	-14661
▁secl	-14662
▁slee	-14663
▁unim	-14664
▁whet	-14665
entive	-14666
loving	-14667
uthors	-14668
▁Clean	-14669
▁Demon	-14670
▁Large	-14671
▁Needs	-14672
▁Pagan	-14673
▁Reson	-14674
▁Spare	-14675
▁Wheel	-14676
▁allas	-14677
▁beque	-14678
▁chaps	-14679
▁coraz	-14680
▁covet	-14681
▁crump	-14682
▁downs	-14683
▁exhal	-14684
▁horde	-14685
▁jokes	-14686
▁loses	-14687
▁noche	-14688
▁plied	-14689
▁rover	-14690
▁smoky	-14691
▁truck	-14692
▁unrel	-14693
▁waxen	-14694
▁whore	-14695
▁wreat	-14696
blossom	-14697
entimes	-14698
landers	-14699
▁Gazing	-14700
▁Harold	-14701
▁Leeona	-14702
▁Loving	-14703
▁Miriam	-14704
▁Orient	-14705
▁Vivien	-14706
▁associ	-14707
▁assume	-14708
▁awakes	-14709
▁bricks	-14710
▁cleans	-14711
▁compar	-14712
▁greens	-14713
▁grisly	-14714
▁lulled	-14715
▁pitied	-14716
▁povere	-14717
▁ranges	-14718
▁seemes	-14719
▁speedy	-14720
▁swerve	-14721
▁talkin	-14722
▁wingèd	-14723
Farewell	-14724
▁January	-14725
▁Perseus	-14726
▁Rosalie	-14727
▁Touched	-14728
▁appease	-14729
▁barrier	-14730
▁contact	-14731
▁designs	-14732
▁disgust	-14733
▁fainter	-14734
▁hardest	-14735
▁holiest	-14736
▁infants	-14737
▁pockets	-14738
▁raising	-14739
▁skilled	-14740
▁sleight	-14741
▁streaks	-14742
▁Memoriam	-14743
▁Nighting	-14744
▁Persians	-14745
▁Tomorrow	-14746
▁achieved	-14747
▁crowning	-14748
▁doubting	-14749
▁entering	-14750
▁flitting	-14751
▁proceeds	-14752
▁resigned	-14753
▁silences	-14754
▁sparkles	-14755
▁stepping	-14756
▁studious	-14757
▁terrific	-14758
▁Bradamant	-14759
▁Valentine	-14760
▁communion	-14761
▁darknesse	-14762
▁earnestly	-14763
▁foreheads	-14764
▁heartless	-14765
▁momentary	-14766
▁patiently	-14767
▁shapeless	-14768
▁slightest	-14769
▁sprightly	-14770
▁sumptuous	-14771
▁resistance	-14772
▁staggering	-14773
1)	-14774
LY	-14775
UB	-14776
OLD	-14777
OUR	-14778
awa	-14779
bal	-14780
bbe	-14781
iii	-14782
ito	-14783
rus	-14784
tra	-14785
King	-14786
Sing	-14787
avel	-14788
cons	-14789
days	-14790
ello	-14791
ephe	-14792
glow	-14793
hine	-14794
hour	-14795
iece	-14796
ilda	-14797
imer	-14798
keys	-14799
lord	-14800
olus	-14801
omes	-14802
orum	-14803
pool	-14804
spir	-14805
▁Bag	-14806
▁Bob	-14807
▁Der	-14808
▁Fig	-14809
▁Phy	-14810
▁Sep	-14811
▁Shr	-14812
▁Sup	-14813
▁bum	-14814
▁cum	-14815
▁eft	-14816
▁ese	-14817
▁goe	-14818
▁ich	-14819
▁ker	-14820
▁lim	-14821
▁pom	-14822
▁tog	-14823
▁wak	-14824
▁yit	-14825
aying	-14826
eteen	-14827
fling	-14828
month	-14829
swept	-14830
uddle	-14831
uffle	-14832
woman	-14833
▁----	-14834
▁Afar	-14835
▁Arri	-14836
▁Cats	-14837
▁Crit	-14838
▁Feet	-14839
▁Mild	-14840
▁Monk	-14841
▁Poll	-14842
▁Rece	-14843
▁Wars	-14844
▁Worn	-14845
▁adul	-14846
▁aunt	-14847
▁chas	-14848
▁clue	-14849
▁dall	-14850
▁elms	-14851
▁kine	-14852
▁lewd	-14853
▁mule	-14854
▁onto	-14855
▁sequ	-14856
▁vers	-14857
▁warp	-14858
Mother	-14859
ippers	-14860
outhed	-14861
▁Drops	-14862
▁Judah	-14863
▁Lying	-14864
▁Negro	-14865
▁Sever	-14866
▁Tread	-14867
▁apply	-14868
▁bacon	-14869
▁blanc	-14870
▁cakes	-14871
▁chirp	-14872
▁cowsl	-14873
▁elfin	-14874
▁heirs	-14875
▁lasts	-14876
▁looms	-14877
▁maken	-14878
▁marge	-14879
▁massy	-14880
▁reels	-14881
▁remot	-14882
▁scape	-14883
▁sheaf	-14884
▁spraw	-14885
▁strut	-14886
▁tease	-14887
▁tress	-14888
▁wroth	-14889
ardinal	-14890
looking	-14891
reshing	-14892
tongued	-14893
▁Albion	-14894
▁Mahmud	-14895
▁Rising	-14896
▁Sevent	-14897
▁Window	-14898
▁august	-14899
▁braver	-14900
▁candid	-14901
▁casual	-14902
▁chills	-14903
▁drench	-14904
▁dwelle	-14905
▁furled	-14906
▁incarn	-14907
▁insane	-14908
▁kicked	-14909
▁lichen	-14910
▁litter	-14911
▁loiter	-14912
▁maimed	-14913
▁meagre	-14914
▁meaner	-14915
▁soiled	-14916
▁squeak	-14917
▁sultan	-14918
▁timely	-14919
▁womman	-14920
▁wrists	-14921
........	-14922
▁Bending	-14923
▁Brigade	-14924
▁Galahad	-14925
▁Lifting	-14926
▁Mankind	-14927
▁artific	-14928
▁boasted	-14929
▁chalice	-14930
▁cleanse	-14931
▁critics	-14932
▁directs	-14933
▁eagerly	-14934
▁feigned	-14935
▁hymself	-14936
▁partake	-14937
▁sainted	-14938
▁shrouds	-14939
▁sixteen	-14940
▁theatre	-14941
▁wayside	-14942
breathing	-14943
▁Bringing	-14944
▁Glorious	-14945
▁approved	-14946
▁channels	-14947
▁chariots	-14948
▁confines	-14949
▁crashing	-14950
▁dejected	-14951
▁plighted	-14952
▁seething	-14953
▁slippery	-14954
▁warbling	-14955
▁Innocence	-14956
▁Yesterday	-14957
▁assurance	-14958
▁crackling	-14959
▁crucified	-14960
▁distresse	-14961
▁glorified	-14962
▁harmonies	-14963
▁turbulent	-14964
▁Henceforth	-14965
▁astonished	-14966
▁knighthood	-14967
▁oftentimes	-14968
▁prodigious	-14969
▁wanderings	-14970
▁wickedness	-14971
▁indignation	-14972
▁outstretched	-14973
gr	-14974
ui	-14975
uv	-14976
Man	-14977
erp	-14978
far	-14979
gay	-14980
loo	-14981
omo	-14982
▁Na	-14983
▁oy	-14984
▁va	-14985
Long	-14986
alia	-14987
crow	-14988
shed	-14989
ucer	-14990
uent	-14991
▁--"	-14992
▁Coo	-14993
▁Omn	-14994
▁Uri	-14995
▁hag	-14996
▁nae	-14997
▁nap	-14998
▁tir	-14999
▁vic	-15000
ATION	-15001
asper	-15002
aters	-15003
ctora	-15004
raise	-15005
rieve	-15006
scent	-15007
ucent	-15008
unged	-15009
urate	-15010
uting	-15011
vests	-15012
would	-15013
▁Abel	-15014
▁Clan	-15015
▁Cott	-15016
▁Defe	-15017
▁Duty	-15018
▁Jesu	-15019
▁Subl	-15020
▁Torn	-15021
▁Vine	-15022
▁diet	-15023
▁flie	-15024
▁fume	-15025
▁gasp	-15026
▁murd	-15027
▁pins	-15028
▁saff	-15029
▁saun	-15030
▁shee	-15031
▁tipt	-15032
▁unaf	-15033
▁ungu	-15034
Twould	-15035
angles	-15036
broken	-15037
hattan	-15038
iquity	-15039
making	-15040
prints	-15041
washed	-15042
▁Chloe	-15043
▁Cries	-15044
▁Cynth	-15045
▁Drift	-15046
▁Flash	-15047
▁Giant	-15048
▁Sings	-15049
▁aisle	-15050
▁armor	-15051
▁crost	-15052
▁elate	-15053
▁envel	-15054
▁flake	-15055
▁flats	-15056
▁flatt	-15057
▁frere	-15058
▁gulfs	-15059
▁gusts	-15060
▁leant	-15061
▁raged	-15062
▁refin	-15063
▁slimy	-15064
▁stren	-15065
▁thyme	-15066
▁unsus	-15067
▁woody	-15068
istered	-15069
▁Cities	-15070
▁Madame	-15071
▁Showed	-15072
▁Sought	-15073
▁Syrian	-15074
▁Vainly	-15075
▁advise	-15076
▁afresh	-15077
▁ascent	-15078
▁barrel	-15079
▁befell	-15080
▁defied	-15081
▁deluge	-15082
▁dishes	-15083
▁graver	-15084
▁holier	-15085
▁lookin	-15086
▁matere	-15087
▁moaned	-15088
▁pauses	-15089
▁pining	-15090
▁reserv	-15091
▁resume	-15092
▁seamen	-15093
▁sickle	-15094
▁sleepe	-15095
▁spleen	-15096
▁strays	-15097
▁warmer	-15098
olerable	-15099
standing	-15100
▁Charity	-15101
▁Dectora	-15102
▁Filling	-15103
▁Lucifer	-15104
▁Reading	-15105
▁Receive	-15106
▁Stretch	-15107
▁Swiftly	-15108
▁Theseus	-15109
▁askance	-15110
▁brushed	-15111
▁cooling	-15112
▁correct	-15113
▁doubted	-15114
▁elegant	-15115
▁epitaph	-15116
▁gushing	-15117
▁hastily	-15118
▁prophes	-15119
▁Approach	-15120
▁Beauties	-15121
▁Lucretia	-15122
▁Soldiers	-15123
▁attended	-15124
▁catching	-15125
▁chanting	-15126
▁deprived	-15127
▁describe	-15128
▁endlesse	-15129
▁eventide	-15130
▁experien	-15131
▁feverish	-15132
▁gladsome	-15133
▁memorial	-15134
▁mistrust	-15135
▁provided	-15136
▁ripening	-15137
▁unheeded	-15138
▁wheresoe	-15139
▁Butterfly	-15140
▁Celestial	-15141
▁Following	-15142
▁addressed	-15143
▁ancestral	-15144
▁bloodless	-15145
▁delivered	-15146
▁succeeded	-15147
▁unbounded	-15148
▁impression	-15149
▁reconciled	-15150
▁Contentment	-15151
▁intelligent	-15152
▁thunderbolt	-15153
▁wretchedness	-15154
Sh	-15155
—'	-15156
ALL	-15157
fin	-15158
gil	-15159
iou	-15160
iry	-15161
mod	-15162
una	-15163
yve	-15164
▁AG	-15165
▁FR	-15166
▁Gn	-15167
▁SC	-15168
."--	-15169
..."	-15170
atra	-15171
chal	-15172
dark	-15173
fere	-15174
fled	-15175
give	-15176
grow	-15177
hane	-15178
heth	-15179
hued	-15180
icip	-15181
icts	-15182
iefe	-15183
igan	-15184
lies	-15185
ndry	-15186
rost	-15187
ulus	-15188
uten	-15189
▁Ain	-15190
▁Eld	-15191
▁Gor	-15192
▁HIS	-15193
▁Han	-15194
▁Oak	-15195
▁Poo	-15196
▁Rab	-15197
▁Tum	-15198
▁Wan	-15199
▁dad	-15200
▁jun	-15201
▁mow	-15202
▁sik	-15203
▁wys	-15204
Those	-15205
athan	-15206
flame	-15207
ients	-15208
itory	-15209
outed	-15210
outen	-15211
perse	-15212
ppers	-15213
rades	-15214
rored	-15215
verte	-15216
▁Aber	-15217
▁Amor	-15218
▁Babe	-15219
▁Bids	-15220
▁Cape	-15221
▁Cart	-15222
▁Dora	-15223
▁Fulf	-15224
▁Sunk	-15225
▁Worm	-15226
▁bean	-15227
▁caps	-15228
▁diso	-15229
▁doff	-15230
▁frat	-15231
▁grub	-15232
▁lodg	-15233
▁mant	-15234
▁shod	-15235
▁tray	-15236
▁unbe	-15237
▁webs	-15238
icians	-15239
lished	-15240
ringed	-15241
▁Adown	-15242
▁Apart	-15243
▁Arist	-15244
▁Cover	-15245
▁Fires	-15246
▁Guest	-15247
▁Jacob	-15248
▁Point	-15249
▁Polly	-15250
▁Stole	-15251
▁Trail	-15252
▁Tweed	-15253
▁XXXVI	-15254
▁alder	-15255
▁bedew	-15256
▁briar	-15257
▁chace	-15258
▁chuse	-15259
▁cigar	-15260
▁delir	-15261
▁ditty	-15262
▁ducks	-15263
▁eccho	-15264
▁harms	-15265
▁joins	-15266
▁liege	-15267
▁tonge	-15268
▁tract	-15269
▁trill	-15270
▁tuned	-15271
▁unnot	-15272
▁wayes	-15273
▁winde	-15274
bearing	-15275
ichorus	-15276
othered	-15277
roubled	-15278
stained	-15279
▁Alcina	-15280
▁Beggar	-15281
▁Cuckoo	-15282
▁Desert	-15283
▁Nymphs	-15284
▁Terror	-15285
▁Vanity	-15286
▁amount	-15287
▁appall	-15288
▁bamboo	-15289
▁blocks	-15290
▁boyish	-15291
▁cellar	-15292
▁certes	-15293
▁closet	-15294
▁deride	-15295
▁fasten	-15296
▁garret	-15297
▁goddes	-15298
▁heeded	-15299
▁hordes	-15300
▁jocund	-15301
▁motley	-15302
▁porter	-15303
▁ravine	-15304
▁reader	-15305
▁rebels	-15306
▁rebuke	-15307
▁reform	-15308
▁scores	-15309
▁signed	-15310
▁sinned	-15311
▁wailed	-15312
▁waitin	-15313
▁weighs	-15314
▁writer	-15315
stantial	-15316
▁Gardens	-15317
▁Indians	-15318
▁Jealous	-15319
▁Lightly	-15320
▁Matthew	-15321
▁Phantom	-15322
▁Sonnets	-15323
▁Sweeter	-15324
▁Wallace	-15325
▁Wouldst	-15326
▁XXXVIII	-15327
▁aimless	-15328
▁archite	-15329
▁artists	-15330
▁bastard	-15331
▁farmers	-15332
▁favours	-15333
▁festive	-15334
▁happily	-15335
▁managed	-15336
▁peering	-15337
▁puzzled	-15338
▁quicker	-15339
▁reigned	-15340
▁tragedy	-15341
▁unbound	-15342
▁uniform	-15343
▁Millions	-15344
▁Othuriel	-15345
▁Sleeping	-15346
▁abundant	-15347
▁breeding	-15348
▁captains	-15349
[...]
