<unk>	0
<s>	0
</s>	0
▁t	-0
he	-1
▁a	-2
▁s	-3
in	-4
▁the	-5
▁w	-6
nd	-7
re	-8
▁o	-9
▁b	-10
ou	-11
▁f	-12
▁m	-13
er	-14
ha	-15
es	-16
is	-17
it	-18
▁l	-19
▁c	-20
▁d	-21
ll	-22
or	-23
ing	-24
▁T	-25
ar	-26
▁A	-27
en	-28
on	-29
ed	-30
▁and	-31
▁of	-32
▁p	-33
▁I	-34
▁h	-35
▁to	-36
ow	-37
▁n	-38
an	-39
▁he	-40
▁g	-41
as	-42
at	-43
gh	-44
om	-45
▁in	-46
▁th	-47
le	-48
hat	-49
▁And	-50
ve	-51
▁W	-52
▁The	-53
ld	-54
ot	-55
et	-56
ay	-57
▁e	-58
▁S	-59
ut	-60
st	-61
▁y	-62
ght	-63
ir	-64
ce	-65
ith	-66
▁st	-67
▁ha	-68
se	-69
ri	-70
▁be	-71
ad	-72
▁B	-73
ch	-74
▁L	-75
id	-76
▁on	-77
ra	-78
▁H	-79
▁O	-80
ro	-81
▁with	-82
ur	-83
▁that	-84
▁li	-85
▁u	-86
ly	-87
▁you	-88
im	-89
ke	-90
ill	-91
ver	-92
al	-93
am	-94
▁we	-95
▁his	-96
▁F	-97
▁for	-98
▁re	-99
▁it	-100
--	-101
oo	-102
▁my	-103
▁is	-104
▁wh	-105
▁se	-106
▁de	-107
ent	-108
▁me	-109
il	-110
▁M	-111
ck	-112
ight	-113
ain	-114
▁as	-115
th	-116
▁her	-117
rom	-118
▁C	-119
ore	-120
▁all	-121
her	-122
▁not	-123
un	-124
▁k	-125
ess	-126
▁was	-127
▁N	-128
rou	-129
▁so	-130
ong	-131
▁sp	-132
▁lo	-133
ast	-134
and	-135
est	-136
▁v	-137
▁sh	-138
ge	-139
us	-140
ion	-141
ear	-142
ome	-143
hen	-144
ind	-145
▁an	-146
▁D	-147
▁G	-148
▁from	-149
ould	-150
▁P	-151
▁bl	-152
all	-153
art	-154
▁"	-155
if	-156
ea	-157
ter	-158
▁at	-159
um	-160
▁sha	-161
ul	-162
▁by	-163
▁'	-164
▁But	-165
el	-166
▁Th	-167
our	-168
▁To	-169
ep	-170
ic	-171
ood	-172
▁fl	-173
▁Wh	-174
one	-175
red	-176
▁thou	-177
own	-178
▁r	-179
od	-180
▁their	-181
▁LI	-182
KE	-183
▁LIKE	-184
▁she	-185
▁wor	-186
▁sa	-187
ers	-188
▁they	-189
▁ne	-190
▁no	-191
▁E	-192
qu	-193
▁or	-194
ine	-195
ie	-196
ure	-197
here	-198
▁are	-199
ust	-200
ell	-201
nt	-202
▁kn	-203
▁fa	-204
em	-205
ard	-206
old	-207
ath	-208
▁man	-209
▁him	-210
▁up	-211
▁For	-212
ant	-213
▁In	-214
▁That	-215
▁R	-216
ame	-217
▁do	-218
ous	-219
pp	-220
▁Y	-221
▁this	-222
▁sw	-223
ose	-224
fe	-225
▁have	-226
▁ro	-227
ct	-228
▁your	-229
▁He	-230
▁su	-231
ven	-232
res	-233
▁but	-234
▁Of	-235
▁pl	-236
han	-237
▁cl	-238
ich	-239
ist	-240
ry	-241
▁al	-242
▁j	-243
ate	-244
▁one	-245
▁thy	-246
ak	-247
▁With	-248
ves	-249
▁like	-250
ings	-251
▁there	-252
ound	-253
ol	-254
orn	-255
ake	-256
▁when	-257
▁day	-258
▁un	-259
▁love	-260
ide	-261
ue	-262
op	-263
▁will	-264
▁gl	-265
ile	-266
ass	-267
▁who	-268
▁them	-269
row	-270
ig	-271
au	-272
▁gre	-273
ies	-274
▁had	-275
os	-276
▁heart	-277
▁ey	-278
▁were	-279
▁our	-280
are	-281
▁can	-282
de	-283
ft	-284
▁con	-285
▁mo	-286
ild	-287
ble	-288
ook	-289
▁com	-290
▁ar	-291
eet	-292
▁out	-293
▁ri	-294
▁ch	-295
▁ever	-296
urn	-297
▁ra	-298
ark	-299
▁bre	-300
tle	-301
▁what	-302
▁more	-303
ack	-304
ire	-305
wn	-306
▁see	-307
▁--	-308
nder	-309
▁As	-310
hed	-311
▁now	-312
ite	-313
ive	-314
ise	-315
lf	-316
▁ag	-317
▁sc	-318
rough	-319
▁.	-320
ink	-321
out	-322
▁am	-323
▁its	-324
▁qu	-325
▁When	-326
pt	-327
ort	-328
▁On	-329
▁shall	-330
oy	-331
ish	-332
▁know	-333
way	-334
▁le	-335
less	-336
▁us	-337
▁hand	-338
ree	-339
ach	-340
▁ab	-341
ran	-342
▁ear	-343
ice	-344
▁which	-345
ade	-346
ime	-347
ful	-348
▁go	-349
end	-350
▁light	-351
▁where	-352
▁would	-353
ove	-354
▁sm	-355
▁night	-356
▁So	-357
round	-358
ream	-359
ord	-360
ps	-361
ag	-362
igh	-363
▁if	-364
▁then	-365
▁thee	-366
▁St	-367
▁sou	-368
▁long	-369
▁life	-370
oth	-371
▁God	-372
▁may	-373
▁sl	-374
ng	-375
ull	-376
led	-377
▁eyes	-378
▁U	-379
▁down	-380
▁sun	-381
▁fo	-382
▁It	-383
▁J	-384
▁did	-385
▁(	-386
▁fe	-387
other	-388
▁some	-389
ittle	-390
▁still	-391
ved	-392
ears	-393
ac	-394
ick	-395
▁old	-396
ness	-397
ru	-398
▁Then	-399
▁through	-400
▁We	-401
ave	-402
▁cha	-403
ring	-404
ity	-405
▁too	-406
▁men	-407
ence	-408
▁po	-409
ther	-410
ount	-411
▁again	-412
ace	-413
ds	-414
▁upon	-415
▁Or	-416
fore	-417
▁world	-418
▁little	-419
▁My	-420
to	-421
ray	-422
▁gra	-423
pe	-424
▁never	-425
▁en	-426
▁ex	-427
▁sk	-428
▁Be	-429
▁than	-430
▁She	-431
ving	-432
▁Where	-433
▁wind	-434
▁tr	-435
ling	-436
▁pro	-437
▁la	-438
ne	-439
les	-440
▁tw	-441
ation	-442
▁look	-443
▁His	-444
ars	-445
▁They	-446
ious	-447
▁said	-448
age	-449
▁des	-450
▁K	-451
▁say	-452
▁Who	-453
▁lea	-454
ough	-455
ff	-456
ms	-457
▁wat	-458
▁What	-459
ond	-460
▁yet	-461
▁might	-462
te	-463
▁soul	-464
▁way	-465
▁come	-466
▁has	-467
▁sweet	-468
▁could	-469
▁pass	-470
ows	-471
▁V	-472
ather	-473
▁bri	-474
▁An	-475
mb	-476
▁dis	-477
ance	-478
rown	-479
▁You	-480
hes	-481
self	-482
▁how	-483
▁away	-484
."	-485
▁From	-486
ower	-487
ks	-488
▁There	-489
▁thought	-490
ike	-491
▁great	-492
▁should	-493
▁every	-494
eth	-495
▁time	-496
▁good	-497
me	-498
irst	-499
▁hea	-500
▁tre	-501
ud	-502
ts	-503
▁must	-504
▁dark	-505
▁No	-506
▁own	-507
▁im	-508
iss	-509
▁over	-510
ress	-511
▁here	-512
▁har	-513
▁other	-514
▁wa	-515
▁sil	-516
ale	-517
ang	-518
▁earth	-519
per	-520
ost	-521
▁made	-522
ory	-523
ber	-524
ier	-525
ew	-526
..	-527
▁such	-528
▁2	-529
▁-	-530
▁face	-531
▁All	-532
▁sle	-533
▁war	-534
ward	-535
▁sea	-536
▁dream	-537
ign	-538
we	-539
▁let	-540
ied	-541
ret	-542
▁head	-543
▁into	-544
ip	-545
rong	-546
▁those	-547
iv	-548
ab	-549
▁each	-550
▁Nor	-551
uch	-552
▁If	-553
▁far	-554
▁per	-555
▁dead	-556
▁last	-557
▁these	-558
ted	-559
▁By	-560
▁af	-561
▁ke	-562
ss	-563
▁well	-564
ons	-565
▁tra	-566
▁many	-567
▁death	-568
▁fri	-569
▁nor	-570
▁end	-571
ze	-572
▁child	-573
▁fair	-574
▁seem	-575
▁Is	-576
▁back	-577
▁turn	-578
▁hat	-579
▁make	-580
mer	-581
ren	-582
▁0	-583
ene	-584
▁De	-585
▁wo	-586
pl	-587
▁3	-588
ield	-589
▁Her	-590
▁rest	-591
▁pri	-592
ment	-593
aut	-594
▁gold	-595
▁call	-596
ase	-597
▁Which	-598
▁first	-599
read	-600
▁came	-601
▁Ch	-602
▁before	-603
ap	-604
ands	-605
▁How	-606
▁only	-607
▁ye	-608
▁Yet	-609
den	-610
▁fall	-611
oice	-612
▁things	-613
ause	-614
▁che	-615
▁At	-616
▁once	-617
ls	-618
ock	-619
ins	-620
ung	-621
ian	-622
▁ver	-623
▁joy	-624
aid	-625
▁think	-626
▁sn	-627
▁bro	-628
ature	-629
▁beaut	-630
▁This	-631
ary	-632
▁1	-633
alk	-634
aught	-635
▁ad	-636
▁ple	-637
▁friend	-638
ince	-639
▁bra	-640
ting	-641
▁been	-642
▁air	-643
ty	-644
be	-645
▁pe	-646
anc	-647
▁hear	-648
ens	-649
▁sing	-650
▁gr	-651
▁rem	-652
▁gu	-653
▁bir	-654
ors	-655
▁round	-656
ions	-657
ern	-658
▁bet	-659
II	-660
ple	-661
▁saw	-662
▁hop	-663
ried	-664
ee	-665
▁Now	-666
▁white	-667
▁mind	-668
oud	-669
▁high	-670
▁deep	-671
its	-672
▁ac	-673
▁sleep	-674
▁Al	-675
▁Sp	-676
▁app	-677
cl	-678
▁tell	-679
▁co	-680
▁pain	-681
▁bu	-682
air	-683
▁cle	-684
▁while	-685
▁pre	-686
▁blood	-687
▁song	-688
▁ho	-689
▁any	-690
▁off	-691
▁new	-692
▁br	-693
▁even	-694
▁da	-695
ched	-696
▁ste	-697
gg	-698
▁part	-699
▁flow	-700
ouse	-701
▁Like	-702
▁find	-703
▁heaven	-704
▁hour	-705
▁bright	-706
▁wom	-707
hing	-708
rie	-709
▁under	-710
▁Let	-711
▁fire	-712
▁“	-713
▁del	-714
▁Oh	-715
▁sky	-716
▁chan	-717
▁While	-718
able	-719
▁fear	-720
▁wild	-721
▁eye	-722
▁morn	-723
▁heard	-724
ix	-725
ning	-726
▁bel	-727
▁cre	-728
ross	-729
oss	-730
▁name	-731
bl	-732
!"	-733
akes	-734
▁Love	-735
▁bo	-736
▁cont	-737
▁though	-738
ife	-739
▁years	-740
▁place	-741
▁stre	-742
ail	-743
ets	-744
▁fore	-745
▁shad	-746
▁hands	-747
----	-748
▁sound	-749
,"	-750
▁land	-751
▁two	-752
▁home	-753
▁alone	-754
▁stri	-755
▁kind	-756
▁right	-757
▁most	-758
ken	-759
▁about	-760
▁Thou	-761
ool	-762
ody	-763
▁take	-764
▁wr	-765
▁after	-766
▁X	-767
▁found	-768
,--	-769
▁beg	-770
ci	-771
eds	-772
▁much	-773
▁whose	-774
▁lay	-775
▁mine	-776
ady	-777
llow	-778
▁red	-779
mp	-780
orrow	-781
▁Not	-782
▁hill	-783
land	-784
ither	-785
▁days	-786
ountain	-787
ten	-788
oom	-789
▁happ	-790
▁left	-791
▁play	-792
▁feel	-793
get	-794
▁feet	-795
the	-796
▁dra	-797
▁wood	-798
▁hum	-799
▁moon	-800
▁young	-801
▁mar	-802
▁art	-803
▁fell	-804
asure	-805
▁dear	-806
▁One	-807
▁care	-808
▁pur	-809
nto	-810
orm	-811
▁cur	-812
▁thus	-813
▁best	-814
▁ca	-815
▁Till	-816
▁full	-817
▁Sha	-818
ering	-819
▁went	-820
▁stra	-821
▁just	-822
▁green	-823
▁cold	-824
▁thing	-825
pen	-826
▁tri	-827
ert	-828
▁Thy	-829
man	-830
not	-831
▁give	-832
▁without	-833
▁mother	-834
▁soft	-835
▁voice	-836
▁ru	-837
ush	-838
▁el	-839
▁keep	-840
aw	-841
▁die	-842
▁beh	-843
▁Ar	-844
sh	-845
▁set	-846
▁knew	-847
▁Sh	-848
▁spir	-849
▁pray	-850
▁free	-851
▁breath	-852
▁breast	-853
uth	-854
▁ret	-855
▁sight	-856
ia	-857
ces	-858
ict	-859
ye	-860
▁pea	-861
▁grow	-862
▁live	-863
ash	-864
▁stand	-865
▁hold	-866
▁cry	-867
imes	-868
▁cour	-869
oke	-870
sel	-871
als	-872
▁till	-873
ily	-874
▁sum	-875
.'	-876
▁Lord	-877
▁done	-878
▁black	-879
▁star	-880
ines	-881
▁work	-882
aint	-883
▁forth	-884
bs	-885
▁hath	-886
▁stran	-887
▁vain	-888
▁`	-889
▁very	-890
▁gi	-891
▁dr	-892
▁res	-893
▁ser	-894
▁strong	-895
▁sec	-896
▁Their	-897
▁water	-898
▁car	-899
▁hope	-900
cause	-901
▁words	-902
bb	-903
▁true	-904
▁seen	-905
rew	-906
ches	-907
alm	-908
▁Was	-909
ont	-910
▁sad	-911
az	-912
▁gone	-913
▁near	-914
▁mus	-915
▁rose	-916
rought	-917
▁run	-918
▁dist	-919
▁doth	-920
▁word	-921
umb	-922
▁whom	-923
vers	-924
▁low	-925
▁past	-926
▁tears	-927
▁Hea	-928
▁above	-929
▁pr	-930
▁half	-931
ever	-932
▁King	-933
▁Q	-934
▁aw	-935
ated	-936
eak	-937
▁burn	-938
ans	-939
▁Some	-940
▁char	-941
▁win	-942
eneath	-943
▁dro	-944
ered	-945
▁rep	-946
▁boy	-947
▁hair	-948
ying	-949
ect	-950
▁fra	-951
▁som	-952
▁house	-953
ult	-954
▁side	-955
▁lost	-956
ump	-957
▁comm	-958
▁grie	-959
▁4	-960
day	-961
▁blue	-962
▁Bl	-963
▁want	-964
▁Up	-965
ats	-966
rist	-967
und	-968
▁Un	-969
▁hast	-970
▁stood	-971
▁Re	-972
▁hor	-973
atter	-974
▁hard	-975
▁imp	-976
▁same	-977
ought	-978
iz	-979
ift	-980
ned	-981
ek	-982
▁within	-983
▁ve	-984
ute	-985
▁kiss	-986
ger	-987
▁Though	-988
▁mountain	-989
▁field	-990
▁sur	-991
ank	-992
▁mer	-993
▁cannot	-994
▁te	-995
ones	-996
▁dri	-997
cks	-998
▁power	-999
elt	-1000
▁show	-1001
▁wall	-1002
up	-1003
▁dou	-1004
▁arms	-1005
▁thro	-1006
ged	-1007
▁bed	-1008
▁rain	-1009
▁lau	-1010
▁mon	-1011
ished	-1012
fect	-1013
▁poor	-1014
▁count	-1015
▁ev	-1016
▁cra	-1017
▁thine	-1018
ates	-1019
ilt	-1020
▁pra	-1021
▁peace	-1022
▁spirit	-1023
▁youth	-1024
▁arm	-1025
iled	-1026
▁year	-1027
▁stream	-1028
▁fill	-1029
▁morning	-1030
ople	-1031
▁maid	-1032
▁gent	-1033
une	-1034
roud	-1035
▁lips	-1036
▁nothing	-1037
▁ent	-1038
▁comp	-1039
ined	-1040
▁father	-1041
▁Se	-1042
▁comes	-1043
ching	-1044
▁soon	-1045
ense	-1046
▁Sw	-1047
▁stars	-1048
▁beauty	-1049
▁cri	-1050
▁king	-1051
▁hel	-1052
pped	-1053
▁wait	-1054
ial	-1055
sp	-1056
▁bit	-1057
▁Whose	-1058
▁cou	-1059
▁fly	-1060
▁meet	-1061
▁around	-1062
▁break	-1063
▁golden	-1064
▁Cl	-1065
▁tou	-1066
so	-1067
▁god	-1068
▁grace	-1069
▁clear	-1070
uck	-1071
▁May	-1072
▁Through	-1073
▁ask	-1074
▁tem	-1075
▁walk	-1076
▁leaves	-1077
▁Our	-1078
▁Man	-1079
ortal	-1080
▁body	-1081
fl	-1082
▁lie	-1083
The	-1084
▁slow	-1085
▁bar	-1086
bt	-1087
▁among	-1088
hy	-1089
ey	-1090
int	-1091
▁snow	-1092
▁open	-1093
ads	-1094
amp	-1095
ways	-1096
▁wit	-1097
▁woman	-1098
▁need	-1099
cha	-1100
▁along	-1101
▁people	-1102
▁bow	-1103
ires	-1104
reat	-1105
well	-1106
▁gave	-1107
▁shore	-1108
outh	-1109
▁door	-1110
▁Are	-1111
▁Your	-1112
▁faith	-1113
▁wonder	-1114
▁flowers	-1115
▁Do	-1116
▁glad	-1117
▁hon	-1118
▁sure	-1119
▁Fl	-1120
▁gir	-1121
▁div	-1122
▁Than	-1123
▁pres	-1124
▁et	-1125
▁Heaven	-1126
ery	-1127
▁sorrow	-1128
of	-1129
ils	-1130
ced	-1131
▁children	-1132
▁plain	-1133
▁spring	-1134
vy	-1135
▁hearts	-1136
▁none	-1137
iles	-1138
▁Here	-1139
ters	-1140
▁less	-1141
ened	-1142
▁ground	-1143
ason	-1144
▁thous	-1145
ween	-1146
▁bat	-1147
▁Will	-1148
▁Ah	-1149
▁born	-1150
▁ill	-1151
▁grave	-1152
▁music	-1153
ents	-1154
▁took	-1155
iness	-1156
▁cr	-1157
▁another	-1158
▁against	-1159
▁fight	-1160
was	-1161
▁sit	-1162
ok	-1163
▁fle	-1164
ides	-1165
▁why	-1166
▁speak	-1167
▁bur	-1168
▁put	-1169
iver	-1170
▁both	-1171
sw	-1172
▁Why	-1173
▁loved	-1174
▁worth	-1175
xt	-1176
dden	-1177
▁rec	-1178
▁strange	-1179
▁dim	-1180
▁bless	-1181
▁leave	-1182
ally	-1183
▁Am	-1184
▁beneath	-1185
▁told	-1186
▁summer	-1187
▁tree	-1188
▁wand	-1189
▁bring	-1190
▁Sc	-1191
▁Christ	-1192
▁wide	-1193
▁glory	-1194
▁em	-1195
gs	-1196
▁silent	-1197
ane	-1198
ames	-1199
▁small	-1200
▁bound	-1201
iew	-1202
▁son	-1203
ating	-1204
rest	-1205
▁sigh	-1206
▁does	-1207
iful	-1208
ours	-1209
▁fro	-1210
▁sin	-1211
lls	-1212
▁trees	-1213
▁lear	-1214
no	-1215
▁bes	-1216
▁ter	-1217
▁mid	-1218
▁Had	-1219
aking	-1220
▁since	-1221
?"	-1222
▁bear	-1223
▁conf	-1224
▁Death	-1225
▁whe	-1226
▁truth	-1227
▁vis	-1228
iet	-1229
ots	-1230
▁cons	-1231
use	-1232
▁grass	-1233
▁gro	-1234
▁follow	-1235
▁happy	-1236
▁list	-1237
che	-1238
atch	-1239
▁weep	-1240
▁cast	-1241
▁stay	-1242
aster	-1243
▁form	-1244
▁being	-1245
▁flo	-1246
▁return	-1247
der	-1248
els	-1249
▁crown	-1250
▁flower	-1251
▁foot	-1252
yn	-1253
,—	-1254
▁Shall	-1255
▁behind	-1256
ught	-1257
iling	-1258
...	-1259
ere	-1260
light	-1261
▁Po	-1262
aughter	-1263
▁mur	-1264
▁dust	-1265
▁pale	-1266
▁gle	-1267
▁att	-1268
ining	-1269
▁shadow	-1270
▁got	-1271
ym	-1272
yond	-1273
tered	-1274
▁lies	-1275
ised	-1276
▁smile	-1277
▁dreams	-1278
And	-1279
Tis	-1280
▁get	-1281
cc	-1282
▁delight	-1283
▁close	-1284
ues	-1285
▁proud	-1286
ief	-1287
▁silver	-1288
rous	-1289
▁pride	-1290
alth	-1291
▁dep	-1292
▁three	-1293
lly	-1294
▁met	-1295
iff	-1296
ations	-1297
▁blind	-1298
night	-1299
▁col	-1300
▁flame	-1301
▁don	-1302
▁These	-1303
ouds	-1304
▁laugh	-1305
▁Upon	-1306
for	-1307
▁hur	-1308
▁ble	-1309
▁acc	-1310
▁sudden	-1311
▁Ab	-1312
▁desp	-1313
▁brow	-1314
like	-1315
unt	-1316
▁wound	-1317
▁living	-1318
▁grief	-1319
irt	-1320
▁human	-1321
,'	-1322
▁better	-1323
ember	-1324
▁que	-1325
▁sat	-1326
▁rise	-1327
▁thousand	-1328
▁cloud	-1329
▁stone	-1330
cious	-1331
cy	-1332
▁mist	-1333
aze	-1334
▁fier	-1335
▁lone	-1336
▁warm	-1337
av	-1338
ured	-1339
▁always	-1340
ses	-1341
▁path	-1342
▁himself	-1343
cho	-1344
uri	-1345
▁dawn	-1346
▁seek	-1347
▁tong	-1348
▁ere	-1349
ny	-1350
gether	-1351
▁hills	-1352
▁fast	-1353
▁self	-1354
▁view	-1355
▁seemed	-1356
▁step	-1357
▁storm	-1358
▁wrong	-1359
▁Ro	-1360
▁state	-1361
▁dew	-1362
ug	-1363
▁ce	-1364
come	-1365
--------	-1366
tis	-1367
▁shame	-1368
ared	-1369
ped	-1370
▁unt	-1371
▁scar	-1372
▁streng	-1373
▁sub	-1374
XX	-1375
under	-1376
▁wings	-1377
▁mighty	-1378
▁town	-1379
▁thoughts	-1380
▁watch	-1381
▁Each	-1382
▁mean	-1383
▁bird	-1384
▁late	-1385
▁pleasure	-1386
kes	-1387
mon	-1388
▁whole	-1389
▁gentle	-1390
▁dread	-1391
▁read	-1392
▁inf	-1393
ph	-1394
▁spe	-1395
ething	-1396
▁Com	-1397
▁lord	-1398
▁!	-1399
ner	-1400
ison	-1401
▁Eng	-1402
▁forg	-1403
ips	-1404
ah	-1405
med	-1406
▁Thus	-1407
selves	-1408
▁brought	-1409
▁start	-1410
▁jo	-1411
▁talk	-1412
▁Ag	-1413
▁quick	-1414
ror	-1415
pect	-1416
▁Still	-1417
ired	-1418
▁tran	-1419
▁brother	-1420
arch	-1421
▁blow	-1422
▁Nature	-1423
ening	-1424
▁drink	-1425
full	-1426
▁wel	-1427
▁won	-1428
let	-1429
ib	-1430
rs	-1431
▁mom	-1432
▁pure	-1433
▁cried	-1434
▁praise	-1435
▁friends	-1436
▁thr	-1437
▁makes	-1438
resh	-1439
▁mir	-1440
rant	-1441
▁age	-1442
▁silence	-1443
▁Ne	-1444
▁Can	-1445
▁fur	-1446
men	-1447
uff	-1448
▁else	-1449
ains	-1450
▁rel	-1451
▁Lo	-1452
▁min	-1453
ub	-1454
▁knows	-1455
vel	-1456
ays	-1457
▁law	-1458
▁mad	-1459
▁hung	-1460
▁ref	-1461
▁mark	-1462
▁spread	-1463
▁felt	-1464
▁ran	-1465
▁int	-1466
▁Time	-1467
▁knight	-1468
▁skies	-1469
▁mis	-1470
▁strength	-1471
▁dev	-1472
▁touch	-1473
▁turned	-1474
ote	-1475
▁Come	-1476
▁known	-1477
▁looked	-1478
▁Me	-1479
▁oft	-1480
rent	-1481
▁held	-1482
▁unto	-1483
▁sol	-1484
▁clouds	-1485
▁sword	-1486
dom	-1487
most	-1488
▁ass	-1489
▁loud	-1490
▁winds	-1491
aim	-1492
▁help	-1493
▁wise	-1494
▁tender	-1495
▁Ear	-1496
▁wine	-1497
▁Such	-1498
▁between	-1499
▁Cha	-1500
▁fru	-1501
▁mel	-1502
▁Pl	-1503
▁sent	-1504
▁pleas	-1505
▁crow	-1506
▁wife	-1507
▁sac	-1508
▁squ	-1509
▁act	-1510
▁wish	-1511
eng	-1512
rit	-1513
▁died	-1514
▁lift	-1515
▁scorn	-1516
▁river	-1517
▁bold	-1518
▁lady	-1519
▁darkness	-1520
▁pat	-1521
▁mouth	-1522
▁myself	-1523
▁mem	-1524
ho	-1525
▁ban	-1526
▁Have	-1527
nds	-1528
▁change	-1529
ister	-1530
oul	-1531
▁Out	-1532
oon	-1533
▁See	-1534
arden	-1535
▁whis	-1536
reed	-1537
▁disc	-1538
▁others	-1539
▁goes	-1540
io	-1541
▁waves	-1542
▁together	-1543
▁Life	-1544
▁below	-1545
▁gen	-1546
ging	-1547
▁rich	-1548
▁dec	-1549
▁grew	-1550
hood	-1551
▁woe	-1552
cept	-1553
▁Tw	-1554
▁Because	-1555
▁rock	-1556
osom	-1557
ient	-1558
▁dwell	-1559
▁bloom	-1560
▁save	-1561
▁cross	-1562
▁seems	-1563
▁beautiful	-1564
▁Were	-1565
▁passion	-1566
ude	-1567
▁doubt	-1568
!'	-1569
▁Gl	-1570
irc	-1571
right	-1572
▁mour	-1573
▁5	-1574
▁vo	-1575
▁room	-1576
▁Would	-1577
▁brave	-1578
aken	-1579
▁book	-1580
▁hir	-1581
▁rej	-1582
▁nature	-1583
oose	-1584
▁broken	-1585
og	-1586
esse	-1587
▁answ	-1588
▁birds	-1589
▁sense	-1590
▁shal	-1591
▁times	-1592
head	-1593
▁er	-1594
▁hid	-1595
▁inc	-1596
▁wear	-1597
▁secret	-1598
side	-1599
▁race	-1600
▁lab	-1601
▁fing	-1602
eless	-1603
▁shade	-1604
▁supp	-1605
▁move	-1606
▁reg	-1607
ards	-1608
▁fal	-1609
▁trou	-1610
▁gloom	-1611
▁par	-1612
▁enough	-1613
rim	-1614
▁pal	-1615
utter	-1616
ual	-1617
ancy	-1618
▁suff	-1619
▁En	-1620
▁moment	-1621
▁pen	-1622
▁use	-1623
vent	-1624
▁Que	-1625
▁city	-1626
▁bosom	-1627
▁cor	-1628
onn	-1629
▁calm	-1630
ges	-1631
ments	-1632
▁roll	-1633
aked	-1634
▁gay	-1635
▁Before	-1636
▁ir	-1637
ures	-1638
▁fame	-1639
▁Mar	-1640
▁draw	-1641
▁inst	-1642
▁weary	-1643
▁glor	-1644
▁women	-1645
▁beyond	-1646
▁cru	-1647
▁few	-1648
▁lead	-1649
▁tow	-1650
ertain	-1651
▁hours	-1652
▁oh	-1653
▁sick	-1654
app	-1655
▁Even	-1656
ible	-1657
▁fate	-1658
athe	-1659
ices	-1660
▁because	-1661
▁ring	-1662
▁yell	-1663
▁bab	-1664
▁Ad	-1665
▁sign	-1666
▁Ex	-1667
host	-1668
▁desire	-1669
▁Per	-1670
▁beside	-1671
▁bitter	-1672
ams	-1673
bed	-1674
ding	-1675
▁lar	-1676
▁exp	-1677
▁ris	-1678
ject	-1679
▁glow	-1680
▁waters	-1681
▁itself	-1682
▁Jo	-1683
dle	-1684
ives	-1685
where	-1686
ope	-1687
▁wis	-1688
▁try	-1689
▁etern	-1690
▁sim	-1691
▁horse	-1692
▁lives	-1693
▁unc	-1694
▁beat	-1695
▁laid	-1696
ns	-1697
▁Qu	-1698
▁imm	-1699
▁ange	-1700
▁weak	-1701
▁something	-1702
oney	-1703
▁stir	-1704
ask	-1705
▁quiet	-1706
▁battle	-1707
▁fol	-1708
▁Unt	-1709
▁emb	-1710
▁tro	-1711
▁divine	-1712
ird	-1713
fort	-1714
▁id	-1715
▁Since	-1716
▁fam	-1717
▁birth	-1718
▁forest	-1719
▁road	-1720
▁called	-1721
▁course	-1722
▁sought	-1723
fter	-1724
▁Hear	-1725
▁Tr	-1726
▁Those	-1727
nown	-1728
▁short	-1729
▁hate	-1730
▁tongue	-1731
▁``	-1732
rings	-1733
▁across	-1734
mit	-1735
ral	-1736
cient	-1737
ric	-1738
▁Him	-1739
▁big	-1740
iest	-1741
▁Pro	-1742
▁es	-1743
ster	-1744
▁Look	-1745
ott	-1746
▁seas	-1747
▁tea	-1748
▁grey	-1749
undred	-1750
ron	-1751
▁content	-1752
▁gain	-1753
▁holy	-1754
▁Le	-1755
III	-1756
▁Into	-1757
▁tear	-1758
▁fields	-1759
▁swift	-1760
▁Go	-1761
ition	-1762
▁evening	-1763
ction	-1764
▁winter	-1765
▁ten	-1766
▁stro	-1767
▁lad	-1768
gin	-1769
▁fin	-1770
oun	-1771
ants	-1772
dge	-1773
▁girl	-1774
race	-1775
▁Con	-1776
▁remember	-1777
▁ty	-1778
▁wave	-1779
▁forget	-1780
sed	-1781
▁thri	-1782
▁stru	-1783
gu	-1784
thing	-1785
▁next	-1786
▁woods	-1787
▁kill	-1788
now	-1789
▁passed	-1790
▁Old	-1791
cean	-1792
▁Sun	-1793
▁cause	-1794
▁garden	-1795
HE	-1796
aring	-1797
▁bid	-1798
▁wing	-1799
▁ways	-1800
▁looks	-1801
ney	-1802
▁behold	-1803
▁thunder	-1804
▁fool	-1805
▁trust	-1806
eep	-1807
▁ly	-1808
uous	-1809
▁Earth	-1810
que	-1811
▁Pr	-1812
▁cheer	-1813
hold	-1814
vere	-1815
▁souls	-1816
ieve	-1817
▁country	-1818
▁nat	-1819
▁ma	-1820
▁prom	-1821
▁lovely	-1822
Th	-1823
▁Its	-1824
▁dest	-1825
▁sand	-1826
▁fit	-1827
▁bare	-1828
dy	-1829
leep	-1830
▁ind	-1831
▁perfect	-1832
rance	-1833
▁sold	-1834
▁faint	-1835
▁says	-1836
▁gall	-1837
▁tremb	-1838
etimes	-1839
▁lonely	-1840
▁hundred	-1841
▁straight	-1842
▁inv	-1843
▁Down	-1844
▁ap	-1845
▁Just	-1846
ales	-1847
aves	-1848
▁mortal	-1849
uc	-1850
▁Sir	-1851
▁Again	-1852
esh	-1853
▁van	-1854
▁ancient	-1855
▁[	-1856
▁mag	-1857
ipp	-1858
▁spoke	-1859
iant	-1860
▁hell	-1861
▁dying	-1862
by	-1863
▁Ye	-1864
▁gar	-1865
▁answer	-1866
uty	-1867
▁dam	-1868
aming	-1869
ossom	-1870
▁gray	-1871
umber	-1872
▁scarce	-1873
wh	-1874
▁def	-1875
▁Queen	-1876
▁fort	-1877
▁hang	-1878
▁und	-1879
▁Over	-1880
▁often	-1881
▁bore	-1882
▁fierce	-1883
▁leng	-1884
▁tale	-1885
▁fruit	-1886
▁given	-1887
aun	-1888
aces	-1889
▁sail	-1890
phe	-1891
ience	-1892
cend	-1893
▁pow	-1894
▁inter	-1895
▁quite	-1896
▁fond	-1897
umn	-1898
▁walls	-1899
▁foe	-1900
▁More	-1901
▁circ	-1902
cked	-1903
▁cat	-1904
▁space	-1905
king	-1906
▁Did	-1907
▁force	-1908
▁themselves	-1909
Twas	-1910
▁bree	-1911
▁height	-1912
osed	-1913
▁empt	-1914
▁Well	-1915
▁began	-1916
ities	-1917
▁temp	-1918
▁fine	-1919
▁flood	-1920
▁ghost	-1921
▁flight	-1922
ming	-1923
▁led	-1924
▁vict	-1925
▁wond	-1926
▁hide	-1927
.”	-1928
▁lust	-1929
▁tor	-1930
ky	-1931
ume	-1932
▁Far	-1933
ushed	-1934
▁pay	-1935
▁aff	-1936
▁least	-1937
▁lands	-1938
▁Only	-1939
▁corn	-1940
▁noble	-1941
rows	-1942
▁dry	-1943
▁murm	-1944
ressed	-1945
▁burning	-1946
▁stands	-1947
▁toward	-1948
▁pity	-1949
▁reach	-1950
itude	-1951
▁fresh	-1952
▁wre	-1953
▁limb	-1954
▁line	-1955
mn	-1956
▁coming	-1957
▁sy	-1958
▁eag	-1959
▁shout	-1960
unk	-1961
▁shadows	-1962
▁Bea	-1963
▁glass	-1964
▁thick	-1965
▁street	-1966
pes	-1967
urch	-1968
▁bus	-1969
▁sal	-1970
▁leaf	-1971
com	-1972
▁fr	-1973
▁loves	-1974
▁fled	-1975
▁rejoice	-1976
▁Ca	-1977
▁heavy	-1978
vell	-1979
fully	-1980
▁kept	-1981
mes	-1982
▁est	-1983
my	-1984
asy	-1985
angu	-1986
eare	-1987
▁hym	-1988
▁sacred	-1989
oot	-1990
▁court	-1991
▁poss	-1992
▁west	-1993
▁i	-1994
▁heat	-1995
▁sole	-1996
▁writ	-1997
▁yellow	-1998
!--	-1999
▁hot	-2000
but	-2001
▁lam	-2002
▁strife	-2003
▁matter	-2004
▁remain	-2005
ades	-2006
▁Night	-2007
▁kne	-2008
▁mot	-2009
▁shine	-2010
▁underst	-2011
▁fat	-2012
ater	-2013
lect	-2014
▁flesh	-2015
haps	-2016
▁lover	-2017
▁clim	-2018
▁hero	-2019
▁faces	-2020
ship	-2021
▁toil	-2022
▁yield	-2023
▁also	-2024
ys	-2025
▁ears	-2026
ax	-2027
ping	-2028
▁pret	-2029
▁thin	-2030
ries	-2031
▁cro	-2032
▁cheek	-2033
▁hem	-2034
cent	-2035
▁forgot	-2036
ages	-2037
ded	-2038
owed	-2039
▁Wor	-2040
▁ago	-2041
▁Par	-2042
▁beast	-2043
▁singing	-2044
rise	-2045
▁reason	-2046
zz	-2047
▁pa	-2048
ems	-2049
▁poet	-2050
ked	-2051
iers	-2052
▁dull	-2053
▁mourn	-2054
▁blossom	-2055
ocks	-2056
▁unf	-2057
▁Sweet	-2058
oll	-2059
▁swell	-2060
▁window	-2061
▁sple	-2062
ops	-2063
ued	-2064
cess	-2065
though	-2066
▁common	-2067
erv	-2068
▁Spring	-2069
▁dang	-2070
▁noon	-2071
ests	-2072
',	-2073
▁plan	-2074
reedom	-2075
▁length	-2076
▁brown	-2077
nde	-2078
▁dare	-2079
▁host	-2080
▁tho	-2081
ald	-2082
▁drew	-2083
▁Sm	-2084
alley	-2085
oured	-2086
▁spee	-2087
▁unk	-2088
▁danc	-2089
▁Bet	-2090
▁Song	-2091
▁iron	-2092
▁quest	-2093
▁di	-2094
▁Ever	-2095
chan	-2096
▁inde	-2097
▁jud	-2098
▁Whil	-2099
▁pers	-2100
▁shr	-2101
▁tide	-2102
▁Under	-2103
set	-2104
▁four	-2105
ept	-2106
▁ins	-2107
▁ocean	-2108
▁used	-2109
▁false	-2110
▁lived	-2111
▁conqu	-2112
▁Ac	-2113
▁gate	-2114
▁brain	-2115
iny	-2116
used	-2117
urs	-2118
▁Has	-2119
▁band	-2120
▁purs	-2121
▁vast	-2122
▁large	-2123
▁learn	-2124
▁cut	-2125
▁going	-2126
▁shining	-2127
▁fold	-2128
▁prayer	-2129
▁mill	-2130
▁serv	-2131
▁shar	-2132
▁sink	-2133
enty	-2134
▁Mother	-2135
▁despair	-2136
▁build	-2137
▁den	-2138
utumn	-2139
▁comfort	-2140
▁bad	-2141
▁memory	-2142
▁Thee	-2143
▁dance	-2144
▁longer	-2145
▁begin	-2146
rage	-2147
▁ship	-2148
▁broke	-2149
ony	-2150
▁pu	-2151
▁virt	-2152
▁glorious	-2153
---	-2154
▁Ap	-2155
▁real	-2156
▁splend	-2157
▁triump	-2158
▁evil	-2159
▁Two	-2160
▁cruel	-2161
▁empty	-2162
ixt	-2163
▁fir	-2164
▁pit	-2165
▁doom	-2166
hant	-2167
▁bliss	-2168
▁master	-2169
▁mountains	-2170
tering	-2171
retched	-2172
▁port	-2173
▁Day	-2174
▁eat	-2175
▁prof	-2176
▁wealth	-2177
▁ful	-2178
▁New	-2179
▁ext	-2180
▁val	-2181
ien	-2182
▁rather	-2183
▁sees	-2184
ER	-2185
oved	-2186
▁chance	-2187
▁purple	-2188
ius	-2189
▁gaze	-2190
ored	-2191
▁wed	-2192
ares	-2193
▁gaz	-2194
▁gather	-2195
▁please	-2196
uge	-2197
▁Ho	-2198
ased	-2199
▁tomb	-2200
▁sake	-2201
gged	-2202
▁adv	-2203
▁Des	-2204
▁echo	-2205
▁Lea	-2206
▁Never	-2207
▁hopes	-2208
▁prove	-2209
▁speech	-2210
▁bod	-2211
▁lot	-2212
gl	-2213
tern	-2214
▁creature	-2215
ize	-2216
?'	-2217
▁indeed	-2218
zen	-2219
ca	-2220
nce	-2221
uring	-2222
▁cent	-2223
▁wake	-2224
▁waste	-2225
af	-2226
▁honour	-2227
val	-2228
aste	-2229
▁mod	-2230
▁rage	-2231
▁tall	-2232
▁cries	-2233
iffe	-2234
cher	-2235
▁ed	-2236
▁Long	-2237
▁appear	-2238
▁Sl	-2239
▁neither	-2240
ited	-2241
ths	-2242
What	-2243
▁Men	-2244
▁England	-2245
▁certain	-2246
▁cool	-2247
▁gener	-2248
aced	-2249
▁throne	-2250
aded	-2251
▁frag	-2252
▁hall	-2253
▁XX	-2254
oe	-2255
ids	-2256
amed	-2257
▁bell	-2258
▁floor	-2259
▁present	-2260
▁Could	-2261
!)	-2262
hn	-2263
▁Gre	-2264
▁fancy	-2265
ole	-2266
ury	-2267
▁guard	-2268
▁trans	-2269
born	-2270
▁burst	-2271
▁cup	-2272
▁fut	-2273
▁grown	-2274
▁neigh	-2275
act	-2276
over	-2277
▁faire	-2278
▁langu	-2279
othe	-2280
arrow	-2281
▁reve	-2282
▁shut	-2283
▁spark	-2284
▁songs	-2285
eding	-2286
▁bent	-2287
urious	-2288
▁miss	-2289
▁fingers	-2290
▁fix	-2291
▁fun	-2292
▁amid	-2293
▁eternal	-2294
▁sons	-2295
▁whir	-2296
▁bough	-2297
▁distant	-2298
▁valley	-2299
▁wrought	-2300
zy	-2301
▁Ere	-2302
▁Light	-2303
But	-2304
▁II	-2305
▁Fair	-2306
▁spot	-2307
▁gives	-2308
▁ob	-2309
▁Should	-2310
!”	-2311
▁train	-2312
▁vision	-2313
▁trembling	-2314
▁fail	-2315
▁early	-2316
▁equ	-2317
▁6	-2318
ead	-2319
▁rhy	-2320
▁roof	-2321
▁grand	-2322
▁THE	-2323
▁caught	-2324
▁sav	-2325
▁safe	-2326
▁bend	-2327
rel	-2328
ooth	-2329
▁nought	-2330
▁simple	-2331
▁Once	-2332
▁sang	-2333
For	-2334
lish	-2335
onnet	-2336
▁horn	-2337
▁sore	-2338
▁scene	-2339
▁blast	-2340
▁Ind	-2341
▁story	-2342
▁Great	-2343
▁solemn	-2344
▁command	-2345
ede	-2346
▁wet	-2347
▁Until	-2348
with	-2349
▁Tro	-2350
▁fears	-2351
▁smoke	-2352
▁;	-2353
▁Good	-2354
▁roses	-2355
▁bread	-2356
▁smiles	-2357
▁Gra	-2358
▁lit	-2359
▁High	-2360
▁opp	-2361
▁whisper	-2362
▁Som	-2363
▁rad	-2364
▁ease	-2365
▁food	-2366
▁takes	-2367
▁compan	-2368
▁yon	-2369
.)	-2370
yal	-2371
▁spo	-2372
▁neck	-2373
▁lights	-2374
▁dre	-2375
ories	-2376
▁After	-2377
chant	-2378
ef	-2379
onder	-2380
▁conce	-2381
▁Father	-2382
▁having	-2383
▁od	-2384
▁slowly	-2385
▁Say	-2386
▁ling	-2387
▁shed	-2388
▁speed	-2389
▁wrath	-2390
),	-2391
▁fain	-2392
▁lean	-2393
▁myst	-2394
▁until	-2395
▁passing	-2396
▁immortal	-2397
▁—	-2398
bre	-2399
body	-2400
▁chill	-2401
▁capt	-2402
▁naked	-2403
▁hig	-2404
▁maiden	-2405
▁looking	-2406
rank	-2407
asp	-2408
▁gods	-2409
▁First	-2410
▁flies	-2411
sy	-2412
▁shape	-2413
▁second	-2414
▁taught	-2415
▁uns	-2416
▁limbs	-2417
na	-2418
▁ven	-2419
▁drop	-2420
▁drown	-2421
You	-2422
▁bran	-2423
▁claim	-2424
▁crowd	-2425
▁single	-2426
▁believe	-2427
eks	-2428
▁coun	-2429
▁ben	-2430
▁broad	-2431
▁John	-2432
▁pol	-2433
att	-2434
▁sch	-2435
ians	-2436
mber	-2437
pping	-2438
▁Gods	-2439
ends	-2440
olde	-2441
▁turns	-2442
▁fer	-2443
▁falls	-2444
▁fires	-2445
▁tur	-2446
ained	-2447
▁sometimes	-2448
lin	-2449
▁Within	-2450
▁depart	-2451
▁fav	-2452
bes	-2453
bled	-2454
▁rare	-2455
▁sway	-2456
----------------	-2457
eal	-2458
▁clean	-2459
▁roar	-2460
▁sort	-2461
▁shalt	-2462
▁Lady	-2463
▁rece	-2464
▁voices	-2465
raid	-2466
▁strain	-2467
ON	-2468
oc	-2469
hil	-2470
ical	-2471
▁joys	-2472
▁vill	-2473
▁heads	-2474
▁write	-2475
llen	-2476
arent	-2477
▁ride	-2478
▁appro	-2479
▁breeze	-2480
wise	-2481
▁wan	-2482
irgin	-2483
IN	-2484
eous	-2485
ider	-2486
bo	-2487
aff	-2488
▁West	-2489
▁steps	-2490
▁sor	-2491
▁hus	-2492
▁boys	-2493
▁send	-2494
▁Gu	-2495
▁laughter	-2496
alls	-2497
▁wol	-2498
▁Beneath	-2499
ells	-2500
▁Sea	-2501
▁Give	-2502
▁mead	-2503
erve	-2504
▁ele	-2505
▁hun	-2506
▁decl	-2507
▁dog	-2508
▁const	-2509
▁reign	-2510
▁sounds	-2511
▁Too	-2512
▁mil	-2513
▁perf	-2514
wor	-2515
alks	-2516
▁falling	-2517
▁dism	-2518
▁Among	-2519
▁asked	-2520
▁sister	-2521
▁midnight	-2522
▁pleasant	-2523
▁Little	-2524
yde	-2525
▁abs	-2526
▁sport	-2527
ints	-2528
nesse	-2529
▁repl	-2530
▁Dis	-2531
inted	-2532
▁warri	-2533
▁lovers	-2534
▁daughter	-2535
ived	-2536
▁War	-2537
retch	-2538
ghed	-2539
▁danger	-2540
▁neighb	-2541
rible	-2542
▁hollow	-2543
▁throng	-2544
ait	-2545
eter	-2546
▁frame	-2547
▁Without	-2548
▁either	-2549
▁fre	-2550
▁understand	-2551
bit	-2552
more	-2553
▁nest	-2554
▁Bel	-2555
▁Del	-2556
▁six	-2557
▁merry	-2558
▁stern	-2559
▁slain	-2560
ading	-2561
▁rocks	-2562
▁shield	-2563
▁Sil	-2564
ilight	-2565
▁bride	-2566
▁unknown	-2567
▁suddenly	-2568
▁rou	-2569
▁store	-2570
▁filled	-2571
▁future	-2572
▁El	-2573
▁obs	-2574
▁sharp	-2575
pit	-2576
▁prison	-2577
▁stones	-2578
yes	-2579
▁pet	-2580
▁bill	-2581
▁fish	-2582
▁feast	-2583
awn	-2584
twas	-2585
vest	-2586
▁Must	-2587
ushing	-2588
▁share	-2589
▁fee	-2590
▁pin	-2591
▁angel	-2592
▁Fri	-2593
▁Yes	-2594
▁rapt	-2595
othing	-2596
▁steel	-2597
▁dem	-2598
eared	-2599
▁grows	-2600
oes	-2601
▁rust	-2602
▁Said	-2603
▁forever	-2604
des	-2605
cing	-2606
▁Brit	-2607
▁dost	-2608
▁pear	-2609
▁taken	-2610
▁treasure	-2611
▁kings	-2612
▁bay	-2613
▁var	-2614
orous	-2615
▁Whom	-2616
▁deeds	-2617
rees	-2618
▁tru	-2619
▁dress	-2620
ords	-2621
eness	-2622
pher	-2623
▁alive	-2624
▁drift	-2625
▁hence	-2626
▁steep	-2627
▁tried	-2628
▁aid	-2629
▁pict	-2630
▁press	-2631
▁Rem	-2632
▁Im	-2633
▁Su	-2634
road	-2635
▁heav	-2636
▁Child	-2637
▁blest	-2638
▁rising	-2639
▁English	-2640
ools	-2641
▁bones	-2642
▁streams	-2643
▁hit	-2644
▁Mary	-2645
▁disp	-2646
▁front	-2647
▁greet	-2648
▁Sonnet	-2649
tw	-2650
swe	-2651
ners	-2652
ached	-2653
▁apart	-2654
▁flying	-2655
oman	-2656
rate	-2657
▁dar	-2658
▁dire	-2659
aled	-2660
icked	-2661
▁awful	-2662
▁smooth	-2663
Oh	-2664
▁Spir	-2665
▁dumb	-2666
▁loft	-2667
▁weight	-2668
EN	-2669
lled	-2670
▁foes	-2671
▁folk	-2672
▁pier	-2673
▁stop	-2674
▁almost	-2675
▁Ma	-2676
▁utter	-2677
▁waiting	-2678
▁tune	-2679
▁queen	-2680
My	-2681
▁Bes	-2682
▁tread	-2683
ract	-2684
▁bee	-2685
rence	-2686
▁ones	-2687
▁purp	-2688
▁stray	-2689
;--	-2690
▁dus	-2691
ledge	-2692
▁Soul	-2693
▁ready	-2694
AR	-2695
uct	-2696
long	-2697
▁foam	-2698
▁surp	-2699
co	-2700
▁Pri	-2701
▁lose	-2702
▁prep	-2703
▁east	-2704
▁eager	-2705
▁moved	-2706
▁sighs	-2707
AN	-2708
It	-2709
▁Art	-2710
▁Hell	-2711
▁cease	-2712
▁seed	-2713
▁Char	-2714
band	-2715
ifts	-2716
jest	-2717
▁alle	-2718
▁herself	-2719
▁watched	-2720
▁listen	-2721
rif	-2722
vail	-2723
ashion	-2724
▁creep	-2725
▁church	-2726
▁triumph	-2727
▁Pass	-2728
▁welcome	-2729
ounds	-2730
▁Turn	-2731
▁Fe	-2732
▁sweep	-2733
▁loving	-2734
ipe	-2735
ists	-2736
▁Alas	-2737
▁heed	-2738
▁mild	-2739
▁wilt	-2740
▁sings	-2741
▁wisdom	-2742
▁frown	-2743
ended	-2744
▁bodies	-2745
▁twilight	-2746
▁boat	-2747
▁slave	-2748
▁Mon	-2749
icate	-2750
lands	-2751
▁afar	-2752
▁thorn	-2753
▁Nay	-2754
▁gun	-2755
▁sens	-2756
inging	-2757
▁climb	-2758
▁keen	-2759
▁mock	-2760
gy	-2761
lo	-2762
▁rev	-2763
▁cow	-2764
▁dart	-2765
▁grim	-2766
ourney	-2767
▁haste	-2768
▁measure	-2769
▁op	-2770
▁pill	-2771
▁quod	-2772
▁chief	-2773
held	-2774
▁cond	-2775
▁gift	-2776
▁loss	-2777
▁exce	-2778
▁Rose	-2779
▁bull	-2780
▁guess	-2781
▁shone	-2782
▁possess	-2783
▁III	-2784
▁fig	-2785
ashed	-2786
ises	-2787
▁throat	-2788
▁Har	-2789
▁deed	-2790
▁fought	-2791
▁native	-2792
▁ow	-2793
▁Against	-2794
▁ours	-2795
▁Beauty	-2796
▁glit	-2797
▁nigh	-2798
▁diffe	-2799
▁mercy	-2800
▁whence	-2801
▁moan	-2802
▁top	-2803
▁Bo	-2804
▁Sum	-2805
▁White	-2806
▁mirth	-2807
▁mount	-2808
▁spent	-2809
▁thence	-2810
▁game	-2811
▁pine	-2812
▁compl	-2813
▁curse	-2814
▁thirst	-2815
▁courage	-2816
aws	-2817
ica	-2818
....	-2819
▁alt	-2820
▁gleam	-2821
▁softly	-2822
omp	-2823
▁clot	-2824
▁ther	-2825
▁shook	-2826
ler	-2827
▁means	-2828
▁los	-2829
▁Take	-2830
▁Wind	-2831
▁fallen	-2832
▁answe	-2833
▁Car	-2834
usion	-2835
▁dies	-2836
▁borne	-2837
▁image	-2838
▁pretty	-2839
what	-2840
▁LXX	-2841
iding	-2842
▁Made	-2843
▁baby	-2844
▁five	-2845
▁worse	-2846
▁weeping	-2847
ma	-2848
seen	-2849
▁eng	-2850
claim	-2851
▁note	-2852
ashing	-2853
▁guide	-2854
▁raise	-2855
▁brings	-2856
wind	-2857
▁due	-2858
shine	-2859
▁flew	-2860
▁whil	-2861
▁Above	-2862
▁wheel	-2863
▁lake	-2864
▁prov	-2865
▁needs	-2866
▁autumn	-2867
▁hidden	-2868
rose	-2869
▁Whe	-2870
▁holds	-2871
▁spake	-2872
▁tower	-2873
bey	-2874
har	-2875
▁ray	-2876
▁nights	-2877
ley	-2878
ided	-2879
▁catch	-2880
▁works	-2881
ics	-2882
time	-2883
then	-2884
▁blows	-2885
▁track	-2886
inks	-2887
▁succ	-2888
▁point	-2889
▁become	-2890
▁alas	-2891
oned	-2892
▁ang	-2893
▁desert	-2894
▁glance	-2895
▁learned	-2896
▁hom	-2897
▁trem	-2898
▁frost	-2899
▁taste	-2900
▁ice	-2901
▁rul	-2902
▁flag	-2903
▁sits	-2904
▁stranger	-2905
iam	-2906
▁adm	-2907
▁veil	-2908
neath	-2909
▁forms	-2910
▁heavenly	-2911
ina	-2912
▁Mer	-2913
▁XXX	-2914
▁unb	-2915
▁prey	-2916
IV	-2917
orses	-2918
▁cher	-2919
▁mood	-2920
▁wept	-2921
▁flames	-2922
▁narrow	-2923
▁Mus	-2924
ances	-2925
▁East	-2926
▁changed	-2927
how	-2928
mph	-2929
▁yow	-2930
cience	-2931
▁loose	-2932
▁virtue	-2933
▁wander	-2934
▁smiling	-2935
He	-2936
▁tu	-2937
rying	-2938
▁foul	-2939
▁shri	-2940
▁blame	-2941
▁charm	-2942
▁serve	-2943
▁skill	-2944
joy	-2945
▁loo	-2946
▁brood	-2947
▁glim	-2948
▁calls	-2949
▁por	-2950
▁bind	-2951
▁enem	-2952
▁mere	-2953
▁lines	-2954
▁fellow	-2955
nes	-2956
rid	-2957
ril	-2958
rene	-2959
▁Bre	-2960
▁inno	-2961
▁Three	-2962
▁strike	-2963
▁freedom	-2964
▁easy	-2965
▁boast	-2966
▁fountain	-2967
lit	-2968
hest	-2969
▁clay	-2970
▁clos	-2971
▁mass	-2972
▁rode	-2973
▁spell	-2974
aul	-2975
▁Br	-2976
that	-2977
heart	-2978
▁names	-2979
▁laughed	-2980
▁spirits	-2981
▁wandering	-2982
raw	-2983
▁Fate	-2984
▁z	-2985
owing	-2986
▁main	-2987
morrow	-2988
▁fet	-2989
▁prize	-2990
▁comple	-2991
▁struck	-2992
▁greater	-2993
bly	-2994
▁labour	-2995
▁walked	-2996
▁blessed	-2997
▁Don	-2998
▁aim	-2999
ulous	-3000
▁angu	-3001
▁North	-3002
▁bells	-3003
▁strugg	-3004
▁tempest	-3005
.--	-3006
iving	-3007
▁ball	-3008
▁ruin	-3009
▁rough	-3010
▁Prince	-3011
▁pul	-3012
▁firm	-3013
▁rule	-3014
▁fleet	-3015
▁shrie	-3016
▁weather	-3017
▁answered	-3018
iol	-3019
ums	-3020
▁magic	-3021
▁shake	-3022
▁table	-3023
umes	-3024
▁shot	-3025
AT	-3026
OR	-3027
oms	-3028
ester	-3029
▁fact	-3030
▁stor	-3031
vern	-3032
▁woo	-3033
▁health	-3034
cape	-3035
▁deem	-3036
yl	-3037
cul	-3038
lot	-3039
hile	-3040
▁clo	-3041
▁Ange	-3042
▁Dark	-3043
min	-3044
orse	-3045
ending	-3046
▁afraid	-3047
▁heavens	-3048
▁perhaps	-3049
iar	-3050
▁pil	-3051
VI	-3052
▁Fa	-3053
▁base	-3054
▁money	-3055
▁yours	-3056
▁sleeping	-3057
bles	-3058
hern	-3059
▁ages	-3060
▁Every	-3061
bin	-3062
▁trump	-3063
▁Behold	-3064
▁endless	-3065
kind	-3066
▁mat	-3067
▁drawn	-3068
▁smiled	-3069
ushes	-3070
▁Full	-3071
▁shel	-3072
▁Dream	-3073
▁angels	-3074
▁Rome	-3075
▁feed	-3076
▁pour	-3077
blic	-3078
ites	-3079
▁las	-3080
▁knee	-3081
▁charms	-3082
▁terror	-3083
▁lightning	-3084
amb	-3085
dain	-3086
▁Gree	-3087
▁flee	-3088
▁din	-3089
▁bark	-3090
mas	-3091
▁Ven	-3092
▁fed	-3093
▁Tell	-3094
▁huge	-3095
▁virgin	-3096
ex	-3097
eeth	-3098
▁Sat	-3099
▁med	-3100
▁page	-3101
athered	-3102
▁Spirit	-3103
▁Red	-3104
inite	-3105
▁slept	-3106
airs	-3107
▁ast	-3108
▁Muse	-3109
▁lest	-3110
▁rude	-3111
overed	-3112
No	-3113
▁Part	-3114
▁About	-3115
▁Cons	-3116
▁mess	-3117
▁toss	-3118
▁Heart	-3119
▁chain	-3120
:--	-3121
lets	-3122
▁Bar	-3123
▁Tra	-3124
▁cost	-3125
▁cover	-3126
▁motion	-3127
▁anguish	-3128
mson	-3129
▁Cont	-3130
▁charge	-3131
udd	-3132
▁uv	-3133
▁spr	-3134
▁Hath	-3135
▁seat	-3136
▁groan	-3137
▁mould	-3138
▁season	-3139
▁fortune	-3140
▁springs	-3141
▁skin	-3142
inking	-3143
▁World	-3144
▁books	-3145
▁Pea	-3146
▁wra	-3147
▁honey	-3148
▁knees	-3149
▁lying	-3150
▁fright	-3151
▁raised	-3152
yr	-3153
▁Arth	-3154
▁lamp	-3155
▁chair	-3156
▁seven	-3157
▁question	-3158
rang	-3159
▁Jes	-3160
▁ain	-3161
▁reb	-3162
▁ought	-3163
▁faithful	-3164
▁camp	-3165
▁enter	-3166
ety	-3167
ris	-3168
▁sphere	-3169
▁royal	-3170
▁stain	-3171
▁sunny	-3172
eps	-3173
uss	-3174
▁Save	-3175
▁join	-3176
▁drops	-3177
empt	-3178
▁worn	-3179
▁order	-3180
▁cheeks	-3181
▁yonder	-3182
aph	-3183
hal	-3184
▁Pe	-3185
▁ah	-3186
berty	-3187
▁Dear	-3188
▁plant	-3189
new	-3190
ivers	-3191
ized	-3192
▁lil	-3193
ipped	-3194
▁defe	-3195
▁harm	-3196
▁deare	-3197
▁dom	-3198
▁Came	-3199
▁Might	-3200
▁judge	-3201
▁tired	-3202
▁journey	-3203
ST	-3204
alf	-3205
cri	-3206
▁twenty	-3207
▁forward	-3208
▁unw	-3209
▁post	-3210
▁aside	-3211
▁presence	-3212
▁sung	-3213
▁hears	-3214
▁Whilst	-3215
go	-3216
ton	-3217
▁wi	-3218
▁requ	-3219
▁Etern	-3220
▁France	-3221
▁everything	-3222
▁ga	-3223
ready	-3224
▁Sleep	-3225
▁cares	-3226
▁Tho	-3227
▁mart	-3228
▁Count	-3229
▁Arthur	-3230
▁whether	-3231
▁wretched	-3232
char	-3233
▁bond	-3234
▁sunset	-3235
▁confess	-3236
ague	-3237
▁tum	-3238
lling	-3239
▁bank	-3240
▁teach	-3241
▁Ple	-3242
▁cap	-3243
▁laughing	-3244
▁cand	-3245
▁Right	-3246
alt	-3247
▁ta	-3248
That	-3249
ouses	-3250
▁Deep	-3251
▁torn	-3252
▁double	-3253
▁descend	-3254
oof	-3255
sha	-3256
utes	-3257
▁deg	-3258
▁Capt	-3259
▁crew	-3260
▁marble	-3261
▁prince	-3262
▁forgotten	-3263
fer	-3264
mid	-3265
ode	-3266
rer	-3267
▁du	-3268
lier	-3269
oral	-3270
▁Back	-3271
▁built	-3272
▁proper	-3273
▁shades	-3274
▁Bra	-3275
▁teeth	-3276
▁boughs	-3277
▁streets	-3278
▁Hel	-3279
▁doe	-3280
▁sus	-3281
▁prop	-3282
▁asleep	-3283
▁contin	-3284
ply	-3285
ctor	-3286
▁occ	-3287
▁sto	-3288
▁didn	-3289
▁meant	-3290
▁growing	-3291
tes	-3292
thy	-3293
bert	-3294
pherd	-3295
▁mast	-3296
▁reck	-3297
▁parts	-3298
▁Between	-3299
▁husband	-3300
▁sunshine	-3301
To	-3302
orge	-3303
▁Col	-3304
▁lack	-3305
▁trace	-3306
attered	-3307
▁thread	-3308
vey	-3309
▁ur	-3310
▁hol	-3311
▁ign	-3312
▁runs	-3313
▁horses	-3314
▁kissed	-3315
▁followed	-3316
▁...	-3317
▁idle	-3318
▁girls	-3319
▁Mo	-3320
▁Bab	-3321
▁Poor	-3322
▁array	-3323
▁crimson	-3324
oses	-3325
ified	-3326
▁aught	-3327
▁daily	-3328
▁powers	-3329
rac	-3330
▁Joy	-3331
▁swall	-3332
▁Win	-3333
▁wid	-3334
▁laws	-3335
▁pull	-3336
▁remem	-3337
▁fashion	-3338
▁feeling	-3339
came	-3340
▁Yea	-3341
▁add	-3342
adise	-3343
ented	-3344
owers	-3345
▁stud	-3346
▁noise	-3347
▁surely	-3348
nded	-3349
▁finger	-3350
▁moving	-3351
gar	-3352
▁ming	-3353
▁equal	-3354
▁bloody	-3355
▁trouble	-3356
eyed	-3357
▁Make	-3358
▁places	-3359
▁suffer	-3360
▁ph	-3361
aths	-3362
▁milk	-3363
▁keeps	-3364
▁super	-3365
▁soldier	-3366
▁terrible	-3367
▁?	-3368
▁Know	-3369
▁dece	-3370
▁imag	-3371
asting	-3372
▁thank	-3373
tree	-3374
▁aye	-3375
▁Along	-3376
▁lofty	-3377
▁design	-3378
▁Son	-3379
▁nur	-3380
oping	-3381
▁ends	-3382
▁Truth	-3383
▁humble	-3384
▁replied	-3385
▁precious	-3386
fold	-3387
▁buy	-3388
▁oak	-3389
ument	-3390
▁Dead	-3391
▁rang	-3392
▁wondrous	-3393
enes	-3394
▁task	-3395
isters	-3396
▁Black	-3397
▁Round	-3398
▁south	-3399
▁knowledge	-3400
▁IV	-3401
bered	-3402
▁luck	-3403
▁ships	-3404
▁making	-3405
▁XL	-3406
▁expl	-3407
▁wore	-3408
▁worst	-3409
▁school	-3410
▁standing	-3411
▁Jud	-3412
▁ant	-3413
▁fil	-3414
earer	-3415
▁Beyond	-3416
athed	-3417
▁Moon	-3418
▁fiery	-3419
▁played	-3420
ux	-3421
VII	-3422
▁enc	-3423
bbing	-3424
rench	-3425
▁prophe	-3426
▁stately	-3427
▁hue	-3428
▁pie	-3429
▁comr	-3430
▁earn	-3431
umbers	-3432
▁awake	-3433
▁happiness	-3434
,”	-3435
Now	-3436
arm	-3437
orus	-3438
▁Heav	-3439
▁swim	-3440
▁delay	-3441
▁flash	-3442
▁verse	-3443
ails	-3444
▁fairy	-3445
▁higher	-3446
▁slumber	-3447
▁fif	-3448
illed	-3449
▁arri	-3450
▁brook	-3451
▁notes	-3452
▁Across	-3453
▁Summer	-3454
▁really	-3455
▁towards	-3456
lic	-3457
ific	-3458
▁pot	-3459
▁swe	-3460
▁blown	-3461
▁doors	-3462
▁naught	-3463
▁feather	-3464
con	-3465
pse	-3466
inct	-3467
▁Res	-3468
▁amb	-3469
▁conc	-3470
▁haun	-3471
▁whist	-3472
▁betray	-3473
fall	-3474
wood	-3475
▁tim	-3476
▁Peace	-3477
▁begun	-3478
▁Rep	-3479
▁Amer	-3480
▁coll	-3481
▁mute	-3482
▁vale	-3483
▁April	-3484
RE	-3485
▁Fo	-3486
▁bade	-3487
kin	-3488
ste	-3489
▁nose	-3490
▁chase	-3491
▁smell	-3492
▁spite	-3493
▁parent	-3494
VIII	-3495
▁App	-3496
▁mut	-3497
▁rush	-3498
▁palace	-3499
▁breathe	-3500
gan	-3501
ior	-3502
▁Cle	-3503
▁crime	-3504
▁object	-3505
▁running	-3506
▁Ed	-3507
illy	-3508
ores	-3509
▁Cre	-3510
▁Gold	-3511
▁throw	-3512
▁affect	-3513
bow	-3514
▁Hope	-3515
▁stoo	-3516
▁Young	-3517
aling	-3518
▁branches	-3519
range	-3520
▁Past	-3521
resses	-3522
▁burden	-3523
▁therefore	-3524
omb	-3525
▁dat	-3526
pered	-3527
▁moss	-3528
▁beams	-3529
▁savage	-3530
▁worlds	-3531
▁earthly	-3532
▁:	-3533
ffe	-3534
▁moonlight	-3535
▁cliff	-3536
▁swear	-3537
unge	-3538
▁sep	-3539
▁Holy	-3540
▁liqu	-3541
▁angry	-3542
▁grant	-3543
▁warrior	-3544
▁wounded	-3545
room	-3546
ymph	-3547
ishes	-3548
▁slight	-3549
If	-3550
▁arise	-3551
▁drunk	-3552
▁spare	-3553
off	-3554
eral	-3555
ander	-3556
ement	-3557
iance	-3558
chance	-3559
▁purpose	-3560
OU	-3561
▁jew	-3562
▁village	-3563
?--	-3564
ppy	-3565
▁cas	-3566
▁pause	-3567
▁saying	-3568
eaks	-3569
rupt	-3570
▁Lest	-3571
▁blew	-3572
▁whit	-3573
▁herte	-3574
▁sheep	-3575
▁painted	-3576
▁different	-3577
▁ut	-3578
fast	-3579
stal	-3580
▁Ret	-3581
▁comb	-3582
▁canst	-3583
▁destro	-3584
▁stroke	-3585
▁unseen	-3586
▁rid	-3587
▁Call	-3588
▁Sing	-3589
▁bone	-3590
▁hurt	-3591
▁gates	-3592
▁further	-3593
▁promise	-3594
▁thinking	-3595
ae	-3596
▁hal	-3597
▁subl	-3598
▁Jesus	-3599
▁serene	-3600
We	-3601
hip	-3602
isf	-3603
iced	-3604
▁shows	-3605
▁kisses	-3606
▁scream	-3607
▁thinks	-3608
▁quickly	-3609
▁sez	-3610
▁insp	-3611
▁north	-3612
▁shapes	-3613
▁reached	-3614
irty	-3615
▁Bri	-3616
▁lip	-3617
▁Both	-3618
▁Last	-3619
▁lion	-3620
iverse	-3621
▁poison	-3622
were	-3623
iring	-3624
▁diff	-3625
▁leap	-3626
▁soil	-3627
▁woes	-3628
▁displ	-3629
▁tyrant	-3630
do	-3631
▁Land	-3632
▁Soft	-3633
▁harp	-3634
▁tone	-3635
▁drive	-3636
▁choose	-3637
▁lifted	-3638
▁worthy	-3639
▁foolish	-3640
rat	-3641
iment	-3642
▁mult	-3643
▁root	-3644
▁march	-3645
▁twice	-3646
▁abroad	-3647
▁priest	-3648
ram	-3649
▁enjoy	-3650
▁spear	-3651
▁buried	-3652
▁shines	-3653
▁appears	-3654
▁asp	-3655
▁beam	-3656
▁paid	-3657
icious	-3658
▁brief	-3659
IX	-3660
oked	-3661
pent	-3662
▁Eyes	-3663
▁stare	-3664
▁venge	-3665
▁person	-3666
▁knowing	-3667
bler	-3668
▁pun	-3669
▁Unto	-3670
▁flung	-3671
▁Another	-3672
ese	-3673
cial	-3674
ural	-3675
▁lov	-3676
liest	-3677
▁tort	-3678
▁Christmas	-3679
▁sire	-3680
▁suit	-3681
▁fault	-3682
▁locks	-3683
▁sitting	-3684
▁Mad	-3685
▁Mem	-3686
▁Chan	-3687
▁mate	-3688
ishing	-3689
▁gazed	-3690
▁Du	-3691
dess	-3692
▁resol	-3693
▁wounds	-3694
▁mak	-3695
ament	-3696
▁clam	-3697
▁fade	-3698
▁wont	-3699
▁cities	-3700
▁gallant	-3701
▁remains	-3702
▁anything	-3703
she	-3704
house	-3705
▁busy	-3706
▁altar	-3707
▁steed	-3708
▁goodly	-3709
cil	-3710
angs	-3711
▁gri	-3712
dered	-3713
▁begg	-3714
▁fury	-3715
▁Friend	-3716
▁majest	-3717
▁gracious	-3718
sing	-3719
▁bew	-3720
▁mix	-3721
▁vow	-3722
▁diss	-3723
▁legs	-3724
▁news	-3725
▁bears	-3726
▁frail	-3727
▁Sec	-3728
▁Fort	-3729
▁pair	-3730
▁decay	-3731
In	-3732
aged	-3733
rors	-3734
▁row	-3735
▁tar	-3736
▁vio	-3737
▁Hill	-3738
▁edge	-3739
▁glee	-3740
▁rhyme	-3741
▁footst	-3742
▁fearful	-3743
▁radiant	-3744
▁iv	-3745
▁emp	-3746
▁sir	-3747
while	-3748
▁Book	-3749
▁dusk	-3750
▁match	-3751
▁threw	-3752
▁kingdom	-3753
▁patient	-3754
▁restless	-3755
▁gan	-3756
▁case	-3757
▁drag	-3758
▁forb	-3759
▁tend	-3760
ench	-3761
ular	-3762
▁obey	-3763
▁feels	-3764
▁fixed	-3765
▁gifts	-3766
▁closed	-3767
▁murmur	-3768
▁public	-3769
▁blossoms	-3770
▁endure	-3771
▁gently	-3772
▁shrine	-3773
urst	-3774
▁Pre	-3775
▁glo	-3776
ising	-3777
▁mort	-3778
▁adorn	-3779
▁farew	-3780
▁bought	-3781
▁inside	-3782
▁repose	-3783
▁towers	-3784
▁Thought	-3785
▁cu	-3786
tles	-3787
▁harmon	-3788
▁curious	-3789
yne	-3790
▁Pal	-3791
ffect	-3792
ighed	-3793
▁pros	-3794
▁sour	-3795
▁carry	-3796
▁eight	-3797
▁conquer	-3798
▁darling	-3799
▁mankind	-3800
▁La	-3801
▁viol	-3802
▁miles	-3803
▁monarch	-3804
▁yourself	-3805
bar	-3806
aine	-3807
riot	-3808
▁Amid	-3809
▁None	-3810
▁envy	-3811
▁fors	-3812
▁pard	-3813
▁disdain	-3814
▁travell	-3815
hered	-3816
▁Many	-3817
▁week	-3818
▁Youth	-3819
▁noght	-3820
▁wolde	-3821
▁touched	-3822
ille	-3823
▁cab	-3824
▁rav	-3825
itled	-3826
▁curt	-3827
▁desol	-3828
▁seeing	-3829
▁Nothing	-3830
.’	-3831
▁Bu	-3832
lorn	-3833
ingly	-3834
▁South	-3835
▁stuff	-3836
▁colour	-3837
▁awe	-3838
aints	-3839
angled	-3840
▁awhile	-3841
▁honest	-3842
▁outside	-3843
▁Ev	-3844
bbed	-3845
▁eve	-3846
▁Half	-3847
▁cell	-3848
▁pipe	-3849
▁fatal	-3850
▁embrace	-3851
eling	-3852
▁salt	-3853
ention	-3854
▁brand	-3855
▁hardly	-3856
▁distance	-3857
▁dreaming	-3858
▁Dou	-3859
▁duty	-3860
▁prod	-3861
▁stat	-3862
▁tail	-3863
▁price	-3864
▁shell	-3865
▁stick	-3866
▁beheld	-3867
dro	-3868
▁hail	-3869
▁delicate	-3870
▁pleasures	-3871
▁Em	-3872
pers	-3873
upid	-3874
▁Che	-3875
▁Pat	-3876
▁Fear	-3877
▁blaz	-3878
▁fanc	-3879
unning	-3880
▁incre	-3881
▁walks	-3882
▁enchant	-3883
This	-3884
▁banks	-3885
▁crest	-3886
▁stiff	-3887
▁expect	-3888
▁search	-3889
▁lightly	-3890
▁flat	-3891
▁swept	-3892
▁quiver	-3893
▁million	-3894
rag	-3895
▁LX	-3896
hast	-3897
rain	-3898
ident	-3899
▁pick	-3900
▁priv	-3901
▁temple	-3902
▁creatures	-3903
gers	-3904
▁Miss	-3905
▁Soon	-3906
▁Tran	-3907
▁deck	-3908
▁pall	-3909
▁rent	-3910
▁vent	-3911
▁finds	-3912
▁giant	-3913
▁phant	-3914
▁kindly	-3915
▁meaning	-3916
▁Christian	-3917
▁Ha	-3918
▁Mr	-3919
ably	-3920
uries	-3921
liness	-3922
▁devil	-3923
▁feeble	-3924
▁starry	-3925
▁thrown	-3926
▁infinite	-3927
col	-3928
zes	-3929
otten	-3930
▁rosy	-3931
▁guest	-3932
▁breaks	-3933
▁shores	-3934
▁dancing	-3935
▁Bro	-3936
▁Law	-3937
▁sel	-3938
aunce	-3939
▁Wild	-3940
▁disg	-3941
▁pace	-3942
▁blade	-3943
▁minds	-3944
▁moves	-3945
▁paint	-3946
▁veins	-3947
▁storms	-3948
▁dreadful	-3949
▁Mag	-3950
▁exc	-3951
▁leg	-3952
▁wax	-3953
▁dogs	-3954
▁trod	-3955
▁became	-3956
▁butter	-3957
inn	-3958
▁dw	-3959
▁Oft	-3960
wards	-3961
▁pant	-3962
▁pluck	-3963
▁frozen	-3964
▁clothes	-3965
▁Around	-3966
▁ladies	-3967
▁nations	-3968
▁sunlight	-3969
▁Therefore	-3970
ik	-3971
ov	-3972
uer	-3973
ique	-3974
▁fulf	-3975
ealous	-3976
▁Thine	-3977
▁turning	-3978
ora	-3979
There	-3980
▁aloud	-3981
▁blaze	-3982
▁hadde	-3983
▁reply	-3984
▁Winter	-3985
▁farewell	-3986
yre	-3987
▁av	-3988
▁mi	-3989
reen	-3990
reme	-3991
▁grain	-3992
umbling	-3993
▁number	-3994
▁Whether	-3995
▁ec	-3996
unes	-3997
otion	-3998
▁infl	-3999
esterday	-4000
▁fellows	-4001
▁witness	-4002
oore	-4003
riage	-4004
▁Most	-4005
▁cave	-4006
▁coast	-4007
▁imper	-4008
▁perish	-4009
▁sleeps	-4010
▁wicked	-4011
ugh	-4012
▁VI	-4013
▁Cour	-4014
▁Home	-4015
▁beasts	-4016
▁rivers	-4017
▁victory	-4018
▁distress	-4019
▁conscious	-4020
▁ax	-4021
▁bud	-4022
▁net	-4023
▁Cast	-4024
▁nice	-4025
▁tiny	-4026
▁vest	-4027
▁board	-4028
▁solit	-4029
▁Master	-4030
▁hunger	-4031
▁mournful	-4032
▁Sometimes	-4033
LL	-4034
▁Morn	-4035
▁Thro	-4036
▁Being	-4037
▁paths	-4038
▁whirl	-4039
▁plains	-4040
▁beauteous	-4041
sc	-4042
form	-4043
▁Phil	-4044
▁crying	-4045
▁pursue	-4046
▁crystal	-4047
St	-4048
itch	-4049
▁wot	-4050
▁dame	-4051
▁obsc	-4052
▁pens	-4053
▁grove	-4054
▁tramp	-4055
▁wants	-4056
▁threat	-4057
▁dreamed	-4058
fts	-4059
chen	-4060
▁pack	-4061
▁ceased	-4062
▁infant	-4063
▁sullen	-4064
▁scatter	-4065
▁started	-4066
▁sublime	-4067
▁Untitled	-4068
▁careless	-4069
▁Gen	-4070
▁cam	-4071
▁det	-4072
ility	-4073
▁Jack	-4074
▁Stra	-4075
▁void	-4076
▁deser	-4077
▁guilt	-4078
▁company	-4079
▁express	-4080
▁stirred	-4081
▁worship	-4082
▁forehead	-4083
▁everywhere	-4084
aly	-4085
elve	-4086
rets	-4087
▁belie	-4088
▁chains	-4089
▁harvest	-4090
▁rapture	-4091
ium	-4092
▁Dr	-4093
▁Dev	-4094
▁Pres	-4095
▁rank	-4096
▁tells	-4097
▁Although	-4098
▁Fore	-4099
▁dove	-4100
▁prot	-4101
▁nearer	-4102
,)	-4103
▁Tre	-4104
ently	-4105
▁fare	-4106
▁beard	-4107
▁crack	-4108
▁renew	-4109
▁mirror	-4110
▁surprise	-4111
▁Lond	-4112
▁cott	-4113
ounded	-4114
▁fills	-4115
▁tempt	-4116
▁minute	-4117
▁Freedom	-4118
▁calling	-4119
▁picture	-4120
▁success	-4121
▁evermore	-4122
▁memories	-4123
ws	-4124
▁Er	-4125
acle	-4126
foot	-4127
noon	-4128
wixt	-4129
▁mal	-4130
▁Keep	-4131
▁Poet	-4132
▁Stri	-4133
▁slay	-4134
▁faded	-4135
▁knife	-4136
▁destroy	-4137
As	-4138
▁Ge	-4139
arse	-4140
itting	-4141
▁Faith	-4142
▁strive	-4143
▁instant	-4144
tic	-4145
wed	-4146
▁Sur	-4147
elled	-4148
▁Sure	-4149
▁vine	-4150
▁Green	-4151
▁knock	-4152
▁stock	-4153
▁attend	-4154
▁windows	-4155
▁solitude	-4156
ES	-4157
icy	-4158
zed	-4159
▁craw	-4160
▁load	-4161
▁stag	-4162
▁Think	-4163
▁Bright	-4164
▁whatever	-4165
ugg	-4166
▁lat	-4167
▁neg	-4168
▁helm	-4169
▁enemy	-4170
▁deadly	-4171
▁wanton	-4172
▁glowing	-4173
▁"'	-4174
▁Co	-4175
▁Tom	-4176
ution	-4177
▁hush	-4178
▁leads	-4179
▁sands	-4180
sm	-4181
▁Ant	-4182
▁ham	-4183
▁Jove	-4184
▁wars	-4185
▁prime	-4186
▁stead	-4187
▁houses	-4188
▁hungry	-4189
▁myster	-4190
▁beloved	-4191
ras	-4192
ancho	-4193
▁isle	-4194
▁State	-4195
▁didst	-4196
▁corner	-4197
▁damsel	-4198
▁brothers	-4199
pet	-4200
ros	-4201
hind	-4202
ision	-4203
▁prim	-4204
▁House	-4205
▁London	-4206
▁couldn	-4207
▁tumult	-4208
▁Li	-4209
irds	-4210
▁sup	-4211
verse	-4212
erable	-4213
▁brows	-4214
▁third	-4215
▁Perhaps	-4216
sl	-4217
ham	-4218
yng	-4219
▁Jew	-4220
▁ann	-4221
▁fan	-4222
▁rap	-4223
▁hire	-4224
▁River	-4225
▁bower	-4226
▁folks	-4227
▁sails	-4228
▁spray	-4229
▁castle	-4230
▁dismay	-4231
▁forlorn	-4232
▁service	-4233
▁friendly	-4234
▁gathered	-4235
So	-4236
uts	-4237
mers	-4238
▁Tri	-4239
▁June	-4240
▁Pers	-4241
▁trail	-4242
▁favour	-4243
▁horror	-4244
▁troubled	-4245
▁bridge	-4246
▁onward	-4247
▁approach	-4248
attle	-4249
▁folly	-4250
▁roots	-4251
▁Beside	-4252
▁driven	-4253
▁mystic	-4254
▁opened	-4255
▁thyself	-4256
▁scarcely	-4257
ism	-4258
wing	-4259
▁lif	-4260
▁obl	-4261
▁offe	-4262
▁wight	-4263
▁barren	-4264
▁already	-4265
▁knights	-4266
▁shoulder	-4267
?”	-4268
elf	-4269
ceed	-4270
iche	-4271
teen	-4272
▁mud	-4273
ifted	-4274
▁fret	-4275
▁shun	-4276
orious	-4277
▁Other	-4278
▁choice	-4279
▁square	-4280
▁subtle	-4281
▁flowing	-4282
Ah	-4283
Be	-4284
cast	-4285
ynge	-4286
▁vap	-4287
comes	-4288
▁Mine	-4289
▁Star	-4290
▁prin	-4291
▁scenes	-4292
▁Ty	-4293
bble	-4294
▁Ger	-4295
▁nod	-4296
isted	-4297
▁wash	-4298
▁Alone	-4299
▁Venus	-4300
arewell	-4301
▁nation	-4302
▁Sn	-4303
grim	-4304
▁vol	-4305
▁balm	-4306
▁ripp	-4307
▁innocent	-4308
How	-4309
ange	-4310
udes	-4311
▁Stre	-4312
▁jest	-4313
▁pomp	-4314
▁waits	-4315
▁wilder	-4316
▁prayers	-4317
▁TH	-4318
▁hy	-4319
▁army	-4320
▁incl	-4321
▁wist	-4322
▁ashes	-4323
▁sever	-4324
▁transp	-4325
▁soldiers	-4326
▁eff	-4327
▁Seem	-4328
▁arch	-4329
▁foll	-4330
▁roam	-4331
▁today	-4332
ination	-4333
▁hither	-4334
▁display	-4335
▁stopped	-4336
▁blessing	-4337
▁thousands	-4338
ploy	-4339
semb	-4340
▁env	-4341
cence	-4342
isher	-4343
▁Scot	-4344
▁thei	-4345
acious	-4346
▁flows	-4347
▁honor	-4348
▁visit	-4349
▁burned	-4350
▁plough	-4351
▁British	-4352
▁feature	-4353
▁tongues	-4354
oft	-4355
rice	-4356
▁der	-4357
▁iss	-4358
▁lily	-4359
▁palm	-4360
▁sped	-4361
▁sooth	-4362
▁speaks	-4363
▁longing	-4364
▁glittering	-4365
jo	-4366
cket	-4367
▁eas	-4368
▁coat	-4369
▁grate	-4370
▁monst	-4371
ancholy	-4372
▁stayed	-4373
▁wither	-4374
▁fathers	-4375
▁instead	-4376
▁parting	-4377
▁passions	-4378
bus	-4379
▁Ra	-4380
▁az	-4381
orts	-4382
umed	-4383
▁box	-4384
place	-4385
▁gown	-4386
▁hers	-4387
▁meek	-4388
▁apple	-4389
▁travel	-4390
▁earnest	-4391
▁various	-4392
God	-4393
▁eld	-4394
▁pop	-4395
there	-4396
▁tent	-4397
▁Peter	-4398
▁burns	-4399
▁echoes	-4400
▁chamber	-4401
▁walking	-4402
▁Ser	-4403
▁Sol	-4404
▁Tem	-4405
▁Vict	-4406
▁pains	-4407
▁smart	-4408
▁renown	-4409
▁foreign	-4410
nel	-4411
rab	-4412
▁dig	-4413
▁myn	-4414
perate	-4415
▁spend	-4416
▁peaceful	-4417
:—	-4418
When	-4419
oles	-4420
onel	-4421
▁Lau	-4422
▁bul	-4423
▁amaz	-4424
▁babe	-4425
▁sell	-4426
ancelot	-4427
▁French	-4428
iliar	-4429
▁Pray	-4430
▁doing	-4431
▁saved	-4432
▁rolled	-4433
▁showed	-4434
▁stretch	-4435
▁breaking	-4436
IT	-4437
Why	-4438
can	-4439
ify	-4440
▁fie	-4441
▁lou	-4442
acher	-4443
▁lore	-4444
▁rear	-4445
▁suns	-4446
▁chant	-4447
▁compass	-4448
ser	-4449
tled	-4450
▁yes	-4451
ences	-4452
▁Fame	-4453
▁gale	-4454
▁vows	-4455
stance	-4456
▁grieve	-4457
▁hearth	-4458
▁Fortune	-4459
▁beauties	-4460
▁shepherd	-4461
▁sweetness	-4462
▁Does	-4463
▁Next	-4464
▁hist	-4465
▁magn	-4466
▁rays	-4467
▁blank	-4468
▁ended	-4469
▁shock	-4470
▁spect	-4471
nie	-4472
asse	-4473
▁sacrif	-4474
cer	-4475
vin	-4476
▁Ben	-4477
▁lawn	-4478
▁repe	-4479
▁blush	-4480
▁Indian	-4481
▁disapp	-4482
▁footsteps	-4483
▁somewhere	-4484
ithe	-4485
▁Cat	-4486
field	-4487
ustom	-4488
▁lass	-4489
▁ignor	-4490
▁sweat	-4491
▁wanted	-4492
▁America	-4493
rol	-4494
ulf	-4495
ura	-4496
▁han	-4497
▁bees	-4498
▁goal	-4499
▁surf	-4500
ancing	-4501
▁drank	-4502
▁paper	-4503
▁tight	-4504
▁cursed	-4505
▁thanks	-4506
▁carried	-4507
▁Lancelot	-4508
▁helpless	-4509
▁splendid	-4510
▁shoulders	-4511
▁friendship	-4512
▁mu	-4513
ouch	-4514
stri	-4515
▁cop	-4516
▁vig	-4517
▁yer	-4518
▁brid	-4519
▁Bring	-4520
▁laure	-4521
▁level	-4522
▁sides	-4523
▁withd	-4524
▁mystery	-4525
▁subject	-4526
).	-4527
▁Cur	-4528
▁Lay	-4529
elest	-4530
▁thor	-4531
▁bands	-4532
▁secure	-4533
quet	-4534
▁ves	-4535
ously	-4536
▁fest	-4537
▁unre	-4538
▁Stand	-4539
▁belong	-4540
▁slaves	-4541
▁waited	-4542
▁jealous	-4543
▁rolling	-4544
▁breathing	-4545
cle	-4546
edy	-4547
atic	-4548
▁Min	-4549
▁unl	-4550
▁Comp	-4551
▁Roger	-4552
▁family	-4553
▁language	-4554
▁vengeance	-4555
ii	-4556
▁Wat	-4557
▁ard	-4558
▁Scar	-4559
▁anim	-4560
▁ceas	-4561
▁harb	-4562
▁sins	-4563
▁Kings	-4564
▁strove	-4565
▁breasts	-4566
▁wonderful	-4567
gn	-4568
ada	-4569
▁ol	-4570
ival	-4571
▁unm	-4572
▁sage	-4573
▁Autumn	-4574
▁satisf	-4575
Al	-4576
ec	-4577
▁’	-4578
All	-4579
gle	-4580
olt	-4581
yle	-4582
▁fem	-4583
▁kin	-4584
▁Saint	-4585
▁Story	-4586
▁trade	-4587
lasting	-4588
▁string	-4589
non	-4590
▁Sy	-4591
ilty	-4592
ldom	-4593
rawn	-4594
▁peer	-4595
▁drove	-4596
▁shrill	-4597
▁stormy	-4598
▁crowned	-4599
▁sweetly	-4600
▁written	-4601
▁scattered	-4602
try	-4603
ital	-4604
iven	-4605
▁Imp	-4606
▁pool	-4607
earing	-4608
▁bowed	-4609
▁Behind	-4610
▁sorrows	-4611
▁strings	-4612
▁trumpet	-4613
▁fragrant	-4614
uce	-4615
▁Set	-4616
▁silk	-4617
▁float	-4618
▁direct	-4619
▁Ten	-4620
▁haw	-4621
▁suc	-4622
▁City	-4623
▁bush	-4624
▁lull	-4625
▁muse	-4626
▁midst	-4627
▁circle	-4628
▁killed	-4629
▁steady	-4630
▁waking	-4631
▁dropped	-4632
▁fairest	-4633
▁yesterday	-4634
pel	-4635
you	-4636
▁bott	-4637
▁alike	-4638
▁anger	-4639
▁Church	-4640
▁begins	-4641
▁intell	-4642
▁shadowy	-4643
▁chest	-4644
▁dared	-4645
▁month	-4646
▁solid	-4647
▁graves	-4648
▁Paradise	-4649
▁business	-4650
▁passionate	-4651
▁Id	-4652
▁Luc	-4653
▁cal	-4654
▁Town	-4655
▁ecst	-4656
▁shat	-4657
illing	-4658
▁champ	-4659
▁seeds	-4660
▁former	-4661
▁taking	-4662
▁wreath	-4663
▁complete	-4664
▁youthful	-4665
fly	-4666
▁Af	-4667
cken	-4668
▁Div	-4669
▁Dro	-4670
▁End	-4671
▁Four	-4672
▁furn	-4673
▁sank	-4674
▁draws	-4675
▁rings	-4676
▁stair	-4677
▁steal	-4678
orthern	-4679
▁reward	-4680
▁upward	-4681
▁glimmer	-4682
▁withered	-4683
ino	-4684
▁Rest	-4685
▁mars	-4686
lected	-4687
▁proof	-4688
▁returned	-4689
▁ourselves	-4690
▁bal	-4691
▁ord	-4692
▁pip	-4693
▁rom	-4694
gment	-4695
nings	-4696
▁Hold	-4697
▁anew	-4698
▁gild	-4699
▁Whence	-4700
▁Mid	-4701
▁Sav	-4702
▁Forg	-4703
▁unha	-4704
▁arose	-4705
▁nymph	-4706
▁scent	-4707
▁shown	-4708
▁stout	-4709
▁truly	-4710
▁sovere	-4711
CE	-4712
Who	-4713
bird	-4714
ults	-4715
oring	-4716
xious	-4717
▁fart	-4718
▁sunk	-4719
▁lance	-4720
▁meadow	-4721
▁murder	-4722
▁prayed	-4723
wart	-4724
yard	-4725
▁ens	-4726
▁kit	-4727
▁whan	-4728
▁fever	-4729
▁dreary	-4730
▁wholly	-4731
▁although	-4732
ols	-4733
▁sho	-4734
▁bred	-4735
▁breed	-4736
▁cattle	-4737
▁famous	-4738
▁pressed	-4739
▁receive	-4740
▁vanished	-4741
▁afternoon	-4742
isc	-4743
tin	-4744
osen	-4745
uses	-4746
▁---	-4747
▁Boy	-4748
▁Cold	-4749
▁Pain	-4750
▁clasp	-4751
▁fruits	-4752
▁pardon	-4753
▁senses	-4754
aughters	-4755
▁Captain	-4756
▁liberty	-4757
▁splendour	-4758
▁esc	-4759
▁pan	-4760
▁vex	-4761
▁Maid	-4762
▁aged	-4763
▁cock	-4764
▁eagle	-4765
▁roads	-4766
▁soule	-4767
hearted	-4768
▁middle	-4769
uing	-4770
▁Mark	-4771
▁brim	-4772
▁Comes	-4773
▁offer	-4774
▁twain	-4775
▁except	-4776
▁gloomy	-4777
gue	-4778
▁Pra	-4779
asion	-4780
▁drum	-4781
▁thund	-4782
▁wrote	-4783
▁ascend	-4784
▁intent	-4785
▁watching	-4786
▁melancholy	-4787
▁cy	-4788
aches	-4789
▁bowl	-4790
▁rail	-4791
▁weap	-4792
▁agony	-4793
▁relig	-4794
▁depths	-4795
▁haught	-4796
▁heroes	-4797
▁Aw	-4798
▁gn	-4799
▁Hen	-4800
ative	-4801
venge	-4802
▁pink	-4803
▁thow	-4804
▁minst	-4805
▁seyde	-4806
▁weeds	-4807
▁letter	-4808
▁letters	-4809
very	-4810
▁bas	-4811
▁ing	-4812
▁ori	-4813
▁shew	-4814
▁months	-4815
▁recall	-4816
▁thrust	-4817
▁whilst	-4818
▁shelter	-4819
▁winding	-4820
▁gleaming	-4821
ias	-4822
aret	-4823
forth	-4824
▁Away	-4825
▁poets	-4826
▁lament	-4827
▁flutter	-4828
▁generous	-4829
cip	-4830
gain	-4831
when	-4832
anced	-4833
antic	-4834
chief	-4835
quent	-4836
▁appl	-4837
▁worm	-4838
▁fools	-4839
▁effect	-4840
▁theirs	-4841
▁desires	-4842
▁constant	-4843
▁patience	-4844
▁childhood	-4845
▁Rod	-4846
▁Sad	-4847
▁Bill	-4848
▁doub	-4849
▁beach	-4850
▁tales	-4851
▁modest	-4852
▁natural	-4853
▁tremble	-4854
▁greatest	-4855
cal	-4856
fle	-4857
irl	-4858
iate	-4859
itor	-4860
rust	-4861
they	-4862
▁Cam	-4863
▁fid	-4864
inion	-4865
▁lark	-4866
▁quar	-4867
▁woke	-4868
▁abide	-4869
▁exist	-4870
▁range	-4871
▁shoot	-4872
ishment	-4873
▁daring	-4874
ete	-4875
ubb	-4876
▁Cy	-4877
▁dey	-4878
▁mor	-4879
▁rum	-4880
▁Went	-4881
▁Grace	-4882
▁horiz	-4883
▁seeks	-4884
▁inward	-4885
▁misery	-4886
▁dearest	-4887
▁bere	-4888
▁resp	-4889
umbled	-4890
▁hangs	-4891
▁steam	-4892
▁escape	-4893
▁liquid	-4894
▁thrice	-4895
▁respect	-4896
▁Remember	-4897
▁neighbour	-4898
isy	-4899
▁Mel	-4900
▁Mir	-4901
stone	-4902
▁able	-4903
▁deer	-4904
▁fray	-4905
▁plac	-4906
iction	-4907
▁saint	-4908
▁billows	-4909
▁slender	-4910
rey	-4911
▁ay	-4912
okes	-4913
opes	-4914
osop	-4915
▁nine	-4916
▁later	-4917
▁trick	-4918
▁heights	-4919
▁Ale	-4920
▁Cal	-4921
▁Wit	-4922
▁lap	-4923
▁Conf	-4924
▁Forth	-4925
▁glide	-4926
▁perce	-4927
▁separ	-4928
▁sorry	-4929
▁sprang	-4930
▁wasted	-4931
▁nighting	-4932
IS	-4933
hel	-4934
▁Ly	-4935
Come	-4936
ruct	-4937
▁Age	-4938
▁Hon	-4939
▁Put	-4940
▁Fall	-4941
▁Ther	-4942
▁robe	-4943
▁Cross	-4944
▁Swift	-4945
▁dissol	-4946
▁passes	-4947
▁sholde	-4948
▁current	-4949
▁declare	-4950
▁monster	-4951
omen	-4952
▁Aye	-4953
▁shy	-4954
isten	-4955
▁Fire	-4956
▁meat	-4957
▁snake	-4958
▁shroud	-4959
▁meadows	-4960
▁sweetest	-4961
▁listening	-4962
po	-4963
▁Sk	-4964
▁Den	-4965
▁Fit	-4966
▁Rel	-4967
ugust	-4968
unken	-4969
▁lays	-4970
▁reel	-4971
▁deeper	-4972
▁wheels	-4973
▁colours	-4974
▁manhood	-4975
▁numbers	-4976
ai	-4977
mo	-4978
uns	-4979
ilus	-4980
just	-4981
▁isn	-4982
▁Adam	-4983
▁diam	-4984
▁lyre	-4985
▁rede	-4986
▁repro	-4987
▁wouldn	-4988
▁captive	-4989
▁highest	-4990
▁torrent	-4991
▁floating	-4992
▁Dri	-4993
▁Low	-4994
▁Squ	-4995
▁cho	-4996
igned	-4997
white	-4998
▁Gent	-4999
▁dazz	-5000
▁vile	-5001
▁Hence	-5002
▁azure	-5003
▁snows	-5004
▁accept	-5005
▁ghosts	-5006
▁wilderness	-5007
uz	-5008
iety	-5009
ailed	-5010
▁Blue	-5011
▁mans	-5012
ardens	-5013
▁craft	-5014
▁lowly	-5015
▁beating	-5016
▁valiant	-5017
▁valleys	-5018
▁wonders	-5019
rad	-5020
arts	-5021
▁key	-5022
▁Slow	-5023
▁crad	-5024
▁deny	-5025
▁rend	-5026
▁pines	-5027
ounding	-5028
▁bounds	-5029
▁excell	-5030
▁gleams	-5031
▁temper	-5032
▁crossed	-5033
▁entered	-5034
▁retreat	-5035
▁everlasting	-5036
▁Eu	-5037
▁ze	-5038
iour	-5039
▁Cor	-5040
▁gru	-5041
▁Mind	-5042
▁ripe	-5043
▁flock	-5044
▁maybe	-5045
▁stole	-5046
▁Return	-5047
▁guilty	-5048
▁seldom	-5049
▁cunning	-5050
▁Farewell	-5051
key	-5052
aker	-5053
▁Inst	-5054
▁quit	-5055
athing	-5056
▁Power	-5057
▁caval	-5058
▁suppl	-5059
▁accord	-5060
▁lilies	-5061
▁placed	-5062
▁regret	-5063
▁shiver	-5064
▁vanish	-5065
▁wretch	-5066
elestial	-5067
▁forests	-5068
▁perfume	-5069
▁wandered	-5070
IR	-5071
uit	-5072
iter	-5073
▁seal	-5074
▁Sorrow	-5075
▁kindred	-5076
▁thither	-5077
▁Ph	-5078
gent	-5079
unch	-5080
▁Them	-5081
▁bars	-5082
▁dome	-5083
▁lend	-5084
▁spur	-5085
▁wert	-5086
inkled	-5087
▁wreck	-5088
▁gazing	-5089
▁blowing	-5090
▁madness	-5091
▁scarlet	-5092
▁solitary	-5093
▁Sa	-5094
edge	-5095
zing	-5096
▁wag	-5097
ality	-5098
order	-5099
otted	-5100
ually	-5101
▁bids	-5102
▁subd	-5103
▁wolf	-5104
idence	-5105
▁Bless	-5106
▁aloft	-5107
▁joyous	-5108
▁roaring	-5109
▁following	-5110
US	-5111
ims	-5112
▁wy	-5113
abel	-5114
will	-5115
▁Mor	-5116
▁fel	-5117
▁job	-5118
▁rob	-5119
asted	-5120
▁Happ	-5121
▁Hark	-5122
▁cler	-5123
▁farm	-5124
▁symp	-5125
▁wasn	-5126
▁drear	-5127
▁grasp	-5128
▁linger	-5129
▁melody	-5130
ban	-5131
ieu	-5132
van	-5133
They	-5134
idden	-5135
▁Mart	-5136
▁deaf	-5137
▁sust	-5138
▁Brown	-5139
▁fifty	-5140
▁refuse	-5141
▁Brother	-5142
aks	-5143
apt	-5144
▁Ill	-5145
erved	-5146
▁Bell	-5147
▁True	-5148
▁sate	-5149
▁Roman	-5150
▁pearl	-5151
▁realm	-5152
▁sadly	-5153
▁selfe	-5154
▁sparkling	-5155
eem	-5156
▁eek	-5157
▁lur	-5158
asped	-5159
gress	-5160
▁Doth	-5161
▁Eden	-5162
▁Wait	-5163
▁prow	-5164
▁susp	-5165
▁exper	-5166
▁glare	-5167
▁quoth	-5168
▁silly	-5169
▁shower	-5170
▁playing	-5171
▁suppose	-5172
▁desolate	-5173
▁dy	-5174
gypt	-5175
quis	-5176
▁Dan	-5177
▁Hum	-5178
▁Jim	-5179
▁deb	-5180
▁dye	-5181
▁rud	-5182
apers	-5183
▁tyme	-5184
▁wail	-5185
▁chose	-5186
▁color	-5187
▁nurse	-5188
▁rememb	-5189
ara	-5190
▁Ce	-5191
aunt	-5192
▁bru	-5193
▁ess	-5194
▁wiv	-5195
vering	-5196
▁March	-5197
▁depth	-5198
▁peril	-5199
▁pulse	-5200
▁troop	-5201
▁talked	-5202
▁diamond	-5203
▁justice	-5204
▁conscience	-5205
▁underneath	-5206
lt	-5207
Let	-5208
▁Fer	-5209
▁VII	-5210
▁Dist	-5211
▁cure	-5212
▁employ	-5213
▁groves	-5214
▁spoken	-5215
irm	-5216
▁fay	-5217
▁wil	-5218
asant	-5219
twixt	-5220
▁arts	-5221
isible	-5222
▁couch	-5223
▁pious	-5224
▁chosen	-5225
▁silken	-5226
▁eternity	-5227
Is	-5228
vet	-5229
line	-5230
▁conv	-5231
▁rele	-5232
▁Woman	-5233
▁pract	-5234
▁riches	-5235
▁twelve	-5236
▁vessel	-5237
▁pilgrim	-5238
▁dwelling	-5239
▁sovereign	-5240
aud	-5241
ker	-5242
▁vac	-5243
lings	-5244
▁emer	-5245
▁Crist	-5246
▁spoil	-5247
▁straw	-5248
▁figure	-5249
▁opening	-5250
▁cheerful	-5251
▁AN	-5252
▁egg	-5253
▁Desp	-5254
▁chat	-5255
▁mien	-5256
▁Leave	-5257
▁crept	-5258
▁plung	-5259
▁shriek	-5260
▁wintry	-5261
▁anxious	-5262
▁leaving	-5263
▁western	-5264
bu	-5265
Nay	-5266
bye	-5267
bell	-5268
rish	-5269
rope	-5270
▁Med	-5271
▁Tow	-5272
▁Much	-5273
▁womb	-5274
▁bleak	-5275
▁clock	-5276
▁sinks	-5277
▁wears	-5278
▁Strong	-5279
aire	-5280
▁fox	-5281
uence	-5282
▁damp	-5283
▁Beaut	-5284
▁Henry	-5285
▁haply	-5286
▁quench	-5287
▁sighed	-5288
▁swords	-5289
▁thrill	-5290
▁spreads	-5291
▁sweeter	-5292
▁grateful	-5293
ault	-5294
▁LXXX	-5295
▁Speak	-5296
▁lifts	-5297
▁quart	-5298
▁shoes	-5299
▁Unless	-5300
▁fancies	-5301
▁parents	-5302
▁complain	-5303
▁disgrace	-5304
▁overhead	-5305
▁beginning	-5306
▁daughters	-5307
▁desperate	-5308
aps	-5309
▁Ay	-5310
erer	-5311
▁san	-5312
▁wer	-5313
▁beds	-5314
▁dish	-5315
▁melt	-5316
ighted	-5317
▁dwelt	-5318
▁sober	-5319
▁vainly	-5320
▁advance	-5321
▁drowned	-5322
▁prevail	-5323
quil	-5324
▁Air	-5325
▁Dem	-5326
▁Pho	-5327
▁Sal	-5328
blest	-5329
resse	-5330
▁Hand	-5331
▁coff	-5332
▁yore	-5333
▁shouts	-5334
▁forgive	-5335
▁haughty	-5336
▁message	-5337
▁serpent	-5338
▁Mountain	-5339
▁gladness	-5340
▁stronger	-5341
▁lan	-5342
▁saf	-5343
▁voy	-5344
Where	-5345
ashes	-5346
▁Care	-5347
▁Fell	-5348
▁Mars	-5349
ipping	-5350
▁Court	-5351
▁James	-5352
▁cloth	-5353
▁plays	-5354
▁corpse	-5355
▁flaming	-5356
▁swallow	-5357
▁familiar	-5358
▁murmuring	-5359
▁perchance	-5360
▁returning	-5361
Thou	-5362
With	-5363
oted	-5364
lesse	-5365
▁Marm	-5366
▁Prin	-5367
▁hoof	-5368
▁sear	-5369
▁stem	-5370
▁surv	-5371
▁lower	-5372
▁rules	-5373
▁marked	-5374
▁wished	-5375
▁Something	-5376
ante	-5377
astic	-5378
ighty	-5379
▁bard	-5380
▁damn	-5381
▁fling	-5382
ameless	-5383
▁banner	-5384
▁import	-5385
▁wishes	-5386
▁pensive	-5387
▁swelling	-5388
maid	-5389
pper	-5390
▁nay	-5391
▁unp	-5392
▁vel	-5393
▁dere	-5394
▁Angel	-5395
▁Close	-5396
▁Egypt	-5397
▁onely	-5398
▁swing	-5399
▁realms	-5400
▁sprung	-5401
▁Strange	-5402
▁working	-5403
▁backward	-5404
▁blooming	-5405
ET	-5406
▁Es	-5407
ghte	-5408
rian	-5409
umin	-5410
▁Sam	-5411
▁dewy	-5412
terest	-5413
▁flick	-5414
▁homes	-5415
▁ranks	-5416
▁signs	-5417
▁smote	-5418
▁Things	-5419
▁giving	-5420
▁nobler	-5421
▁account	-5422
▁happier	-5423
▁mingled	-5424
'.	-5425
EA	-5426
rap	-5427
▁Te	-5428
ator	-5429
utch	-5430
▁Imm	-5431
▁Mac	-5432
▁Pur	-5433
▁sex	-5434
alled	-5435
▁Free	-5436
▁guns	-5437
▁heap	-5438
▁hind	-5439
▁mile	-5440
▁pond	-5441
▁test	-5442
▁Crown	-5443
▁avail	-5444
▁bothe	-5445
▁haunt	-5446
▁maids	-5447
▁sting	-5448
▁danced	-5449
▁sisters	-5450
▁warriors	-5451
▁suffering	-5452
br	-5453
Then	-5454
ighs	-5455
isse	-5456
rels	-5457
▁non	-5458
▁Kind	-5459
▁fern	-5460
▁flown	-5461
▁ghast	-5462
▁hurry	-5463
▁unfold	-5464
▁Morning	-5465
▁warning	-5466
ob	-5467
ggy	-5468
ills	-5469
work	-5470
▁Ros	-5471
▁bag	-5472
osing	-5473
using	-5474
▁Duke	-5475
▁Tree	-5476
▁zeal	-5477
▁fence	-5478
▁toils	-5479
▁action	-5480
▁female	-5481
▁patter	-5482
▁hearing	-5483
▁seasons	-5484
▁whispered	-5485
athy	-5486
rung	-5487
▁bon	-5488
ospit	-5489
twere	-5490
udden	-5491
▁Beat	-5492
▁Lost	-5493
▁eyel	-5494
▁moor	-5495
▁rein	-5496
▁kneel	-5497
▁freely	-5498
▁covered	-5499
▁glories	-5500
▁history	-5501
▁comrades	-5502
EL	-5503
▁ken	-5504
athes	-5505
▁Hall	-5506
▁bene	-5507
▁cling	-5508
▁snowy	-5509
▁vague	-5510
▁Forget	-5511
▁bestow	-5512
▁failed	-5513
▁growth	-5514
▁warmth	-5515
▁becomes	-5516
▁bending	-5517
▁marriage	-5518
▁centuries	-5519
ado	-5520
arn	-5521
▁ju	-5522
aped	-5523
▁ole	-5524
▁rod	-5525
▁Burn	-5526
▁spin	-5527
▁belly	-5528
▁final	-5529
▁habit	-5530
▁degree	-5531
▁island	-5532
▁nobody	-5533
▁repent	-5534
▁married	-5535
▁mothers	-5536
▁pleased	-5537
▁someone	-5538
▁swiftly	-5539
▁torment	-5540
▁changing	-5541
▁sacrifice	-5542
▁OF	-5543
▁Eve	-5544
▁ber	-5545
cends	-5546
▁chim	-5547
▁crou	-5548
▁fant	-5549
▁lamps	-5550
▁manly	-5551
▁named	-5552
▁stage	-5553
▁wakes	-5554
▁genius	-5555
▁lustre	-5556
▁raging	-5557
▁thirty	-5558
▁furious	-5559
▁general	-5560
▁process	-5561
▁showers	-5562
▁strains	-5563
▁Whatever	-5564
irs	-5565
▁Acc	-5566
▁Hym	-5567
▁Inf	-5568
▁Lie	-5569
▁liv	-5570
▁Bird	-5571
▁Year	-5572
▁peep	-5573
▁tick	-5574
▁beats	-5575
▁bottom	-5576
▁strand	-5577
▁protect	-5578
▁rainbow	-5579
▁Children	-5580
▁fighting	-5581
▁hopeless	-5582
▁speaking	-5583
▁universe	-5584
RI	-5585
ona	-5586
▁Pan	-5587
oking	-5588
▁deal	-5589
▁impl	-5590
▁tame	-5591
▁verd	-5592
▁halls	-5593
▁loyal	-5594
▁wheat	-5595
▁Eternal	-5596
▁Marmion	-5597
▁however	-5598
▁sadness	-5599
▁pleasing	-5600
arer	-5601
▁Ast	-5602
▁Atl	-5603
▁Mur	-5604
▁Rom	-5605
▁obt	-5606
▁Alex	-5607
ivered	-5608
▁Scarce	-5609
▁fairer	-5610
▁record	-5611
▁violet	-5612
▁William	-5613
▁Eternity	-5614
OT	-5615
arf	-5616
▁Lu	-5617
rass	-5618
ules	-5619
▁Sin	-5620
▁ash	-5621
▁lent	-5622
▁scor	-5623
lessly	-5624
▁arrow	-5625
▁harsh	-5626
▁rises	-5627
ruction	-5628
▁feared	-5629
▁hushed	-5630
▁Goddess	-5631
▁hanging	-5632
▁downward	-5633
OM	-5634
rod	-5635
,---	-5636
iger	-5637
▁fog	-5638
▁hay	-5639
▁lak	-5640
mbers	-5641
▁Wood	-5642
▁doll	-5643
▁grin	-5644
▁mail	-5645
▁weed	-5646
▁moist	-5647
▁Except	-5648
▁folded	-5649
▁laughs	-5650
▁sighing	-5651
▁visions	-5652
gone	-5653
hall	-5654
▁inj	-5655
▁pos	-5656
▁una	-5657
erves	-5658
▁Aust	-5659
▁Ball	-5660
▁span	-5661
▁vert	-5662
▁revol	-5663
▁plenty	-5664
▁shakes	-5665
▁seeking	-5666
▁bleeding	-5667
▁features	-5668
▁surround	-5669
gly	-5670
owl	-5671
▁Att	-5672
▁civ	-5673
▁icy	-5674
ables	-5675
imate	-5676
▁Comm	-5677
▁anch	-5678
▁begu	-5679
▁rejo	-5680
▁Paris	-5681
▁Robin	-5682
▁burnt	-5683
▁merri	-5684
▁candle	-5685
▁impart	-5686
▁parted	-5687
▁Troilus	-5688
▁follows	-5689
▁somehow	-5690
▁temples	-5691
▁gathering	-5692
ING	-5693
▁fu	-5694
▁Pol	-5695
▁Ste	-5696
▁acqu	-5697
▁gest	-5698
▁poem	-5699
▁Spain	-5700
▁Water	-5701
▁flour	-5702
▁hound	-5703
▁piece	-5704
▁score	-5705
▁waving	-5706
▁breezes	-5707
▁hurried	-5708
▁murmurs	-5709
▁ringing	-5710
▁profound	-5711
?)	-5712
worn	-5713
▁Fly	-5714
▁Ori	-5715
▁Rec	-5716
▁esp	-5717
▁gem	-5718
▁VIII	-5719
▁jump	-5720
▁lock	-5721
▁myri	-5722
ainted	-5723
ignant	-5724
▁gained	-5725
▁regard	-5726
▁cottage	-5727
▁phantom	-5728
!—	-5729
don	-5730
oop	-5731
look	-5732
▁Bur	-5733
▁Fle	-5734
▁Jul	-5735
after	-5736
press	-5737
▁Pale	-5738
▁beer	-5739
▁buck	-5740
▁thra	-5741
▁Fancy	-5742
outhern	-5743
▁Rogero	-5744
▁advent	-5745
▁fading	-5746
▁paused	-5747
▁served	-5748
▁setting	-5749
▁monstrous	-5750
ader	-5751
some	-5752
▁Hard	-5753
▁Play	-5754
▁buds	-5755
▁gorge	-5756
▁stamp	-5757
▁theme	-5758
▁Garden	-5759
▁coward	-5760
▁orchar	-5761
▁hideous	-5762
▁moments	-5763
▁breathed	-5764
ida	-5765
rem	-5766
anks	-5767
lock	-5768
▁Int	-5769
▁Lat	-5770
▁Ver	-5771
acles	-5772
▁Find	-5773
▁Hast	-5774
▁Shad	-5775
▁leve	-5776
▁meth	-5777
ifting	-5778
▁Ocean	-5779
▁demon	-5780
▁scant	-5781
▁treat	-5782
▁Follow	-5783
▁gladly	-5784
▁pillow	-5785
▁proved	-5786
▁draught	-5787
▁ghastly	-5788
▁private	-5789
▁tangled	-5790
▁silently	-5791
▁stillness	-5792
lar	-5793
sec	-5794
▁Ru	-5795
▁ide	-5796
▁vul	-5797
▁Born	-5798
▁gets	-5799
▁check	-5800
▁haven	-5801
▁lords	-5802
▁Making	-5803
▁beggar	-5804
▁branch	-5805
▁sailor	-5806
▁source	-5807
▁wrongs	-5808
▁Monarch	-5809
▁stretched	-5810
▁treasures	-5811
--"	-5812
empl	-5813
ulls	-5814
▁Lou	-5815
▁mask	-5816
▁pile	-5817
enance	-5818
▁labor	-5819
▁torch	-5820
▁wives	-5821
inkling	-5822
▁borrow	-5823
▁bowers	-5824
▁floods	-5825
▁harmony	-5826
▁willing	-5827
▁Pleasure	-5828
▁proclaim	-5829
▁boundless	-5830
▁slaughter	-5831
Wh	-5832
rud	-5833
▁Je	-5834
bute	-5835
gard	-5836
▁Bed	-5837
▁Emp	-5838
▁Jer	-5839
▁Writ	-5840
▁slew	-5841
▁manif	-5842
▁rolls	-5843
▁August	-5844
▁prefer	-5845
▁obscure	-5846
▁Scotland	-5847
▁drinking	-5848
▁whispering	-5849
boy	-5850
iner	-5851
inth	-5852
▁Hur	-5853
▁Mrs	-5854
▁Val	-5855
▁aud	-5856
▁gau	-5857
bbles	-5858
▁Arab	-5859
▁Cond	-5860
▁Head	-5861
▁dews	-5862
▁unhe	-5863
flower	-5864
▁clust	-5865
▁raven	-5866
▁dwells	-5867
▁relief	-5868
▁repair	-5869
▁strikes	-5870
▁talking	-5871
▁finished	-5872
▁increase	-5873
iel	-5874
▁Tur	-5875
▁sod	-5876
close	-5877
verty	-5878
▁Near	-5879
▁Sail	-5880
▁Sund	-5881
▁airy	-5882
▁limp	-5883
▁Greek	-5884
▁agree	-5885
▁hoary	-5886
▁weave	-5887
▁Better	-5888
▁thorns	-5889
▁fragrance	-5890
▁loveliness	-5891
▁mysterious	-5892
She	-5893
oks	-5894
▁tin	-5895
ernal	-5896
umble	-5897
spring	-5898
▁hosts	-5899
▁melod	-5900
▁Second	-5901
▁counsel	-5902
▁daylight	-5903
gen	-5904
▁Ele	-5905
▁tid	-5906
▁tit	-5907
▁tot	-5908
▁wee	-5909
uthor	-5910
▁Hung	-5911
▁gust	-5912
▁heel	-5913
▁plum	-5914
▁sets	-5915
▁adore	-5916
▁dusky	-5917
▁rapid	-5918
▁safety	-5919
▁passage	-5920
▁flashing	-5921
▁Wherefore	-5922
▁affection	-5923
la	-5924
lest	-5925
ainty	-5926
▁Mean	-5927
▁glen	-5928
▁Blood	-5929
▁allow	-5930
▁chast	-5931
▁scour	-5932
▁suffe	-5933
▁Sudden	-5934
▁arrows	-5935
▁getting	-5936
▁radiance	-5937
▁somewhat	-5938
▁wondering	-5939
mos	-5940
oor	-5941
each	-5942
unce	-5943
▁Ask	-5944
▁Wel	-5945
▁Wis	-5946
dened	-5947
▁grat	-5948
▁size	-5949
▁ward	-5950
▁Ghost	-5951
▁dusty	-5952
▁rival	-5953
▁swore	-5954
itation	-5955
▁George	-5956
▁Majest	-5957
▁orange	-5958
▁points	-5959
▁meeting	-5960
yss	-5961
▁Kn	-5962
arks	-5963
gins	-5964
oning	-5965
orted	-5966
▁dign	-5967
▁dise	-5968
▁exha	-5969
▁gran	-5970
▁scan	-5971
▁Music	-5972
▁cabin	-5973
▁worsh	-5974
▁resist	-5975
▁Silence	-5976
▁horizon	-5977
▁kitchen	-5978
▁restore	-5979
▁supreme	-5980
▁struggle	-5981
▁understood	-5982
abb	-5983
vol	-5984
▁Et	-5985
arms	-5986
▁ger	-5987
▁owe	-5988
▁thi	-5989
ulate	-5990
▁Troy	-5991
▁reed	-5992
ground	-5993
itions	-5994
ointed	-5995
▁forty	-5996
▁mists	-5997
▁telle	-5998
▁Memory	-5999
▁blooms	-6000
▁marvel	-6001
▁flatter	-6002
▁pointed	-6003
▁prepare	-6004
▁lingering	-6005
Not	-6006
bra	-6007
gra	-6008
isp	-6009
▁Us	-6010
▁Grie	-6011
▁Pier	-6012
▁cred	-6013
▁grou	-6014
▁hark	-6015
▁lads	-6016
▁lamb	-6017
▁mete	-6018
▁tore	-6019
▁ugly	-6020
▁abode	-6021
▁ample	-6022
▁steer	-6023
▁States	-6024
▁demand	-6025
▁poured	-6026
▁destiny	-6027
▁farther	-6028
▁gardens	-6029
▁majesty	-6030
▁returns	-6031
▁consider	-6032
▁pictures	-6033
cest	-6034
▁Ass	-6035
▁haz	-6036
▁Walk	-6037
▁lute	-6038
▁shud	-6039
ollect	-6040
▁Proud	-6041
▁armed	-6042
▁poems	-6043
▁shudd	-6044
▁Angels	-6045
▁admire	-6046
▁armies	-6047
▁comrade	-6048
▁incense	-6049
▁keeping	-6050
▁happened	-6051
▁celestial	-6052
oh	-6053
eary	-6054
▁spy	-6055
othed	-6056
▁Dawn	-6057
▁hole	-6058
▁yawn	-6059
▁aband	-6060
▁slack	-6061
▁cliffs	-6062
▁divide	-6063
▁forced	-6064
▁manner	-6065
▁riding	-6066
▁feelings	-6067
▁garments	-6068
▁quivering	-6069
,-	-6070
AL	-6071
rum	-6072
from	-6073
mits	-6074
rite	-6075
▁inn	-6076
▁myr	-6077
beams	-6078
▁vice	-6079
▁bount	-6080
fulness	-6081
▁Europe	-6082
▁convey	-6083
▁heroic	-6084
▁pierce	-6085
▁despite	-6086
▁funeral	-6087
▁martial	-6088
▁tresses	-6089
▁unhappy	-6090
▁promised	-6091
gic	-6092
hys	-6093
nly	-6094
fire	-6095
this	-6096
▁Fro	-6097
▁ded	-6098
faced	-6099
flies	-6100
inkle	-6101
▁Word	-6102
▁airs	-6103
▁beck	-6104
▁clad	-6105
▁cook	-6106
▁desc	-6107
▁doon	-6108
▁phil	-6109
▁Stood	-6110
▁swich	-6111
▁resign	-6112
▁Besides	-6113
▁oppress	-6114
▁sinking	-6115
▁wherefore	-6116
cus	-6117
hor	-6118
urb	-6119
alem	-6120
▁bef	-6121
trees	-6122
▁neat	-6123
velled	-6124
▁class	-6125
▁cloak	-6126
▁concl	-6127
▁pangs	-6128
▁surge	-6129
▁tides	-6130
▁partic	-6131
▁accents	-6132
▁discern	-6133
▁brighter	-6134
▁circling	-6135
▁whispers	-6136
▁CH	-6137
hens	-6138
▁Six	-6139
▁jar	-6140
▁num	-6141
▁yea	-6142
▁bask	-6143
▁link	-6144
▁soar	-6145
▁boats	-6146
▁sable	-6147
▁squad	-6148
▁nearly	-6149
▁crowded	-6150
▁curtain	-6151
▁drunken	-6152
▁woodland	-6153
▁household	-6154
car	-6155
ollo	-6156
oure	-6157
uted	-6158
▁Ham	-6159
▁elo	-6160
▁ire	-6161
▁Mist	-6162
▁rais	-6163
mighty	-6164
▁doesn	-6165
▁timid	-6166
▁blithe	-6167
▁shaken	-6168
▁Charles	-6169
▁counter	-6170
▁strangers	-6171
Mid	-6172
uish	-6173
▁Sub	-6174
▁tak	-6175
isure	-6176
iting	-6177
stand	-6178
▁Left	-6179
▁cove	-6180
▁debt	-6181
▁tied	-6182
asured	-6183
▁Pride	-6184
▁brass	-6185
▁folds	-6186
▁hight	-6187
▁riche	-6188
▁Knight	-6189
▁hallow	-6190
▁spears	-6191
▁stairs	-6192
▁starts	-6193
▁velvet	-6194
▁holding	-6195
▁languid	-6196
▁mortals	-6197
▁whither	-6198
▁sounding	-6199
▁10	-6200
▁spl	-6201
athom	-6202
▁Snow	-6203
▁amber	-6204
▁event	-6205
▁rains	-6206
▁reeds	-6207
▁sends	-6208
▁stubb	-6209
▁cannon	-6210
▁griefs	-6211
▁sailed	-6212
▁Liberty	-6213
▁control	-6214
▁station	-6215
▁univers	-6216
▁delights	-6217
▁millions	-6218
▁remembered	-6219
ria	-6220
▁Cr	-6221
▁IX	-6222
▁Mc	-6223
▁Pa	-6224
▁Wi	-6225
▁Saw	-6226
▁tie	-6227
▁urn	-6228
icing	-6229
pense	-6230
▁Pand	-6231
▁Tears	-6232
▁admir	-6233
▁leaps	-6234
▁lonel	-6235
▁robes	-6236
▁sheet	-6237
▁snare	-6238
▁market	-6239
▁pearls	-6240
▁valour	-6241
▁changes	-6242
▁outward	-6243
▁creation	-6244
va	-6245
za	-6246
ods	-6247
uls	-6248
Here	-6249
onet	-6250
oped	-6251
ourn	-6252
▁Mal	-6253
▁Sch	-6254
▁coo	-6255
▁rot	-6256
itive	-6257
▁dash	-6258
▁Makes	-6259
▁boots	-6260
▁drows	-6261
▁prest	-6262
▁chorus	-6263
▁defend	-6264
▁laurel	-6265
▁departed	-6266
▁mistress	-6267
▁occasion	-6268
▁separate	-6269
VE	-6270
▁Dep	-6271
▁Sim	-6272
▁wha	-6273
▁Face	-6274
▁loue	-6275
▁shop	-6276
▁wits	-6277
▁yard	-6278
▁Devil	-6279
▁Helen	-6280
▁crazy	-6281
▁crush	-6282
▁horns	-6283
▁knelt	-6284
▁happen	-6285
▁missed	-6286
▁seized	-6287
▁concern	-6288
▁dressed	-6289
▁matters	-6290
▁discover	-6291
▁drooping	-6292
▁kindness	-6293
▁listened	-6294
▁substance	-6295
AM	-6296
low	-6297
who	-6298
rons	-6299
sect	-6300
▁Arm	-6301
aving	-6302
inity	-6303
▁Says	-6304
▁cord	-6305
▁slim	-6306
▁Hands	-6307
▁waist	-6308
▁dainty	-6309
▁dragon	-6310
▁petals	-6311
▁severe	-6312
▁vulgar	-6313
▁proudly	-6314
▁invisible	-6315
OD	-6316
acy	-6317
ann	-6318
▁IN	-6319
ynde	-6320
▁Bid	-6321
▁Off	-6322
▁Pen	-6323
thren	-6324
▁gulf	-6325
▁loos	-6326
▁puts	-6327
▁caves	-6328
▁dares	-6329
▁hides	-6330
▁centre	-6331
▁dismal	-6332
▁invent	-6333
▁modern	-6334
▁nevere	-6335
▁utmost	-6336
▁judgment	-6337
▁likewise	-6338
▁influence	-6339
▁nightingale	-6340
▁,	-6341
igs	-6342
▁Rh	-6343
▁Fra	-6344
▁Hor	-6345
ample	-6346
▁Bear	-6347
▁Rain	-6348
▁Rock	-6349
▁Supp	-6350
▁cows	-6351
▁hues	-6352
▁hunt	-6353
▁sche	-6354
▁wast	-6355
atient	-6356
leness	-6357
▁griev	-6358
▁moral	-6359
▁roofs	-6360
▁tones	-6361
▁aching	-6362
▁flocks	-6363
▁fondly	-6364
▁mantle	-6365
▁ruined	-6366
▁sweets	-6367
▁thresh	-6368
▁winged	-6369
▁ecstasy	-6370
▁sailing	-6371
any	-6372
ige	-6373
lde	-6374
ogn	-6375
irts	-6376
ivid	-6377
▁Bay	-6378
aping	-6379
gging	-6380
inger	-6381
▁anon	-6382
▁lets	-6383
▁slip	-6384
apping	-6385
▁ahead	-6386
▁deeps	-6387
▁inner	-6388
▁ripen	-6389
▁chaste	-6390
▁groans	-6391
▁overth	-6392
▁Beautiful	-6393
By	-6394
een	-6395
ipt	-6396
osh	-6397
▁yo	-6398
ibly	-6399
pass	-6400
rove	-6401
▁Bal	-6402
▁Inv	-6403
▁Way	-6404
▁hap	-6405
grown	-6406
▁Virt	-6407
▁lane	-6408
▁merc	-6409
▁owne	-6410
▁Voice	-6411
▁crave	-6412
▁Praise	-6413
▁afford	-6414
▁retire	-6415
▁sevent	-6416
▁soothe	-6417
▁spheres	-6418
▁blushing	-6419
▁confusion	-6420
▁innocence	-6421
▁Av	-6422
▁hu	-6423
gend	-6424
igne	-6425
ompl	-6426
▁Ter	-6427
▁til	-6428
ested	-6429
▁Loud	-6430
▁boon	-6431
▁chur	-6432
▁como	-6433
▁urge	-6434
▁absol	-6435
▁marks	-6436
▁party	-6437
▁rocky	-6438
▁stark	-6439
▁stirs	-6440
▁tries	-6441
▁merely	-6442
▁mouths	-6443
▁summon	-6444
▁enemies	-6445
▁objects	-6446
▁entertain	-6447
pic	-6448
tre	-6449
chie	-6450
▁Dam	-6451
▁cig	-6452
▁sap	-6453
▁ske	-6454
▁sow	-6455
urned	-6456
▁glows	-6457
▁minde	-6458
▁shaft	-6459
▁style	-6460
▁cradle	-6461
▁esteem	-6462
▁haunts	-6463
▁tossed	-6464
▁Straight	-6465
▁ceaseless	-6466
▁delicious	-6467
rt	-6468
Yes	-6469
▁je	-6470
illa	-6471
ogue	-6472
▁Mat	-6473
▁arg	-6474
▁une	-6475
asing	-6476
bling	-6477
▁aven	-6478
▁gems	-6479
▁resc	-6480
▁tire	-6481
▁Quick	-6482
▁maint	-6483
▁queer	-6484
▁stoop	-6485
▁Saying	-6486
▁deemed	-6487
▁images	-6488
▁servant	-6489
▁reverence	-6490
An	-6491
OW	-6492
pr	-6493
acon	-6494
hand	-6495
ulch	-6496
▁Pha	-6497
▁Spe	-6498
▁Yon	-6499
▁lod	-6500
▁wiz	-6501
bound	-6502
▁Isra	-6503
▁Lear	-6504
▁bite	-6505
▁cong	-6506
▁pite	-6507
▁rout	-6508
▁suck	-6509
quence	-6510
▁Glory	-6511
▁Mount	-6512
▁block	-6513
▁widow	-6514
▁denied	-6515
▁empire	-6516
▁reveal	-6517
▁saints	-6518
▁eyelids	-6519
▁kindled	-6520
▁priests	-6521
▁reading	-6522
▁seeming	-6523
▁breathes	-6524
▁learning	-6525
▁weakness	-6526
eav	-6527
rede	-6528
▁ath	-6529
▁rig	-6530
board	-6531
▁Five	-6532
▁herd	-6533
gainst	-6534
▁Watch	-6535
▁bends	-6536
▁brake	-6537
▁glade	-6538
▁seize	-6539
▁strip	-6540
▁wrest	-6541
▁Always	-6542
▁Gentle	-6543
▁beaten	-6544
▁caress	-6545
▁finish	-6546
▁fisher	-6547
▁profit	-6548
▁social	-6549
▁trying	-6550
▁Himself	-6551
▁Saviour	-6552
▁cherish	-6553
▁perform	-6554
▁revenge	-6555
▁rushing	-6556
▁appeared	-6557
▁startled	-6558
▁Da	-6559
▁lye	-6560
▁rub	-6561
▁rue	-6562
ounce	-6563
unate	-6564
▁Disc	-6565
▁Phoe	-6566
▁Vain	-6567
▁trim	-6568
▁Cupid	-6569
▁crash	-6570
▁disgu	-6571
▁shady	-6572
▁Virgin	-6573
▁deeply	-6574
▁Leaving	-6575
▁banners	-6576
▁leisure	-6577
▁dangerous	-6578
▁shattered	-6579
yet	-6580
rald	-6581
▁Ang	-6582
▁Dav	-6583
▁Sus	-6584
▁kid	-6585
▁sed	-6586
ilton	-6587
lando	-6588
vered	-6589
▁Circ	-6590
▁Grave	-6591
▁Words	-6592
▁liked	-6593
▁misty	-6594
▁rides	-6595
▁Shakes	-6596
▁armour	-6597
▁dinner	-6598
▁gilded	-6599
▁hounds	-6600
▁snatch	-6601
▁willow	-6602
▁secrets	-6603
▁splendor	-6604
▁stubborn	-6605
▁enchanted	-6606
▁Conscience	-6607
ido	-6608
rase	-6609
▁jack	-6610
▁glist	-6611
▁vital	-6612
▁Enough	-6613
▁People	-6614
▁Sunday	-6615
▁hurled	-6616
▁ponder	-6617
▁rugged	-6618
▁saddle	-6619
▁survey	-6620
▁victor	-6621
▁leaping	-6622
▁surface	-6623
▁thunders	-6624
▁strangely	-6625
",	-6626
Ne	-6627
bur	-6628
esy	-6629
▁bi	-6630
olog	-6631
▁Gal	-6632
▁axe	-6633
▁ell	-6634
cript	-6635
enger	-6636
▁Span	-6637
▁chin	-6638
▁rash	-6639
▁brill	-6640
▁hoped	-6641
▁Reason	-6642
▁barbar	-6643
▁easily	-6644
▁thrall	-6645
▁Singing	-6646
▁ghostly	-6647
▁silvery	-6648
▁interest	-6649
▁philosop	-6650
▁prospect	-6651
▁companions	-6652
Of	-6653
his	-6654
iot	-6655
ayed	-6656
▁Any	-6657
▁git	-6658
▁sne	-6659
▁Gave	-6660
▁Wall	-6661
▁scra	-6662
▁bleed	-6663
▁revel	-6664
▁seide	-6665
▁weeps	-6666
▁charac	-6667
▁larger	-6668
▁office	-6669
▁perpet	-6670
▁sooner	-6671
▁undone	-6672
▁Orlando	-6673
▁ambition	-6674
▁cavalier	-6675
▁childish	-6676
▁northern	-6677
▁received	-6678
▁throughout	-6679
LE	-6680
▁na	-6681
ando	-6682
mble	-6683
ulpt	-6684
▁Eye	-6685
▁Hun	-6686
▁Sac	-6687
▁orb	-6688
areth	-6689
ridge	-6690
▁bows	-6691
▁bust	-6692
▁mend	-6693
▁peop	-6694
▁sult	-6695
▁Field	-6696
▁scept	-6697
▁slope	-6698
▁split	-6699
▁Apollo	-6700
▁German	-6701
▁Wisdom	-6702
▁needed	-6703
▁prompt	-6704
▁prepared	-6705
▁fountains	-6706
Well	-6707
mons	-6708
uded	-6709
▁Gaw	-6710
▁Ref	-6711
▁ore	-6712
▁wou	-6713
ioned	-6714
▁Port	-6715
▁asks	-6716
▁bron	-6717
▁inha	-6718
▁ruth	-6719
▁turf	-6720
ailing	-6721
▁favor	-6722
▁fiend	-6723
▁thief	-6724
▁uncon	-6725
▁hospit	-6726
▁visage	-6727
▁courser	-6728
▁deepest	-6729
▁wedding	-6730
▁yearning	-6731
plex	-6732
ruck	-6733
▁Ode	-6734
▁Woe	-6735
▁cit	-6736
▁rim	-6737
itate	-6738
▁Birds	-6739
▁bonds	-6740
▁clime	-6741
▁Robert	-6742
▁cometh	-6743
▁drives	-6744
▁sights	-6745
▁washed	-6746
▁attempt	-6747
▁hunting	-6748
▁warlike	-6749
▁conquest	-6750
▁righteous	-6751
▁streaming	-6752
▁threshold	-6753
▁countenance	-6754
AS	-6755
ente	-6756
gues	-6757
▁Cra	-6758
▁lux	-6759
▁pad	-6760
▁tun	-6761
▁upl	-6762
asons	-6763
green	-6764
▁Days	-6765
▁Draw	-6766
▁Fran	-6767
▁Show	-6768
▁chal	-6769
▁heal	-6770
▁mach	-6771
▁rous	-6772
▁sund	-6773
▁Dougl	-6774
▁aware	-6775
▁elect	-6776
▁leafy	-6777
▁moons	-6778
▁Seeing	-6779
▁bridal	-6780
▁coffin	-6781
▁pledge	-6782
▁worked	-6783
onscious	-6784
▁goddess	-6785
▁building	-6786
▁bursting	-6787
▁minstrel	-6788
▁monument	-6789
ena	-6790
phan	-6791
▁Dim	-6792
▁Eag	-6793
▁Sou	-6794
▁lin	-6795
etime	-6796
urous	-6797
▁Less	-6798
▁heir	-6799
▁oath	-6800
▁ting	-6801
▁tops	-6802
▁yoke	-6803
▁heels	-6804
▁palms	-6805
▁risen	-6806
▁saith	-6807
▁Greece	-6808
▁loudly	-6809
▁poetry	-6810
▁Looking	-6811
▁created	-6812
▁prophet	-6813
▁succeed	-6814
▁sunrise	-6815
▁violets	-6816
▁creeping	-6817
▁triumphant	-6818
'-	-6819
;—	-6820
li	-6821
gate	-6822
pine	-6823
▁Tha	-6824
▁luc	-6825
rison	-6826
▁acts	-6827
▁crit	-6828
anting	-6829
enched	-6830
▁Trans	-6831
▁darts	-6832
▁mixed	-6833
▁staff	-6834
▁stops	-6835
▁Silent	-6836
▁brains	-6837
▁morrow	-6838
▁trembled	-6839
bel	-6840
Till	-6841
hire	-6842
roll	-6843
vene	-6844
break	-6845
clock	-6846
erous	-6847
ottle	-6848
rious	-6849
▁bath	-6850
▁trow	-6851
ouring	-6852
vation	-6853
▁brute	-6854
▁dried	-6855
▁pitch	-6856
▁crowds	-6857
▁decree	-6858
▁lesson	-6859
▁mellow	-6860
▁shrink	-6861
▁troops	-6862
▁pierced	-6863
▁pinions	-6864
▁horrible	-6865
▁treacher	-6866
▁intellect	-6867
CH	-6868
wl	-6869
eve	-6870
izz	-6871
▁XI	-6872
aved	-6873
elly	-6874
tide	-6875
▁Tit	-6876
ental	-6877
▁Jane	-6878
▁Open	-6879
▁bomb	-6880
▁dirt	-6881
▁erst	-6882
▁gore	-6883
change	-6884
racted	-6885
▁Afric	-6886
▁Grand	-6887
▁Scott	-6888
▁alien	-6889
▁ivory	-6890
▁marry	-6891
▁mouse	-6892
▁swung	-6893
▁upper	-6894
▁counse	-6895
▁faults	-6896
▁soules	-6897
▁victim	-6898
▁regions	-6899
▁wouldst	-6900
▁ignorant	-6901
▁perfection	-6902
▁tenderness	-6903
bro	-6904
rin	-6905
▁Pet	-6906
▁syn	-6907
▁web	-6908
drops	-6909
ivion	-6910
stant	-6911
▁Mill	-6912
▁goss	-6913
▁ills	-6914
▁Happy	-6915
▁cheap	-6916
▁flush	-6917
▁hated	-6918
▁limit	-6919
▁meets	-6920
▁rooms	-6921
▁Others	-6922
▁assemb	-6923
▁condem	-6924
▁custom	-6925
▁guests	-6926
▁jewels	-6927
▁wooden	-6928
▁conceal	-6929
▁grasses	-6930
▁mention	-6931
▁poverty	-6932
▁prosper	-6933
▁selfish	-6934
▁traitor	-6935
▁believed	-6936
thm	-6937
anto	-6938
blem	-6939
elle	-6940
eman	-6941
hers	-6942
oyal	-6943
umps	-6944
▁gas	-6945
chers	-6946
ourse	-6947
▁tren	-6948
▁embra	-6949
▁globe	-6950
▁nerve	-6951
▁windy	-6952
▁Golden	-6953
▁Thence	-6954
▁boldly	-6955
▁crowns	-6956
▁damned	-6957
▁leader	-6958
▁locked	-6959
▁Douglas	-6960
▁minutes	-6961
▁pursued	-6962
▁Immortal	-6963
▁hurrying	-6964
▁majestic	-6965
▁remained	-6966
▁sympathy	-6967
▁spreading	-6968
▁glimmering	-6969
▁struggling	-6970
oid	-6971
miss	-6972
rial	-6973
▁Thr	-6974
▁tal	-6975
▁toy	-6976
uming	-6977
unted	-6978
▁Best	-6979
▁Name	-6980
▁push	-6981
▁Italy	-6982
▁drums	-6983
▁heath	-6984
▁jewel	-6985
▁attack	-6986
▁divers	-6987
▁remote	-6988
▁rights	-6989
▁Britain	-6990
▁Delight	-6991
▁chimney	-6992
▁figures	-6993
▁knowest	-6994
▁maidens	-6995
▁miracle	-6996
▁panting	-6997
▁fleeting	-6998
▁mischief	-6999
?—	-7000
ev	-7001
▁nu	-7002
icks	-7003
rers	-7004
ulse	-7005
▁Cry	-7006
▁Ins	-7007
▁ton	-7008
▁wuz	-7009
known	-7010
urred	-7011
▁Echo	-7012
▁Rich	-7013
▁holl	-7014
▁park	-7015
▁sorwe	-7016
▁Street	-7017
▁horrid	-7018
▁joined	-7019
▁plumes	-7020
▁purcha	-7021
▁refuge	-7022
▁stupid	-7023
▁mourning	-7024
▁troubles	-7025
▁blessings	-7026
TH	-7027
mine	-7028
▁Jen	-7029
▁Pow	-7030
ipper	-7031
▁Rise	-7032
▁mare	-7033
▁whim	-7034
earest	-7035
▁civil	-7036
▁elder	-7037
▁sanct	-7038
▁weeks	-7039
▁faster	-7040
▁herald	-7041
▁planet	-7042
▁rushes	-7043
▁throws	-7044
▁wildly	-7045
▁Highland	-7046
▁charming	-7047
▁doubtful	-7048
hin	-7049
met	-7050
▁ba	-7051
▁Tim	-7052
▁hut	-7053
▁lag	-7054
▁odd	-7055
▁Dund	-7056
▁chap	-7057
▁chir	-7058
▁nook	-7059
▁ruff	-7060
antage	-7061
ptuous	-7062
usalem	-7063
▁brush	-7064
▁clang	-7065
▁gains	-7066
▁Virtue	-7067
▁endeav	-7068
▁bearing	-7069
▁chariot	-7070
▁thorugh	-7071
▁dripping	-7072
▁perished	-7073
▁possible	-7074
▁deathless	-7075
▁traveller	-7076
▁universal	-7077
ana	-7078
iac	-7079
arus	-7080
beam	-7081
ials	-7082
onde	-7083
▁Amb	-7084
▁Ber	-7085
▁Ric	-7086
ators	-7087
ellow	-7088
aunted	-7089
▁Found	-7090
▁feare	-7091
▁hedge	-7092
▁merit	-7093
▁ruddy	-7094
▁Sister	-7095
▁belief	-7096
▁rhymes	-7097
▁simply	-7098
▁Content	-7099
▁Neither	-7100
▁element	-7101
▁lighted	-7102
▁patriot	-7103
▁remorse	-7104
▁wanting	-7105
▁elements	-7106
▁fearless	-7107
▁feathers	-7108
▁servants	-7109
Ye	-7110
cia	-7111
hem	-7112
back	-7113
▁Fam	-7114
▁Gar	-7115
▁Mis	-7116
▁Til	-7117
▁dun	-7118
▁gid	-7119
▁owl	-7120
aries	-7121
earth	-7122
▁Live	-7123
▁bide	-7124
▁hook	-7125
icient	-7126
ration	-7127
▁Women	-7128
▁Years	-7129
▁abyss	-7130
▁freed	-7131
▁ruins	-7132
▁Surely	-7133
▁circum	-7134
▁courts	-7135
▁drinks	-7136
▁ragged	-7137
▁repeat	-7138
▁Wherein	-7139
▁blazing	-7140
▁crooked	-7141
▁science	-7142
▁writing	-7143
▁homeward	-7144
▁suffered	-7145
aby	-7146
fit	-7147
had	-7148
ache	-7149
dest	-7150
uthe	-7151
▁dru	-7152
▁oil	-7153
rates	-7154
▁Else	-7155
▁Grow	-7156
▁ache	-7157
▁flit	-7158
▁leet	-7159
▁pave	-7160
▁recl	-7161
▁spar	-7162
▁Muses	-7163
▁lilac	-7164
▁weigh	-7165
▁woven	-7166
▁estate	-7167
▁hunter	-7168
▁remove	-7169
▁Evening	-7170
▁Phoebus	-7171
▁climbed	-7172
▁mansion	-7173
▁virtues	-7174
▁Together	-7175
▁graceful	-7176
▁paradise	-7177
▁spacious	-7178
▁wondered	-7179
▁shuddering	-7180
GH	-7181
lor	-7182
olk	-7183
away	-7184
irth	-7185
same	-7186
star	-7187
▁Als	-7188
▁Fal	-7189
▁giv	-7190
immer	-7191
▁Asia	-7192
▁Sold	-7193
▁cele	-7194
▁hood	-7195
▁rope	-7196
atched	-7197
▁Fresh	-7198
▁Small	-7199
▁cared	-7200
▁herds	-7201
▁liber	-7202
▁metal	-7203
▁stays	-7204
▁aright	-7205
▁curled	-7206
▁supply	-7207
▁unless	-7208
▁vacant	-7209
▁accompl	-7210
▁faintly	-7211
▁thereof	-7212
▁wherein	-7213
;"	-7214
nal	-7215
▁LO	-7216
bear	-7217
▁Arg	-7218
▁map	-7219
▁tap	-7220
rable	-7221
usted	-7222
▁Arch	-7223
▁Dest	-7224
▁Kiss	-7225
▁Mont	-7226
▁hymn	-7227
▁pang	-7228
▁Chief	-7229
▁dozen	-7230
▁oppos	-7231
▁towns	-7232
▁trewe	-7233
▁twist	-7234
▁closer	-7235
▁govern	-7236
▁necess	-7237
▁phrase	-7238
▁quaint	-7239
▁shells	-7240
▁weapon	-7241
▁drawing	-7242
▁portion	-7243
▁several	-7244
▁whistle	-7245
▁headlong	-7246
▁XC	-7247
Alas	-7248
cock	-7249
hard	-7250
ixed	-7251
udge	-7252
▁mas	-7253
▁yeh	-7254
▁Pity	-7255
▁Prom	-7256
▁beha	-7257
▁lazy	-7258
▁proc	-7259
Though	-7260
▁isles	-7261
▁lakes	-7262
▁older	-7263
▁token	-7264
▁cavern	-7265
▁fairly	-7266
▁grassy	-7267
▁plague	-7268
▁plunge	-7269
▁yields	-7270
▁Majesty	-7271
▁battles	-7272
▁closing	-7273
▁clothed	-7274
▁stories	-7275
▁wailing	-7276
▁tranquil	-7277
▁multitude	-7278
▁loneliness	-7279
ED	-7280
ork	-7281
▁ge	-7282
odes	-7283
rier	-7284
▁Dar	-7285
▁hed	-7286
▁ivy	-7287
▁pep	-7288
antes	-7289
uckoo	-7290
▁caut	-7291
coming	-7292
▁Blind	-7293
▁curls	-7294
▁exile	-7295
▁issue	-7296
▁pipes	-7297
▁polit	-7298
▁Dundee	-7299
▁againe	-7300
▁fulfil	-7301
▁unkind	-7302
▁arrived	-7303
▁eastern	-7304
▁manners	-7305
▁melting	-7306
▁motions	-7307
▁persons	-7308
▁praised	-7309
▁useless	-7310
▁wreaths	-7311
▁handsome	-7312
▁merchant	-7313
▁whirling	-7314
▁companion	-7315
OL	-7316
Or	-7317
ama	-7318
nut	-7319
urd	-7320
From	-7321
ency	-7322
ioun	-7323
mate	-7324
▁tam	-7325
hamed	-7326
▁Lies	-7327
▁Meth	-7328
▁Thom	-7329
▁haue	-7330
▁haze	-7331
▁loom	-7332
▁plot	-7333
▁pole	-7334
▁ratt	-7335
idered	-7336
▁Grief	-7337
▁drest	-7338
▁exact	-7339
▁fades	-7340
▁fails	-7341
▁smite	-7342
▁stuck	-7343
▁vanqu	-7344
quisite	-7345
▁Having	-7346
▁Spread	-7347
▁apples	-7348
▁contri	-7349
▁latest	-7350
▁overfl	-7351
▁rotten	-7352
▁driving	-7353
▁indiffe	-7354
▁Shepherd	-7355
▁contempl	-7356
▁religion	-7357
▁countless	-7358
IL	-7359
iqu	-7360
▁au	-7361
song	-7362
▁Lee	-7363
▁Met	-7364
▁XII	-7365
▁ate	-7366
▁fou	-7367
▁nim	-7368
eping	-7369
onnie	-7370
▁Self	-7371
▁Sent	-7372
▁doct	-7373
▁flut	-7374
▁lure	-7375
▁rabb	-7376
▁Clear	-7377
▁creed	-7378
▁frant	-7379
▁plate	-7380
▁plume	-7381
▁vales	-7382
▁weird	-7383
▁witch	-7384
▁anchor	-7385
▁crimes	-7386
▁drowsy	-7387
▁joyful	-7388
▁sculpt	-7389
▁careful	-7390
▁disease	-7391
▁finding	-7392
▁haunted	-7393
▁telling	-7394
▁utterly	-7395
▁whereon	-7396
▁gorgeous	-7397
Yet	-7398
ico	-7399
▁Ju	-7400
▁TO	-7401
▁ox	-7402
rehe	-7403
▁hen	-7404
▁oon	-7405
▁sly	-7406
acing	-7407
eming	-7408
ickle	-7409
▁Dece	-7410
▁Russ	-7411
▁boom	-7412
▁cart	-7413
▁swar	-7414
engers	-7415
▁prost	-7416
▁scale	-7417
▁skull	-7418
▁swoon	-7419
▁wiser	-7420
▁Dreams	-7421
▁Prophe	-7422
▁Seemed	-7423
▁aspire	-7424
▁author	-7425
▁lately	-7426
▁preach	-7427
▁Friends	-7428
▁therein	-7429
▁Jerusalem	-7430
▁greatness	-7431
▁landscape	-7432
▁bitterness	-7433
';	-7434
bul	-7435
fted	-7436
rine	-7437
▁Bow	-7438
▁Max	-7439
▁Tor	-7440
▁tus	-7441
▁vir	-7442
arson	-7443
▁baff	-7444
▁coal	-7445
▁date	-7446
▁stol	-7447
▁unaw	-7448
▁vein	-7449
▁bloud	-7450
▁plead	-7451
▁purse	-7452
▁sheen	-7453
▁stret	-7454
▁Edward	-7455
▁amidst	-7456
▁artist	-7457
▁entire	-7458
▁swells	-7459
▁corrupt	-7460
▁despise	-7461
▁orchard	-7462
▁wearied	-7463
▁lightnings	-7464
pro	-7465
▁Ve	-7466
ican	-7467
igns	-7468
rour	-7469
peare	-7470
phant	-7471
▁Fast	-7472
▁Sick	-7473
▁jaws	-7474
▁outl	-7475
▁sine	-7476
cially	-7477
endous	-7478
iously	-7479
ulting	-7480
▁David	-7481
▁Judge	-7482
▁Laugh	-7483
▁consp	-7484
▁fully	-7485
▁stony	-7486
reathed	-7487
▁Divine	-7488
▁Israel	-7489
▁asking	-7490
▁signal	-7491
▁sleepy	-7492
▁strict	-7493
▁trance	-7494
▁Country	-7495
▁crushed	-7496
▁sustain	-7497
▁wrapped	-7498
▁Almighty	-7499
▁brethren	-7500
▁marching	-7501
▁breathless	-7502
Lo	-7503
RA	-7504
reg	-7505
▁Ke	-7506
azed	-7507
cian	-7508
gest	-7509
reek	-7510
▁mes	-7511
▁wus	-7512
amour	-7513
angle	-7514
arded	-7515
rated	-7516
▁Fill	-7517
▁Ring	-7518
▁dole	-7519
▁eggs	-7520
▁hawk	-7521
▁meal	-7522
▁moth	-7523
▁wins	-7524
▁Rules	-7525
▁admit	-7526
▁confl	-7527
▁views	-7528
▁cloudy	-7529
▁doubts	-7530
▁imposs	-7531
▁pallid	-7532
▁purest	-7533
▁recogn	-7534
▁wastes	-7535
▁Conduct	-7536
▁banquet	-7537
▁leaning	-7538
▁planned	-7539
▁release	-7540
▁sentence	-7541
▁wherever	-7542
ENT	-7543
ION	-7544
rog	-7545
rub	-7546
▁Hy	-7547
ieft	-7548
neth	-7549
quer	-7550
rick	-7551
▁Emb	-7552
▁Lad	-7553
▁ped	-7554
urity	-7555
▁Grey	-7556
▁Held	-7557
▁Mick	-7558
▁Rust	-7559
▁blot	-7560
▁peak	-7561
▁scri	-7562
▁ties	-7563
▁Irish	-7564
▁Piers	-7565
▁Stars	-7566
▁brink	-7567
▁bugle	-7568
▁clung	-7569
▁indul	-7570
▁speck	-7571
renched	-7572
▁Listen	-7573
▁astray	-7574
▁clover	-7575
▁longed	-7576
▁spider	-7577
▁wedded	-7578
▁answers	-7579
▁degrees	-7580
▁flashed	-7581
▁honours	-7582
▁scented	-7583
▁staring	-7584
▁upright	-7585
▁worldly	-7586
▁piercing	-7587
vo	-7588
ato	-7589
▁Od	-7590
▁gy	-7591
▁Bac	-7592
▁cos	-7593
ceeds	-7594
sters	-7595
▁Also	-7596
▁Earl	-7597
▁cage	-7598
▁fren	-7599
▁whip	-7600
haired	-7601
▁alway	-7602
▁heark	-7603
▁liken	-7604
▁lumin	-7605
▁uncle	-7606
▁Flower	-7607
▁defeat	-7608
▁sports	-7609
▁challen	-7610
▁conduct	-7611
▁twisted	-7612
▁throbbing	-7613
▁tremulous	-7614
▁uncertain	-7615
▁difference	-7616
drop	-7617
ella	-7618
ford	-7619
nant	-7620
▁Lab	-7621
▁Led	-7622
▁San	-7623
▁cot	-7624
▁dir	-7625
▁mol	-7626
erick	-7627
▁Lake	-7628
▁Warm	-7629
▁cups	-7630
▁idol	-7631
▁nour	-7632
▁puff	-7633
▁Lover	-7634
▁alarm	-7635
▁crawl	-7636
▁feeds	-7637
▁gross	-7638
▁stalk	-7639
▁tyran	-7640
▁commun	-7641
▁myriad	-7642
▁settle	-7643
ustrious	-7644
▁clearly	-7645
▁prevent	-7646
▁tribute	-7647
▁fortunes	-7648
";	-7649
▁x	-7650
Our	-7651
isa	-7652
isk	-7653
top	-7654
▁Ep	-7655
aldo	-7656
ffee	-7657
keth	-7658
lers	-7659
▁Flo	-7660
▁ale	-7661
▁Corn	-7662
▁bury	-7663
▁curl	-7664
▁dell	-7665
▁fawn	-7666
▁stab	-7667
▁Crise	-7668
▁dense	-7669
▁mayst	-7670
▁piled	-7671
▁youre	-7672
▁Nation	-7673
▁aspect	-7674
▁brazen	-7675
▁courte	-7676
▁diffic	-7677
▁dishon	-7678
▁obtain	-7679
▁primal	-7680
▁safely	-7681
▁bravely	-7682
▁circles	-7683
▁shudder	-7684
▁darkened	-7685
▁goodness	-7686
▁shouting	-7687
▁stricken	-7688
▁descending	-7689
▁fluttering	-7690
ags	-7691
cra	-7692
uel	-7693
reth	-7694
▁Hom	-7695
▁Van	-7696
▁ced	-7697
▁mov	-7698
▁unn	-7699
▁Nove	-7700
▁exec	-7701
▁fres	-7702
▁joke	-7703
▁knot	-7704
▁maze	-7705
▁subt	-7706
culiar	-7707
elling	-7708
▁Relig	-7709
▁Winds	-7710
▁gaunt	-7711
▁giddy	-7712
▁guile	-7713
▁likes	-7714
▁outer	-7715
onesome	-7716
▁colors	-7717
▁floats	-7718
▁forces	-7719
▁hoarse	-7720
▁plaint	-7721
▁pulled	-7722
▁screen	-7723
▁spells	-7724
▁stared	-7725
▁steals	-7726
▁thanne	-7727
▁wizard	-7728
▁wordes	-7729
▁amorous	-7730
▁garland	-7731
▁ordered	-7732
▁planted	-7733
▁quietly	-7734
▁shouted	-7735
▁champion	-7736
▁imperial	-7737
▁otherwise	-7738
▁possessed	-7739
At	-7740
iah	-7741
mar	-7742
rot	-7743
cell	-7744
phon	-7745
uced	-7746
▁Dom	-7747
▁Swe	-7748
birds	-7749
icity	-7750
itter	-7751
ppies	-7752
usive	-7753
▁Gone	-7754
▁Tale	-7755
headed	-7756
▁Satan	-7757
▁abhor	-7758
▁aston	-7759
▁contr	-7760
▁erect	-7761
▁vaine	-7762
▁Chorus	-7763
▁engage	-7764
▁mighte	-7765
▁rushed	-7766
▁wonted	-7767
▁General	-7768
▁masters	-7769
▁reflect	-7770
▁replies	-7771
▁resting	-7772
▁absolute	-7773
▁Alexander	-7774
▁attention	-7775
▁exquisite	-7776
▁fashioned	-7777
▁impatient	-7778
imp	-7779
ios	-7780
rue	-7781
Good	-7782
anta	-7783
ette	-7784
forg	-7785
gled	-7786
urdy	-7787
▁Bee	-7788
▁Cru	-7789
▁Joe	-7790
▁Oct	-7791
▁Sar	-7792
▁ply	-7793
▁riv	-7794
▁sey	-7795
aning	-7796
groom	-7797
▁Fier	-7798
rowned	-7799
▁deter	-7800
▁flags	-7801
▁lusty	-7802
▁olive	-7803
▁Wonder	-7804
▁excess	-7805
▁learnt	-7806
▁pieces	-7807
▁prodig	-7808
▁remark	-7809
▁rhythm	-7810
▁statue	-7811
▁varied	-7812
▁amongst	-7813
▁dignity	-7814
▁exclaim	-7815
▁flowery	-7816
▁noblest	-7817
▁drifting	-7818
▁fruitful	-7819
▁magnific	-7820
▁nameless	-7821
▁steadfast	-7822
del	-7823
jor	-7824
nge	-7825
asts	-7826
inda	-7827
itty	-7828
ulph	-7829
▁Cou	-7830
▁Pil	-7831
isies	-7832
thorn	-7833
▁Dick	-7834
▁Hail	-7835
▁Road	-7836
▁aver	-7837
▁cens	-7838
▁cert	-7839
▁howl	-7840
▁lair	-7841
▁unsp	-7842
▁vary	-7843
spread	-7844
▁fetch	-7845
▁holid	-7846
▁Rather	-7847
▁Stream	-7848
▁coffee	-7849
▁hermit	-7850
▁insect	-7851
▁loosed	-7852
▁collect	-7853
▁howling	-7854
▁impious	-7855
▁merrily	-7856
▁mounted	-7857
▁offered	-7858
▁settled	-7859
▁shaking	-7860
▁affright	-7861
▁superior	-7862
▁fruitless	-7863
ago	-7864
nin	-7865
andy	-7866
ases	-7867
ball	-7868
izzy	-7869
▁Arc	-7870
▁Bew	-7871
▁Rin	-7872
▁Tay	-7873
antly	-7874
ourne	-7875
▁Body	-7876
▁XIII	-7877
▁seye	-7878
▁unst	-7879
▁wire	-7880
rolled	-7881
ustace	-7882
▁Seems	-7883
▁added	-7884
▁error	-7885
▁overt	-7886
▁rites	-7887
▁whoso	-7888
▁Merlin	-7889
▁ardent	-7890
▁notice	-7891
▁reckon	-7892
▁seraph	-7893
▁steeds	-7894
▁glances	-7895
▁peasant	-7896
▁praises	-7897
▁sailors	-7898
▁dropping	-7899
▁trumpets	-7900
▁certainly	-7901
▁destruction	-7902
IA	-7903
pie	-7904
ule	-7905
Your	-7906
cies	-7907
cise	-7908
yght	-7909
▁Sax	-7910
▁Tam	-7911
▁ink	-7912
Twixt	-7913
tense	-7914
▁Calm	-7915
▁Poem	-7916
▁Whan	-7917
▁coin	-7918
▁cran	-7919
▁nurs	-7920
▁thyn	-7921
urance	-7922
▁Stone	-7923
▁blend	-7924
▁chime	-7925
▁greed	-7926
▁grind	-7927
▁heaps	-7928
▁inher	-7929
▁leapt	-7930
▁longe	-7931
▁sheer	-7932
▁sinne	-7933
▁tiger	-7934
▁tooth	-7935
▁Castle	-7936
▁arrive	-7937
▁doctor	-7938
▁excuse	-7939
▁flings	-7940
▁rattle	-7941
▁unrest	-7942
▁Despair	-7943
▁Flowers	-7944
▁affairs	-7945
▁asunder	-7946
▁clasped	-7947
▁devotion	-7948
▁reckless	-7949
rut	-7950
outs	-7951
vels	-7952
▁Act	-7953
▁Mil	-7954
▁ted	-7955
▁Whis	-7956
▁boot	-7957
▁cars	-7958
▁inqu	-7959
▁keys	-7960
▁obst	-7961
▁rags	-7962
▁ramp	-7963
▁shoe	-7964
▁symb	-7965
▁thie	-7966
itable	-7967
▁Looks	-7968
▁Place	-7969
▁Roses	-7970
▁drain	-7971
▁dunge	-7972
▁eaten	-7973
▁farre	-7974
▁fring	-7975
▁opens	-7976
▁prick	-7977
▁ridge	-7978
▁worms	-7979
▁Victor	-7980
▁region	-7981
▁antique	-7982
▁islands	-7983
▁treason	-7984
▁uttered	-7985
▁curtains	-7986
▁progress	-7987
▁Meanwhile	-7988
▁whirlwind	-7989
▁procession	-7990
ege	-7991
see	-7992
▁Abb	-7993
▁Inc	-7994
▁Sky	-7995
▁dil	-7996
▁mob	-7997
geant	-7998
which	-7999
▁fert	-8000
▁garb	-8001
▁male	-8002
▁pent	-8003
▁rack	-8004
▁rung	-8005
▁trip	-8006
▁twin	-8007
▁aloof	-8008
▁clown	-8009
▁jolly	-8010
▁scoff	-8011
flowers	-8012
▁Myself	-8013
▁advice	-8014
▁engine	-8015
▁formed	-8016
▁grande	-8017
▁nerves	-8018
▁placid	-8019
▁plight	-8020
▁summit	-8021
▁intense	-8022
▁Scottish	-8023
▁Thinking	-8024
▁instinct	-8025
▁southern	-8026
--'	-8027
dri	-8028
lys	-8029
son	-8030
▁ON	-8031
ethe	-8032
weed	-8033
▁Alc	-8034
▁cad	-8035
▁sla	-8036
▁vot	-8037
sweet	-8038
verns	-8039
▁Army	-8040
▁Rece	-8041
▁Suff	-8042
▁hise	-8043
▁rows	-8044
▁swan	-8045
▁vaul	-8046
▁Bound	-8047
▁India	-8048
▁cream	-8049
▁finde	-8050
▁fired	-8051
▁hairs	-8052
▁rebel	-8053
▁whate	-8054
▁darken	-8055
▁during	-8056
▁farmer	-8057
▁inform	-8058
▁myrtle	-8059
▁watery	-8060
▁chanced	-8061
▁defence	-8062
▁proceed	-8063
▁sceptre	-8064
▁tidings	-8065
▁Criseyde	-8066
▁lonesome	-8067
▁perceive	-8068
▁prisoner	-8069
▁resolved	-8070
▁sickness	-8071
▁swinging	-8072
▁triumphs	-8073
▁offspring	-8074
▁spiritual	-8075
00	-8076
Ch	-8077
AND	-8078
ais	-8079
itt	-8080
nor	-8081
oos	-8082
love	-8083
▁Ann	-8084
▁Ban	-8085
▁Dra	-8086
▁Fut	-8087
▁nig	-8088
▁tax	-8089
▁Baby	-8090
▁Cent	-8091
▁Meet	-8092
▁Prov	-8093
▁fals	-8094
▁herb	-8095
▁oure	-8096
▁seiz	-8097
▁thre	-8098
akened	-8099
▁Fairy	-8100
▁cheat	-8101
▁mound	-8102
▁persu	-8103
▁spied	-8104
▁sworn	-8105
▁tribe	-8106
▁wield	-8107
▁Thomas	-8108
▁doomed	-8109
▁furrow	-8110
▁hammer	-8111
▁inmost	-8112
▁plants	-8113
▁reigns	-8114
▁stride	-8115
▁Knowing	-8116
▁Rinaldo	-8117
▁echoing	-8118
▁fetters	-8119
▁garment	-8120
▁terrors	-8121
▁weariness	-8122
▁experience	-8123
One	-8124
emb	-8125
gie	-8126
lad	-8127
amps	-8128
▁ket	-8129
▁sae	-8130
▁tha	-8131
ishop	-8132
onian	-8133
onies	-8134
otent	-8135
peror	-8136
▁Help	-8137
▁Took	-8138
▁barn	-8139
▁bled	-8140
▁hees	-8141
▁kins	-8142
▁ribb	-8143
▁shou	-8144
▁text	-8145
▁Heard	-8146
▁Seven	-8147
▁Smith	-8148
▁daunt	-8149
▁miser	-8150
▁dances	-8151
▁fights	-8152
▁myghte	-8153
▁pulses	-8154
▁strait	-8155
▁voyage	-8156
▁Forever	-8157
▁decline	-8158
▁deliver	-8159
▁heather	-8160
▁mocking	-8161
▁piteous	-8162
▁shallow	-8163
▁sweeping	-8164
▁remembrance	-8165
Go	-8166
vas	-8167
erte	-8168
kins	-8169
▁Dat	-8170
▁Mic	-8171
▁mim	-8172
▁tip	-8173
orial	-8174
▁Pall	-8175
▁Work	-8176
▁belt	-8177
▁hous	-8178
▁hurl	-8179
▁musk	-8180
▁prud	-8181
▁riot	-8182
▁sone	-8183
pected	-8184
▁Hills	-8185
▁Human	-8186
▁Maybe	-8187
▁balmy	-8188
▁claws	-8189
▁faste	-8190
▁goods	-8191
▁rests	-8192
▁Leaves	-8193
▁bewild	-8194
▁orphan	-8195
▁sprite	-8196
▁states	-8197
▁vanity	-8198
▁Justice	-8199
▁Waiting	-8200
▁frantic	-8201
▁November	-8202
▁oblivion	-8203
▁breakfast	-8204
▁recollect	-8205
▁Shakespeare	-8206
);	-8207
pses	-8208
uary	-8209
▁dol	-8210
▁elf	-8211
▁Dost	-8212
▁Fool	-8213
▁Glad	-8214
▁bits	-8215
▁sown	-8216
uffled	-8217
worthy	-8218
▁Jenny	-8219
▁Jones	-8220
▁babes	-8221
▁guise	-8222
▁organ	-8223
▁pours	-8224
▁terms	-8225
▁bronze	-8226
▁claims	-8227
▁darkly	-8228
▁ending	-8229
▁fiddle	-8230
▁hatred	-8231
▁interp	-8232
▁liquor	-8233
▁redeem	-8234
▁retain	-8235
pecially	-8236
▁Passion	-8237
▁actions	-8238
▁compare	-8239
▁counted	-8240
▁dawning	-8241
▁fairies	-8242
▁support	-8243
▁wistful	-8244
▁Watching	-8245
▁fainting	-8246
▁luminous	-8247
▁peculiar	-8248
▁Perchance	-8249
▁brilliant	-8250
▁fellowship	-8251
▁sweetheart	-8252
"—	-8253
Im	-8254
See	-8255
rop	-8256
tee	-8257
ders	-8258
dled	-8259
▁AND	-8260
▁Gle	-8261
▁Hug	-8262
▁Sen	-8263
▁orn	-8264
roach	-8265
▁Blow	-8266
▁Paul	-8267
▁hint	-8268
▁ofte	-8269
▁reap	-8270
▁toes	-8271
▁Frank	-8272
▁peaks	-8273
▁pools	-8274
▁shirt	-8275
▁soone	-8276
▁study	-8277
▁altars	-8278
▁column	-8279
▁hiding	-8280
▁league	-8281
▁report	-8282
▁However	-8283
▁absence	-8284
▁captain	-8285
▁explore	-8286
▁pathway	-8287
▁planets	-8288
▁torture	-8289
▁visible	-8290
▁intellig	-8291
▁concealed	-8292
▁mysteries	-8293
▁punishment	-8294
Do	-8295
Sir	-8296
bor	-8297
cup	-8298
iza	-8299
▁DE	-8300
▁Ol	-8301
book	-8302
chus	-8303
iage	-8304
iste	-8305
umns	-8306
▁Ren	-8307
▁log	-8308
▁rat	-8309
▁raw	-8310
▁ren	-8311
▁Hymn	-8312
▁Imag	-8313
▁Safe	-8314
▁rove	-8315
pering	-8316
▁Sound	-8317
▁durst	-8318
▁heave	-8319
▁hoofs	-8320
▁juice	-8321
▁moore	-8322
▁anyone	-8323
▁career	-8324
▁chival	-8325
▁graces	-8326
▁helmet	-8327
▁homage	-8328
▁louder	-8329
▁mutual	-8330
▁thrush	-8331
▁consent	-8332
▁dangers	-8333
▁discord	-8334
▁serious	-8335
▁shrieks	-8336
▁venture	-8337
▁forsaken	-8338
▁likeness	-8339
▁somebody	-8340
▁trampled	-8341
ober	-8342
thou	-8343
▁Dog	-8344
▁fab	-8345
balls	-8346
heads	-8347
phere	-8348
▁Camp	-8349
▁Lion	-8350
▁Marg	-8351
▁Sire	-8352
▁ener	-8353
▁inch	-8354
▁rate	-8355
itudes	-8356
mother	-8357
ulture	-8358
▁Annie	-8359
▁Blest	-8360
▁bloke	-8361
▁tough	-8362
▁wrung	-8363
▁Thames	-8364
▁cheers	-8365
▁clings	-8366
▁relate	-8367
▁singer	-8368
▁undert	-8369
▁whatso	-8370
▁charity	-8371
▁emerald	-8372
▁foaming	-8373
▁betrayed	-8374
▁dazzling	-8375
▁lifeless	-8376
▁neighbor	-8377
▁tenderly	-8378
▁trembles	-8379
▁brightness	-8380
▁approaching	-8381
ta	-8382
oil	-8383
oso	-8384
elot	-8385
esar	-8386
iana	-8387
ully	-8388
whel	-8389
▁Mod	-8390
▁Reg	-8391
▁Rev	-8392
▁Sle	-8393
▁aug	-8394
▁aut	-8395
▁nar	-8396
▁omn	-8397
alian	-8398
cloud	-8399
illes	-8400
▁Wine	-8401
▁abst	-8402
▁bald	-8403
▁goat	-8404
▁hagg	-8405
▁hoar	-8406
▁sugg	-8407
inting	-8408
▁Lines	-8409
▁amain	-8410
▁heare	-8411
▁marsh	-8412
▁penny	-8413
▁shelf	-8414
▁waved	-8415
▁ancest	-8416
▁chords	-8417
▁couple	-8418
▁justly	-8419
▁mingle	-8420
▁tribes	-8421
▁allowed	-8422
▁ashamed	-8423
▁heathen	-8424
▁pitiful	-8425
▁ripples	-8426
▁wearing	-8427
▁climbing	-8428
▁earliest	-8429
▁frequent	-8430
▁kneeling	-8431
▁powerful	-8432
▁appointed	-8433
▁existence	-8434
▁frightened	-8435
IM	-8436
UR	-8437
ja	-8438
irk	-8439
mus	-8440
▁11	-8441
▁Py	-8442
▁WH	-8443
bino	-8444
hael	-8445
iber	-8446
▁Aff	-8447
▁Get	-8448
▁Lil	-8449
▁Mam	-8450
selfe	-8451
▁Gray	-8452
▁Seek	-8453
▁bulk	-8454
▁core	-8455
▁seam	-8456
▁unex	-8457
▁wend	-8458
▁wink	-8459
▁Nymph	-8460
▁atmos	-8461
▁fates	-8462
▁rouse	-8463
▁slipp	-8464
▁trunk	-8465
▁vines	-8466
rescent	-8467
▁blight	-8468
▁combat	-8469
▁costly	-8470
▁greedy	-8471
▁render	-8472
▁veiled	-8473
▁Heavens	-8474
▁impress	-8475
▁pitying	-8476
▁younger	-8477
▁anywhere	-8478
▁clinging	-8479
▁conceive	-8480
▁rustling	-8481
▁swimming	-8482
▁touching	-8483
▁according	-8484
asc	-8485
mann	-8486
▁Def	-8487
▁Run	-8488
▁Unc	-8489
▁etc	-8490
▁sob	-8491
armed	-8492
ckets	-8493
plend	-8494
ppled	-8495
▁ador	-8496
▁depl	-8497
▁lame	-8498
▁obed	-8499
▁pane	-8500
▁sack	-8501
▁spun	-8502
bbling	-8503
ouched	-8504
▁Break	-8505
▁alley	-8506
▁ether	-8507
▁faced	-8508
▁pages	-8509
▁seats	-8510
mediate	-8511
▁Fierce	-8512
▁absent	-8513
▁bottle	-8514
▁create	-8515
▁homely	-8516
▁leaned	-8517
▁picked	-8518
▁skirts	-8519
▁spouse	-8520
▁sturdy	-8521
▁Austral	-8522
▁example	-8523
▁healing	-8524
▁inspire	-8525
▁musical	-8526
▁plucked	-8527
▁quarter	-8528
▁weapons	-8529
▁Princess	-8530
▁honoured	-8531
▁maintain	-8532
▁reproach	-8533
▁elsewhere	-8534
▁satisfied	-8535
ael	-8536
lla	-8537
down	-8538
onne	-8539
pple	-8540
▁Ent	-8541
▁Gay	-8542
▁rag	-8543
▁vib	-8544
agger	-8545
amant	-8546
mered	-8547
ublic	-8548
▁Late	-8549
▁goin	-8550
▁lang	-8551
▁numb	-8552
▁weal	-8553
ounter	-8554
▁Babyl	-8555
▁alter	-8556
▁fraud	-8557
▁newly	-8558
▁ruled	-8559
▁simpl	-8560
▁Living	-8561
▁Slowly	-8562
▁blisse	-8563
▁guards	-8564
▁kindle	-8565
▁terrif	-8566
▁Brought	-8567
▁October	-8568
▁envious	-8569
▁happens	-8570
▁lasting	-8571
▁lifting	-8572
▁mistake	-8573
▁opinion	-8574
▁special	-8575
▁threads	-8576
▁brooding	-8577
▁atmosphere	-8578
▁henceforth	-8579
▁tumultuous	-8580
AY	-8581
ape	-8582
vah	-8583
▁py	-8584
fare	-8585
▁Opp	-8586
alter	-8587
▁Pope	-8588
▁Tart	-8589
▁Trou	-8590
▁halt	-8591
▁lain	-8592
▁reek	-8593
ossess	-8594
▁appet	-8595
▁dimly	-8596
▁doves	-8597
▁evere	-8598
▁funny	-8599
▁helpe	-8600
▁hover	-8601
▁mossy	-8602
▁murde	-8603
▁paine	-8604
▁rever	-8605
▁scare	-8606
▁value	-8607
▁vault	-8608
▁verge	-8609
ieftain	-8610
▁rested	-8611
▁wolves	-8612
▁Already	-8613
▁Instead	-8614
▁bondage	-8615
▁glitter	-8616
▁nightly	-8617
▁perplex	-8618
▁Wherever	-8619
▁commands	-8620
▁princely	-8621
▁soothing	-8622
▁yielding	-8623
▁questions	-8624
▁searching	-8625
▁thrilling	-8626
box	-8627
hum	-8628
pri	-8629
▁il	-8630
gles	-8631
ruit	-8632
▁Cap	-8633
▁flu	-8634
asphe	-8635
ivity	-8636
▁Dame	-8637
▁Frag	-8638
▁Gall	-8639
▁idly	-8640
▁jist	-8641
▁stif	-8642
▁subs	-8643
aments	-8644
▁Faint	-8645
▁Royal	-8646
▁Today	-8647
▁await	-8648
▁backs	-8649
▁ditch	-8650
▁loath	-8651
▁mates	-8652
▁offic	-8653
▁recon	-8654
▁surre	-8655
▁veils	-8656
▁Clouds	-8657
▁Genius	-8658
▁bridle	-8659
▁flowed	-8660
▁freeze	-8661
▁lively	-8662
▁reared	-8663
▁solace	-8664
▁throats	-8665
▁kindling	-8666
▁tempests	-8667
▁virtuous	-8668
▁wrinkled	-8669
▁gentleman	-8670
eah	-8671
ero	-8672
psy	-8673
wis	-8674
▁Wa	-8675
adem	-8676
ephy	-8677
made	-8678
till	-8679
▁Rub	-8680
▁Sit	-8681
▁XIV	-8682
▁ros	-8683
▁sen	-8684
enced	-8685
erate	-8686
oreen	-8687
othes	-8688
▁derv	-8689
▁kick	-8690
▁rife	-8691
▁smit	-8692
▁woot	-8693
asping	-8694
▁Build	-8695
▁Storm	-8696
▁beads	-8697
▁chuck	-8698
▁cleft	-8699
▁hasty	-8700
▁print	-8701
▁Hearts	-8702
▁Shadow	-8703
▁Transl	-8704
▁bereft	-8705
▁caused	-8706
▁chapel	-8707
▁chased	-8708
▁genial	-8709
▁hevene	-8710
▁latter	-8711
▁relent	-8712
▁roused	-8713
▁rustic	-8714
▁Persian	-8715
▁besides	-8716
▁betwixt	-8717
▁fraught	-8718
▁impulse	-8719
▁members	-8720
▁neglect	-8721
▁succour	-8722
▁Religion	-8723
▁forgiven	-8724
▁slumbers	-8725
▁spotless	-8726
▁challenge	-8727
▁faithless	-8728
▁compassion	-8729
OI	-8730
ua	-8731
uk	-8732
fed	-8733
mat	-8734
▁Fu	-8735
▁si	-8736
fish	-8737
ione	-8738
tops	-8739
▁Ble	-8740
▁Cut	-8741
▁Fur	-8742
▁ais	-8743
▁bac	-8744
▁lun	-8745
▁oar	-8746
▁syl	-8747
anted	-8748
blood	-8749
ilion	-8750
▁mire	-8751
erbino	-8752
father	-8753
▁abund	-8754
▁adieu	-8755
▁reins	-8756
▁stall	-8757
▁waken	-8758
▁Priest	-8759
▁squire	-8760
▁Kingdom	-8761
▁desired	-8762
▁immense	-8763
▁leagues	-8764
▁plunged	-8765
▁thereon	-8766
▁thirsty	-8767
▁tyrants	-8768
▁Universe	-8769
▁bringing	-8770
▁courtesy	-8771
▁disguise	-8772
▁impossible	-8773
▁victorious	-8774
hea	-8775
frey	-8776
gian	-8777
horn	-8778
oust	-8779
ront	-8780
▁bif	-8781
▁gal	-8782
▁yew	-8783
inary	-8784
mbles	-8785
▁Nine	-8786
▁Wand	-8787
▁buff	-8788
▁enth	-8789
▁hare	-8790
▁meed	-8791
▁type	-8792
ankind	-8793
pherds	-8794
rained	-8795
uished	-8796
▁Trees	-8797
▁annoy	-8798
▁comin	-8799
▁dizzy	-8800
▁lions	-8801
▁shrew	-8802
▁tunes	-8803
▁Gather	-8804
▁Toward	-8805
▁attain	-8806
▁fourth	-8807
▁guides	-8808
▁multip	-8809
▁potent	-8810
▁supper	-8811
▁unlike	-8812
uttering	-8813
▁Blessed	-8814
▁marched	-8815
▁painful	-8816
▁stained	-8817
▁subdued	-8818
▁audience	-8819
▁descends	-8820
▁harmless	-8821
▁thorough	-8822
"--	-8823
bet	-8824
cke	-8825
wre	-8826
lder	-8827
lley	-8828
▁hoo	-8829
▁pig	-8830
▁ung	-8831
▁vag	-8832
▁Bold	-8833
▁Lily	-8834
▁Talk	-8835
▁Wise	-8836
▁York	-8837
▁grip	-8838
▁guer	-8839
▁nect	-8840
▁rill	-8841
▁syst	-8842
▁wage	-8843
pitaph	-8844
▁Fight	-8845
▁Poets	-8846
▁Start	-8847
▁armes	-8848
▁feign	-8849
▁flute	-8850
▁games	-8851
▁grape	-8852
▁peach	-8853
▁stake	-8854
▁tombs	-8855
▁traff	-8856
▁Greeks	-8857
▁befall	-8858
▁bosoms	-8859
▁bubble	-8860
▁commit	-8861
▁consec	-8862
▁fickle	-8863
▁slopes	-8864
▁sombre	-8865
▁strode	-8866
▁cypress	-8867
▁leading	-8868
▁lighter	-8869
▁pattern	-8870
▁pillars	-8871
▁refrain	-8872
▁tonight	-8873
▁watches	-8874
▁blissful	-8875
▁fiercely	-8876
▁striving	-8877
▁wanderer	-8878
▁delighted	-8879
▁difficult	-8880
▁gratitude	-8881
▁ignorance	-8882
▁judgement	-8883
▁Christians	-8884
;'	-8885
AD	-8886
ih	-8887
cis	-8888
uno	-8889
▁12	-8890
▁HE	-8891
▁Ur	-8892
▁Wr	-8893
▁XV	-8894
Look	-8895
unks	-8896
▁Gry	-8897
▁Wea	-8898
▁Wid	-8899
▁cob	-8900
blown	-8901
▁Grew	-8902
▁bord	-8903
▁clar	-8904
▁frae	-8905
▁phys	-8906
▁sord	-8907
▁China	-8908
▁Doubt	-8909
▁Mercy	-8910
▁clash	-8911
▁crust	-8912
▁dames	-8913
▁gaily	-8914
▁gales	-8915
▁knowe	-8916
▁patch	-8917
▁prair	-8918
▁spots	-8919
▁Turned	-8920
▁feller	-8921
▁origin	-8922
▁rebell	-8923
▁scared	-8924
▁shafts	-8925
▁softer	-8926
▁starve	-8927
▁unborn	-8928
▁Seeking	-8929
▁contain	-8930
▁convers	-8931
▁fertile	-8932
▁guessed	-8933
▁heaving	-8934
▁imagine	-8935
▁labours	-8936
▁prolong	-8937
▁scorned	-8938
▁stealth	-8939
▁Suddenly	-8940
▁electric	-8941
▁elephant	-8942
▁manifold	-8943
▁measured	-8944
▁polished	-8945
▁violence	-8946
▁answering	-8947
▁contented	-8948
▁perpetual	-8949
▁conquering	-8950
▁neighbours	-8951
Sw	-8952
UM	-8953
bon	-8954
has	-8955
▁Vo	-8956
acks	-8957
aper	-8958
dles	-8959
rude	-8960
ythe	-8961
▁YOU	-8962
▁ecl	-8963
▁fow	-8964
▁nin	-8965
Twere	-8966
glass	-8967
inate	-8968
isons	-8969
▁Lamb	-8970
▁Pure	-8971
▁bast	-8972
▁bolt	-8973
▁brut	-8974
▁butt	-8975
▁clut	-8976
▁ding	-8977
▁fits	-8978
▁forc	-8979
▁ford	-8980
▁lace	-8981
▁lash	-8982
▁lids	-8983
▁pest	-8984
▁scen	-8985
▁surm	-8986
ontent	-8987
▁Broad	-8988
▁Sense	-8989
▁chang	-8990
▁dayes	-8991
▁deeth	-8992
▁frank	-8993
▁rifle	-8994
▁schol	-8995
▁shift	-8996
▁sonne	-8997
▁spurn	-8998
▁Looked	-8999
▁Throne	-9000
▁banish	-9001
▁eating	-9002
▁fiends	-9003
▁leetle	-9004
▁nymphs	-9005
▁recess	-9006
▁richer	-9007
▁waning	-9008
▁whiles	-9009
▁Grecian	-9010
▁cheered	-9011
▁daisies	-9012
▁failing	-9013
▁strokes	-9014
▁extended	-9015
▁garlands	-9016
▁swallows	-9017
fig	-9018
ita	-9019
asps	-9020
chin	-9021
emen	-9022
itee	-9023
urre	-9024
▁Syl	-9025
▁coy	-9026
▁pup	-9027
dling	-9028
quest	-9029
▁Pict	-9030
▁defy	-9031
▁mote	-9032
▁rave	-9033
▁ween	-9034
mbling	-9035
ortion	-9036
▁Birth	-9037
▁Bride	-9038
▁Gives	-9039
▁awoke	-9040
▁choir	-9041
▁crook	-9042
▁dirty	-9043
▁hadst	-9044
▁hates	-9045
▁impet	-9046
▁purer	-9047
▁rills	-9048
▁tents	-9049
ception	-9050
▁Doreen	-9051
▁Honour	-9052
▁Vision	-9053
▁amazed	-9054
▁consum	-9055
▁dearer	-9056
▁fathom	-9057
▁hunted	-9058
▁kingly	-9059
▁precip	-9060
▁purity	-9061
▁seated	-9062
▁transl	-9063
▁forsake	-9064
▁palaces	-9065
▁sepulch	-9066
▁stepped	-9067
▁tuneful	-9068
▁whirled	-9069
▁converse	-9070
▁lengthen	-9071
▁butterfly	-9072
▁cherished	-9073
▁conquered	-9074
▁fragments	-9075
hah	-9076
▁BE	-9077
▁oo	-9078
folk	-9079
irls	-9080
odge	-9081
vial	-9082
▁Fin	-9083
▁GOD	-9084
▁Sic	-9085
▁awa	-9086
▁dip	-9087
▁Coll	-9088
▁Form	-9089
▁Girl	-9090
▁Inde	-9091
▁batt	-9092
▁lung	-9093
▁rand	-9094
giving	-9095
rehend	-9096
rument	-9097
▁Flood	-9098
▁Sonet	-9099
▁Songs	-9100
▁Weary	-9101
▁droop	-9102
▁fount	-9103
▁hymns	-9104
▁lucky	-9105
▁twine	-9106
▁wente	-9107
utation	-9108
▁Bridge	-9109
▁Prayer	-9110
▁Rodney	-9111
▁Thanne	-9112
▁billow	-9113
▁frosty	-9114
▁revere	-9115
▁sultry	-9116
▁Beloved	-9117
▁essence	-9118
▁flashes	-9119
▁glimpse	-9120
▁romance	-9121
▁Thoughts	-9122
▁entrance	-9123
▁guardian	-9124
▁murmured	-9125
▁revealed	-9126
▁starting	-9127
▁thoughte	-9128
▁thrilled	-9129
▁treacherous	-9130
On	-9131
kn	-9132
His	-9133
Thy	-9134
bid	-9135
osa	-9136
mong	-9137
▁Alb	-9138
▁Dry	-9139
▁Dun	-9140
▁Obs	-9141
▁bol	-9142
andal	-9143
bells	-9144
berry	-9145
izing	-9146
lance	-9147
zzled	-9148
▁Dust	-9149
▁July	-9150
▁Nile	-9151
▁cous	-9152
▁ferv	-9153
▁idea	-9154
▁loth	-9155
▁peri	-9156
▁sham	-9157
▁sobs	-9158
▁spit	-9159
▁tram	-9160
ounced	-9161
▁Brave	-9162
▁Flore	-9163
▁Harry	-9164
▁Scorn	-9165
▁Short	-9166
▁atoms	-9167
▁bards	-9168
▁depri	-9169
▁drede	-9170
▁gloss	-9171
▁goose	-9172
▁madly	-9173
▁rider	-9174
▁usual	-9175
umbered	-9176
▁Future	-9177
▁Gareth	-9178
▁active	-9179
▁brooks	-9180
▁clever	-9181
▁grapes	-9182
▁inspir	-9183
▁lesser	-9184
▁lordly	-9185
▁malice	-9186
▁musing	-9187
▁ravish	-9188
▁charmed	-9189
▁closely	-9190
▁winning	-9191
▁contempt	-9192
▁shouldst	-9193
▁courteous	-9194
▁disappear	-9195
▁gentlemen	-9196
▁whistling	-9197
▁generations	-9198
▁transparent	-9199
Tw	-9200
yt	-9201
Her	-9202
era	-9203
lie	-9204
net	-9205
olf	-9206
amin	-9207
oves	-9208
rait	-9209
▁Abs	-9210
▁Adv	-9211
▁Mah	-9212
▁Rob	-9213
▁Try	-9214
▁imb	-9215
▁lid	-9216
allow	-9217
overe	-9218
▁Step	-9219
▁Wife	-9220
▁dive	-9221
▁odds	-9222
▁toll	-9223
▁Awake	-9224
▁Below	-9225
▁Quiet	-9226
▁anoon	-9227
▁beare	-9228
▁brest	-9229
▁chaos	-9230
▁noisy	-9231
▁refle	-9232
▁slips	-9233
▁title	-9234
▁wills	-9235
▁darker	-9236
▁fishes	-9237
▁pearly	-9238
▁sweeps	-9239
▁withal	-9240
▁Gryphon	-9241
▁Victory	-9242
▁Written	-9243
▁animals	-9244
▁disting	-9245
▁dragged	-9246
▁foliage	-9247
▁moaning	-9248
▁nowhere	-9249
▁require	-9250
▁Northern	-9251
▁subjects	-9252
▁character	-9253
▁sorrowful	-9254
bby	-9255
cel	-9256
cet	-9257
yrs	-9258
▁eu	-9259
iend	-9260
lymp	-9261
oost	-9262
upon	-9263
▁Vir	-9264
▁pav	-9265
olent	-9266
ospel	-9267
prise	-9268
▁appe	-9269
▁dine	-9270
▁inex	-9271
▁knit	-9272
▁nois	-9273
▁oars	-9274
▁tast	-9275
▁zone	-9276
▁Imper	-9277
▁Lords	-9278
▁Maker	-9279
▁Marie	-9280
▁Souls	-9281
▁Tower	-9282
▁Whate	-9283
▁absor	-9284
▁downe	-9285
▁finer	-9286
▁foret	-9287
▁sleek	-9288
▁thise	-9289
▁yearn	-9290
▁Ballad	-9291
▁Battle	-9292
▁Stands	-9293
▁absurd	-9294
▁bounty	-9295
▁carved	-9296
▁dreamy	-9297
▁griefe	-9298
▁melted	-9299
▁pushed	-9300
▁sealed	-9301
▁serves	-9302
▁vapour	-9303
▁Western	-9304
▁convent	-9305
▁explain	-9306
▁gliding	-9307
▁godlike	-9308
▁granite	-9309
▁suffice	-9310
▁tedious	-9311
▁adventure	-9312
▁descended	-9313
▁springing	-9314
▁immortality	-9315
IC	-9316
asm	-9317
lem	-9318
sse	-9319
ynt	-9320
▁02	-9321
▁AR	-9322
blin	-9323
brew	-9324
five	-9325
ipse	-9326
past	-9327
▁Ire	-9328
▁ebb	-9329
▁gig	-9330
▁gut	-9331
▁mam	-9332
apped	-9333
child	-9334
cture	-9335
leton	-9336
▁Hugo	-9337
▁Jose	-9338
▁Lone	-9339
▁Sept	-9340
▁Serv	-9341
▁Stay	-9342
▁beak	-9343
▁boar	-9344
▁dale	-9345
▁shin	-9346
mitted	-9347
ormous	-9348
▁Grant	-9349
▁Guard	-9350
▁Inter	-9351
▁cough	-9352
▁creek	-9353
▁gaudy	-9354
▁laden	-9355
▁peple	-9356
▁poore	-9357
▁swamp	-9358
▁talks	-9359
▁unfur	-9360
▁union	-9361
▁venom	-9362
▁wrist	-9363
olesome	-9364
ulation	-9365
▁Coming	-9366
▁Nought	-9367
▁Temple	-9368
▁aghast	-9369
▁cleare	-9370
▁credit	-9371
▁enters	-9372
▁expand	-9373
▁sinful	-9374
▁sinner	-9375
▁Eustace	-9376
▁Richard	-9377
▁Spirits	-9378
▁clearer	-9379
▁greatly	-9380
▁heavily	-9381
▁holiday	-9382
▁hostile	-9383
▁leather	-9384
▁marvell	-9385
▁project	-9386
▁scenery	-9387
▁smoking	-9388
▁smother	-9389
▁December	-9390
▁Roderick	-9391
▁foremost	-9392
▁fantastic	-9393
▁squadrons	-9394
▁delightful	-9395
▁unconscious	-9396
ID	-9397
rys	-9398
apes	-9399
blue	-9400
cles	-9401
▁Dec	-9402
▁Ioy	-9403
Which	-9404
anger	-9405
ardin	-9406
cribe	-9407
rayed	-9408
ungle	-9409
▁bale	-9410
▁fist	-9411
▁hiss	-9412
▁toys	-9413
inesse	-9414
strils	-9415
▁Cloud	-9416
▁Ellen	-9417
▁Olymp	-9418
▁coral	-9419
▁pound	-9420
▁throb	-9421
▁unite	-9422
▁Palace	-9423
▁Sailor	-9424
▁Triump	-9425
▁animal	-9426
▁deceit	-9427
▁effort	-9428
▁leaped	-9429
▁random	-9430
▁sordid	-9431
▁speche	-9432
▁verses	-9433
▁youths	-9434
attering	-9435
▁cigaret	-9436
▁deserts	-9437
▁divided	-9438
▁drifted	-9439
▁extreme	-9440
▁hapless	-9441
▁harbour	-9442
▁highway	-9443
▁machine	-9444
▁pasture	-9445
▁princes	-9446
▁showing	-9447
▁strives	-9448
▁Margaret	-9449
▁everyone	-9450
▁lovelier	-9451
▁phantoms	-9452
▁excellent	-9453
▁transform	-9454
▁particular	-9455
▁speechless	-9456
je	-9457
ILL	-9458
gal	-9459
ula	-9460
▁ps	-9461
aten	-9462
omon	-9463
pled	-9464
vish	-9465
worm	-9466
▁Dor	-9467
▁Est	-9468
▁Mau	-9469
▁XVI	-9470
▁toe	-9471
azing	-9472
force	-9473
riend	-9474
riots	-9475
▁Doom	-9476
▁Fitz	-9477
▁Hang	-9478
▁Hist	-9479
▁bane	-9480
▁drip	-9481
▁hart	-9482
▁lots	-9483
▁oper	-9484
▁warn	-9485
closed	-9486
uments	-9487
▁Dread	-9488
▁Horse	-9489
▁benef	-9490
▁occup	-9491
▁pilot	-9492
aunting	-9493
▁Empire	-9494
▁alarms	-9495
▁bellow	-9496
▁climbs	-9497
▁clutch	-9498
▁deaths	-9499
▁dreamt	-9500
▁drifts	-9501
▁legend	-9502
▁shoots	-9503
▁spoils	-9504
▁symbol	-9505
▁thrift	-9506
▁truths	-9507
▁Welcome	-9508
▁berries	-9509
▁candles	-9510
▁finally	-9511
▁gesture	-9512
▁humming	-9513
▁reality	-9514
▁scourge	-9515
▁verdant	-9516
▁wealthy	-9517
▁chivalry	-9518
▁deserted	-9519
▁flourish	-9520
▁glancing	-9521
▁opposite	-9522
▁reverent	-9523
▁tomorrow	-9524
▁westward	-9525
run	-9526
wit	-9527
yer	-9528
▁Di	-9529
awed	-9530
eled	-9531
rack	-9532
▁Exp	-9533
urbed	-9534
▁Ages	-9535
▁Moor	-9536
▁Tall	-9537
▁buzz	-9538
▁duke	-9539
▁plag	-9540
▁poll	-9541
▁stee	-9542
▁ster	-9543
▁wove	-9544
▁False	-9545
▁amend	-9546
▁belov	-9547
▁dealt	-9548
▁herit	-9549
▁ideal	-9550
▁kills	-9551
▁knave	-9552
▁leans	-9553
▁nails	-9554
▁nobly	-9555
▁scope	-9556
ference	-9557
▁Change	-9558
▁assail	-9559
▁curses	-9560
▁inland	-9561
▁leaden	-9562
▁proves	-9563
▁shaped	-9564
▁spared	-9565
▁stains	-9566
▁thinke	-9567
▁Babylon	-9568
▁Bacchus	-9569
▁Ireland	-9570
▁Whither	-9571
▁blinded	-9572
▁carries	-9573
▁columns	-9574
▁fitting	-9575
▁glasses	-9576
▁guerdon	-9577
▁hearken	-9578
▁quarrel	-9579
▁request	-9580
▁slipped	-9581
▁soaring	-9582
▁princess	-9583
▁shifting	-9584
▁uplifted	-9585
▁barbarous	-9586
▁neglected	-9587
▁shivering	-9588
▁instrument	-9589
▁passengers	-9590
SE	-9591
!''	-9592
eau	-9593
leg	-9594
nim	-9595
why	-9596
▁ni	-9597
aned	-9598
iper	-9599
mond	-9600
olph	-9601
ples	-9602
sels	-9603
wall	-9604
▁Hir	-9605
▁Hus	-9606
ciety	-9607
drawn	-9608
ucked	-9609
▁Answ	-9610
▁grad	-9611
▁mane	-9612
▁monk	-9613
▁owns	-9614
▁wold	-9615
▁wool	-9616
dening	-9617
▁Breat	-9618
▁Conce	-9619
▁Faire	-9620
▁Touch	-9621
▁dwarf	-9622
▁sandy	-9623
▁splin	-9624
▁vigil	-9625
▁Desire	-9626
▁Rustum	-9627
▁Thrice	-9628
▁canvas	-9629
▁mental	-9630
▁papers	-9631
▁shared	-9632
▁snakes	-9633
▁spaces	-9634
▁swings	-9635
coloured	-9636
▁Spanish	-9637
▁address	-9638
▁cleared	-9639
▁council	-9640
▁fancied	-9641
▁fearing	-9642
▁pageant	-9643
▁sobbing	-9644
▁heedless	-9645
▁impetuous	-9646
▁transient	-9647
▁withdrawn	-9648
▁butterflies	-9649
▁indifferent	-9650
Don	-9651
inc	-9652
ups	-9653
vis	-9654
zer	-9655
▁14	-9656
Love	-9657
agan	-9658
bows	-9659
feit	-9660
icke	-9661
▁Ach	-9662
▁Big	-9663
▁Cri	-9664
▁Les	-9665
▁Nap	-9666
▁ech	-9667
▁pir	-9668
gling	-9669
quake	-9670
▁Bull	-9671
▁Lift	-9672
▁Seas	-9673
▁Seen	-9674
▁Sons	-9675
▁Wide	-9676
▁XVII	-9677
▁braw	-9678
▁cruc	-9679
▁duly	-9680
▁gang	-9681
▁lawe	-9682
▁plow	-9683
▁risk	-9684
▁stom	-9685
cribed	-9686
▁apace	-9687
▁chear	-9688
▁kynde	-9689
▁porch	-9690
▁sugar	-9691
▁swine	-9692
mission	-9693
▁Albert	-9694
▁Caesar	-9695
▁Doctor	-9696
▁bullet	-9697
▁calmly	-9698
▁creeps	-9699
▁nectar	-9700
▁reluct	-9701
▁rustle	-9702
▁sticks	-9703
▁stores	-9704
▁sylvan	-9705
▁Eastern	-9706
▁Towards	-9707
▁caverns	-9708
▁century	-9709
▁charged	-9710
▁furnace	-9711
▁gleamed	-9712
▁offence	-9713
▁surpass	-9714
▁thrills	-9715
▁crossing	-9716
▁sunbeams	-9717
▁withdrew	-9718
▁darkening	-9719
▁exceeding	-9720
▁flowering	-9721
▁minstrels	-9722
▁flickering	-9723
▁sufficient	-9724
▁imagination	-9725
".	-9726
aus	-9727
gon	-9728
rep	-9729
too	-9730
▁13	-9731
OICE	-9732
bury	-9733
ctic	-9734
eart	-9735
rill	-9736
vert	-9737
year	-9738
▁qui	-9739
bands	-9740
iable	-9741
▁Bore	-9742
▁Foot	-9743
▁Isle	-9744
▁Lucy	-9745
▁Wilt	-9746
▁bier	-9747
▁ruby	-9748
▁snug	-9749
fields	-9750
winged	-9751
▁Bible	-9752
▁Canto	-9753
▁Maxim	-9754
▁Super	-9755
▁lanes	-9756
▁lesse	-9757
▁swarm	-9758
▁thumb	-9759
▁trial	-9760
osition	-9761
▁decent	-9762
▁hasten	-9763
▁mocked	-9764
▁orient	-9765
▁tracks	-9766
▁baffled	-9767
▁ceiling	-9768
▁deserve	-9769
▁fifteen	-9770
▁flushed	-9771
▁shimmer	-9772
▁stooped	-9773
▁summons	-9774
▁toiling	-9775
▁vapours	-9776
▁applause	-9777
▁grandeur	-9778
▁ruthless	-9779
▁scornful	-9780
▁stealing	-9781
▁Mountains	-9782
▁eloquence	-9783
▁loveliest	-9784
▁strengthen	-9785
▁yourselves	-9786
lay	-9787
och	-9788
pon	-9789
ugs	-9790
▁Ox	-9791
▁SE	-9792
▁ST	-9793
dies	-9794
enci	-9795
fles	-9796
onna	-9797
▁dul	-9798
▁jet	-9799
▁lik	-9800
▁wyn	-9801
hable	-9802
inded	-9803
inese	-9804
liche	-9805
world	-9806
▁Feel	-9807
▁List	-9808
▁Prof	-9809
▁crag	-9810
▁gear	-9811
▁publ	-9812
▁Table	-9813
▁kinds	-9814
▁lyric	-9815
▁necks	-9816
▁plent	-9817
▁waked	-9818
▁Joseph	-9819
▁Milton	-9820
▁Saints	-9821
▁alight	-9822
▁awaken	-9823
▁border	-9824
▁chiefs	-9825
▁chilly	-9826
▁discip	-9827
▁helped	-9828
▁humbly	-9829
▁likely	-9830
▁portal	-9831
▁prepar	-9832
▁scheme	-9833
▁toiled	-9834
▁tricks	-9835
▁Believe	-9836
▁arrayed	-9837
▁athwart	-9838
▁cruelty	-9839
▁deceive	-9840
▁emotion	-9841
▁fishing	-9842
▁gathers	-9843
▁granted	-9844
▁grieved	-9845
▁harness	-9846
▁inhabit	-9847
▁nearest	-9848
▁poppies	-9849
▁wanders	-9850
▁nostrils	-9851
▁pavement	-9852
▁immediate	-9853
▁glistening	-9854
):	-9855
.—	-9856
aur	-9857
▁EN	-9858
even	-9859
oven	-9860
▁Lar	-9861
▁Pac	-9862
▁foo	-9863
still	-9864
ursed	-9865
▁Bare	-9866
▁Cass	-9867
▁LOVE	-9868
▁affl	-9869
▁boss	-9870
▁carn	-9871
▁eleg	-9872
▁undo	-9873
▁vass	-9874
icated	-9875
ranged	-9876
uddled	-9877
▁Alike	-9878
▁Enter	-9879
▁Grass	-9880
▁Thing	-9881
▁XVIII	-9882
▁bland	-9883
▁chaff	-9884
▁lists	-9885
▁reads	-9886
▁sixty	-9887
▁swain	-9888
▁meanes	-9889
▁pocket	-9890
▁tragic	-9891
▁Hearing	-9892
▁Michael	-9893
▁Outside	-9894
▁failure	-9895
▁grieves	-9896
▁guarded	-9897
▁inherit	-9898
▁lingers	-9899
▁painter	-9900
▁plainly	-9901
▁raiment	-9902
▁willows	-9903
▁American	-9904
▁Beatrice	-9905
▁Darkness	-9906
▁darkling	-9907
▁distinct	-9908
▁minister	-9909
▁shameful	-9910
▁watchful	-9911
▁withdraw	-9912
▁melodious	-9913
▁salvation	-9914
▁shepherds	-9915
▁transport	-9916
▁bridegroom	-9917
OST	-9918
enc	-9919
may	-9920
wes	-9921
▁."	-9922
oint	-9923
thus	-9924
▁Cro	-9925
▁Ful	-9926
▁Hot	-9927
▁Own	-9928
▁PAR	-9929
▁Sem	-9930
▁ape	-9931
▁apt	-9932
▁arc	-9933
▁dug	-9934
▁fug	-9935
▁Elys	-9936
▁Noon	-9937
▁Reve	-9938
▁Sapp	-9939
▁Very	-9940
▁crop	-9941
▁curs	-9942
▁doun	-9943
▁heem	-9944
▁smil	-9945
action	-9946
erving	-9947
footed	-9948
▁Cried	-9949
▁Drink	-9950
▁Julia	-9951
▁chick	-9952
▁conse	-9953
▁exult	-9954
▁farms	-9955
▁goble	-9956
▁moans	-9957
▁olden	-9958
▁prone	-9959
▁prose	-9960
▁spill	-9961
▁tints	-9962
▁wille	-9963
▁Almost	-9964
▁Thebes	-9965
▁basket	-9966
▁flakes	-9967
▁harbor	-9968
▁harder	-9969
▁invite	-9970
▁nursed	-9971
▁orders	-9972
▁parson	-9973
▁police	-9974
▁scorne	-9975
▁sheets	-9976
▁sunken	-9977
▁blasted	-9978
▁sheaves	-9979
▁sparrow	-9980
▁strayed	-9981
▁bounding	-9982
▁heritage	-9983
▁prophecy	-9984
▁restrain	-9985
▁tortured	-9986
▁September	-9987
▁dauntless	-9988
zo	-9989
.''	-9990
ech	-9991
imb	-9992
voc	-9993
▁2.	-9994
▁ll	-9995
Dear	-9996
eale	-9997
mbre	-9998
nels	-9999
oner	-10000
otes	-10001
thro	-10002
umbs	-10003
▁Aur	-10004
▁Spl	-10005
▁Tar	-10006
▁XIX	-10007
▁gum	-10008
Image	-10009
cloth	-10010
▁Cain	-10011
▁Quod	-10012
▁Shar	-10013
▁atom	-10014
▁linn	-10015
▁rebu	-10016
▁sill	-10017
▁swam	-10018
▁upst	-10019
orable	-10020
▁Burst	-10021
▁Often	-10022
▁Saxon	-10023
▁Trust	-10024
▁ambit	-10025
▁bathe	-10026
▁germs	-10027
▁mater	-10028
▁mimic	-10029
▁owned	-10030
▁peyne	-10031
▁slugg	-10032
▁stung	-10033
▁toast	-10034
▁wring	-10035
▁Govern	-10036
▁Silver	-10037
▁Strike	-10038
▁Yellow	-10039
▁beware	-10040
▁breeds	-10041
▁cleave	-10042
▁coarse	-10043
▁dashed	-10044
▁glides	-10045
▁martyr	-10046
▁needle	-10047
▁stolen	-10048
▁Prophet	-10049
▁attract	-10050
▁bubbles	-10051
▁controu	-10052
▁corners	-10053
▁escaped	-10054
▁killing	-10055
▁privile	-10056
▁produce	-10057
▁thereby	-10058
▁appetite	-10059
▁argument	-10060
▁disclose	-10061
▁mightier	-10062
▁matchless	-10063
▁religious	-10064
▁sleepless	-10065
▁twinkling	-10066
Er	-10067
Ex	-10068
Sp	-10069
UT	-10070
vil	-10071
▁01	-10072
▁ez	-10073
anes	-10074
noch	-10075
oise	-10076
qual	-10077
real	-10078
shad	-10079
sick	-10080
▁Few	-10081
▁Leg	-10082
▁Wed	-10083
ccess	-10084
ceans	-10085
mates	-10086
olved	-10087
▁Cler	-10088
▁Hour	-10089
▁Pant	-10090
▁Pear	-10091
▁Read	-10092
▁Send	-10093
▁exer	-10094
▁lett	-10095
▁nail	-10096
▁pian	-10097
▁pron	-10098
▁qual	-10099
▁whel	-10100
▁Clare	-10101
▁Smile	-10102
▁Trump	-10103
▁binds	-10104
▁brine	-10105
▁conne	-10106
▁decks	-10107
▁dight	-10108
▁medic	-10109
▁peers	-10110
▁robin	-10111
▁rural	-10112
▁weren	-10113
ustomed	-10114
▁Tyrant	-10115
▁Valley	-10116
▁appeal	-10117
▁bushes	-10118
▁clothe	-10119
▁cuckoo	-10120
▁devils	-10121
▁extend	-10122
▁patron	-10123
▁stalks	-10124
▁stress	-10125
▁unchan	-10126
▁united	-10127
▁viewed	-10128
▁balance	-10129
▁blasphe	-10130
▁blushes	-10131
▁bruised	-10132
▁burthen	-10133
▁decreed	-10134
▁dungeon	-10135
▁knocked	-10136
▁sincere	-10137
▁spotted	-10138
▁traffic	-10139
▁unheard	-10140
▁varying	-10141
▁wayward	-10142
▁Pandarus	-10143
▁chestnut	-10144
▁dominion	-10145
▁enormous	-10146
▁measures	-10147
▁monsters	-10148
▁perilous	-10149
▁presents	-10150
▁stripped	-10151
▁brightest	-10152
▁encounter	-10153
▁messenger	-10154
▁discovered	-10155
HER	-10156
Nor	-10157
lyn	-10158
▁Ba	-10159
bred	-10160
eded	-10161
este	-10162
icle	-10163
inne	-10164
oute	-10165
▁Adm	-10166
▁Fre	-10167
▁Got	-10168
▁HER	-10169
▁Ida	-10170
▁ach	-10171
Neath	-10172
Twill	-10173
cheth	-10174
inous	-10175
ively	-10176
▁Prep	-10177
▁aims	-10178
▁eyed	-10179
▁plat	-10180
▁semb	-10181
▁tour	-10182
▁upro	-10183
▁wyse	-10184
alling	-10185
earied	-10186
essels	-10187
hereal	-10188
▁Homer	-10189
▁Quest	-10190
▁Rhine	-10191
▁lucid	-10192
▁noont	-10193
▁quaff	-10194
▁seest	-10195
▁tarry	-10196
▁worry	-10197
▁Butter	-10198
▁Streng	-10199
▁beacon	-10200
▁bonnie	-10201
▁burial	-10202
▁cherry	-10203
▁expire	-10204
▁heaped	-10205
▁reject	-10206
▁ripple	-10207
▁scanty	-10208
▁soften	-10209
▁stable	-10210
▁Camelot	-10211
▁Chinese	-10212
▁Thunder	-10213
▁Whereon	-10214
▁deplore	-10215
▁forgets	-10216
▁opprest	-10217
▁profess	-10218
▁shortly	-10219
▁swaying	-10220
▁battered	-10221
▁confound	-10222
▁crescent	-10223
▁grievous	-10224
▁languish	-10225
▁standard	-10226
▁towering	-10227
▁wavering	-10228
▁endeavour	-10229
▁scorching	-10230
▁harmonious	-10231
▁thundering	-10232
▁magnificent	-10233
UN	-10234
GHT	-10235
ean	-10236
emon	-10237
veth	-10238
▁CXX	-10239
▁Ext	-10240
▁Jac	-10241
▁hab	-10242
▁noo	-10243
▁wip	-10244
inent	-10245
selve	-10246
▁Cher	-10247
▁Cool	-10248
▁Goes	-10249
▁Inno	-10250
▁Shut	-10251
▁eats	-10252
▁glut	-10253
▁mixt	-10254
▁seyn	-10255
▁unqu	-10256
------	-10257
bright	-10258
urning	-10259
▁Orion	-10260
▁Trist	-10261
▁amaze	-10262
▁broom	-10263
▁muche	-10264
▁races	-10265
▁sages	-10266
▁shove	-10267
▁swete	-10268
ceeding	-10269
theless	-10270
▁Caught	-10271
▁Hebrew	-10272
▁Voices	-10273
▁bathed	-10274
▁bended	-10275
▁chairs	-10276
▁energy	-10277
▁finest	-10278
▁fitful	-10279
▁losing	-10280
▁mounts	-10281
▁scales	-10282
▁sickly	-10283
▁untold	-10284
umerable	-10285
▁Emperor	-10286
▁Holding	-10287
▁abandon	-10288
▁altered	-10289
▁fragile	-10290
▁haggard	-10291
▁natures	-10292
▁peoples	-10293
▁rocking	-10294
▁warrant	-10295
▁Dreaming	-10296
▁carriage	-10297
▁numerous	-10298
▁whiteness	-10299
▁motionless	-10300
Un	-10301
alo	-10302
cts	-10303
whe	-10304
xes	-10305
aign	-10306
ieth	-10307
ilee	-10308
unte	-10309
▁Haw	-10310
▁Unw	-10311
▁Vis	-10312
▁lyf	-10313
▁ult	-10314
black	-10315
fires	-10316
ummer	-10317
▁Arms	-10318
▁Flow	-10319
▁Horn	-10320
▁Lull	-10321
▁Sees	-10322
▁Told	-10323
▁boil	-10324
▁curb	-10325
▁daff	-10326
▁hadn	-10327
▁kyng	-10328
▁waft	-10329
semble	-10330
▁Cause	-10331
▁Falls	-10332
▁Sight	-10333
▁VOICE	-10334
▁bared	-10335
▁beste	-10336
▁godly	-10337
▁moods	-10338
▁strew	-10339
▁suits	-10340
▁trout	-10341
▁Breath	-10342
▁Isabel	-10343
▁Philip	-10344
▁blasts	-10345
▁comely	-10346
▁riddle	-10347
▁scythe	-10348
▁smells	-10349
▁teares	-10350
ashioned	-10351
▁Colonel	-10352
▁blindly	-10353
▁central	-10354
▁crosses	-10355
▁filling	-10356
▁pursues	-10357
▁suggest	-10358
▁accident	-10359
▁destined	-10360
▁kingdoms	-10361
▁amazement	-10362
▁forgetting	-10363
Ay	-10364
hib	-10365
beit	-10366
ogra	-10367
such	-10368
▁Neg	-10369
▁Sty	-10370
▁baw	-10371
▁elm	-10372
▁les	-10373
▁sam	-10374
ainst	-10375
bbled	-10376
estic	-10377
iless	-10378
itute	-10379
raged	-10380
▁Band	-10381
▁Mess	-10382
▁gilt	-10383
▁tard	-10384
▁tres	-10385
leaves	-10386
▁Dying	-10387
▁herbs	-10388
▁kinde	-10389
▁laste	-10390
▁mocks	-10391
▁quake	-10392
▁snuff	-10393
▁theyr	-10394
▁wells	-10395
▁Called	-10396
▁breach	-10397
▁cheese	-10398
▁cotton	-10399
▁covert	-10400
▁devour	-10401
▁earned	-10402
▁floors	-10403
▁incess	-10404
▁nimble	-10405
▁nobles	-10406
▁pencil	-10407
▁unjust	-10408
▁useful	-10409
▁Sitting	-10410
▁demands	-10411
▁dischar	-10412
▁doorway	-10413
▁floated	-10414
▁liberal	-10415
▁reasons	-10416
▁virgins	-10417
▁blinding	-10418
▁brimming	-10419
▁eastward	-10420
▁eloquent	-10421
▁hawthorn	-10422
▁humanity	-10423
▁instruct	-10424
▁destroyed	-10425
▁fulfilled	-10426
▁important	-10427
▁prostrate	-10428
▁starlight	-10429
ba	-10430
opy	-10431
owe	-10432
pin	-10433
upp	-10434
win	-10435
▁Si	-10436
addy	-10437
clad	-10438
ifer	-10439
oken	-10440
olds	-10441
rand	-10442
ruth	-10443
uall	-10444
zzle	-10445
▁Add	-10446
▁Dew	-10447
▁Gro	-10448
▁Lin	-10449
▁gin	-10450
▁vie	-10451
mined	-10452
ratch	-10453
ville	-10454
▁Drew	-10455
▁Hero	-10456
▁Hush	-10457
▁Kept	-10458
▁Need	-10459
▁Sole	-10460
▁Weep	-10461
▁conj	-10462
▁enam	-10463
▁flaw	-10464
▁orbs	-10465
▁pays	-10466
▁prob	-10467
▁stan	-10468
▁Enoch	-10469
▁Quite	-10470
▁Shine	-10471
▁Turns	-10472
▁balls	-10473
▁eaves	-10474
▁glove	-10475
▁grete	-10476
▁owner	-10477
▁penit	-10478
▁piety	-10479
▁slide	-10480
▁sorts	-10481
▁vowed	-10482
berries	-10483
raction	-10484
thought	-10485
▁Indeed	-10486
▁Softly	-10487
▁bugles	-10488
▁covers	-10489
▁device	-10490
▁knyght	-10491
▁marrow	-10492
▁packed	-10493
▁tasted	-10494
▁thighs	-10495
▁thrive	-10496
▁traced	-10497
▁writes	-10498
▁Betwixt	-10499
▁Hermann	-10500
▁Solomon	-10501
▁Turning	-10502
▁bidding	-10503
▁bounded	-10504
▁clamour	-10505
▁forbear	-10506
▁implore	-10507
▁mourned	-10508
▁removed	-10509
▁spright	-10510
▁survive	-10511
▁touches	-10512
▁himselfe	-10513
▁methinks	-10514
▁preacher	-10515
▁receives	-10516
▁torrents	-10517
▁whenever	-10518
▁abandoned	-10519
▁advantage	-10520
▁condition	-10521
▁countries	-10522
▁consciousness	-10523
.,	-10524
ka	-10525
acc	-10526
ano	-10527
nat	-10528
▁Hu	-10529
▁ot	-10530
Than	-10531
deep	-10532
oric	-10533
ruly	-10534
shot	-10535
▁Jan	-10536
▁gor	-10537
▁hae	-10538
▁tod	-10539
▁unh	-10540
Sweet	-10541
agers	-10542
aging	-10543
brate	-10544
kward	-10545
roken	-10546
▁Purs	-10547
▁duck	-10548
▁pist	-10549
▁sapp	-10550
atures	-10551
irling	-10552
▁Eight	-10553
▁Press	-10554
▁aglow	-10555
▁domes	-10556
▁fatig	-10557
▁holes	-10558
▁lambs	-10559
▁reson	-10560
▁spies	-10561
ourable	-10562
▁Aurora	-10563
▁falcon	-10564
▁firmly	-10565
▁glooms	-10566
▁pounds	-10567
▁rescue	-10568
▁resemb	-10569
▁strung	-10570
▁Forgive	-10571
▁Princes	-10572
▁assured	-10573
▁beaming	-10574
▁bullets	-10575
▁clouded	-10576
▁dazzled	-10577
▁pretend	-10578
▁seventy	-10579
▁slavery	-10580
▁sparkle	-10581
▁thicket	-10582
▁thrones	-10583
▁tossing	-10584
▁Atlantic	-10585
▁Florence	-10586
▁casement	-10587
▁chambers	-10588
▁currents	-10589
▁ethereal	-10590
▁inspired	-10591
▁stirring	-10592
▁rejoicing	-10593
▁worthless	-10594
CT	-10595
OND	-10596
die	-10597
yse	-10598
▁('	-10599
▁CX	-10600
▁Ut	-10601
Have	-10602
case	-10603
erie	-10604
high	-10605
rapt	-10606
ruce	-10607
▁Lot	-10608
▁XXI	-10609
▁ank	-10610
▁hes	-10611
▁nam	-10612
dying	-10613
ifies	-10614
itors	-10615
▁Coun	-10616
▁Host	-10617
▁Laid	-10618
▁Noah	-10619
▁Room	-10620
▁Sigh	-10621
▁Tong	-10622
▁Wake	-10623
▁bang	-10624
▁bash	-10625
▁pinn	-10626
▁snar	-10627
▁tawn	-10628
ential	-10629
▁Bloom	-10630
▁Creat	-10631
▁Dante	-10632
▁Thank	-10633
▁Third	-10634
▁Thous	-10635
▁Uncle	-10636
▁cedar	-10637
▁curve	-10638
▁dwind	-10639
▁hoard	-10640
▁hunts	-10641
▁illum	-10642
▁linen	-10643
▁melts	-10644
▁milky	-10645
▁odour	-10646
▁squir	-10647
▁troph	-10648
▁vexed	-10649
▁wrapt	-10650
▁aboute	-10651
▁copper	-10652
▁manere	-10653
▁notion	-10654
▁roared	-10655
▁swayed	-10656
▁brittle	-10657
▁condemn	-10658
▁equally	-10659
▁grounds	-10660
▁princip	-10661
▁refused	-10662
▁remaine	-10663
▁thieves	-10664
▁trouthe	-10665
aughtered	-10666
urrection	-10667
▁Standing	-10668
▁coloured	-10669
▁greeting	-10670
▁lingered	-10671
▁position	-10672
▁eternally	-10673
▁everybody	-10674
▁plaintive	-10675
▁surrender	-10676
▁excellence	-10677
▁expression	-10678
▁neighbouring	-10679
pa	-10680
vi	-10681
eld	-10682
tho	-10683
nigh	-10684
riel	-10685
urid	-10686
▁Alt	-10687
▁Hes	-10688
▁Lit	-10689
▁Por	-10690
▁Rol	-10691
▁Vio	-10692
▁WHE	-10693
▁eke	-10694
▁sew	-10695
aract	-10696
bbers	-10697
ilies	-10698
ubble	-10699
vious	-10700
▁Anon	-10701
▁Crow	-10702
▁Erin	-10703
▁Hair	-10704
▁Move	-10705
▁Sear	-10706
▁Sign	-10707
▁View	-10708
▁bile	-10709
▁kids	-10710
▁mand	-10711
▁nerv	-10712
▁sett	-10713
▁wane	-10714
▁wher	-10715
inkles	-10716
licted	-10717
ranger	-10718
umbles	-10719
▁Dutch	-10720
▁Loved	-10721
▁Spoon	-10722
▁Wrong	-10723
▁flank	-10724
▁froth	-10725
▁grope	-10726
▁group	-10727
▁hardy	-10728
▁holly	-10729
▁hurts	-10730
▁hyeah	-10731
▁meads	-10732
▁paced	-10733
▁penet	-10734
▁pursu	-10735
▁seren	-10736
▁Island	-10737
▁Thanks	-10738
▁critic	-10739
▁exting	-10740
▁fleece	-10741
▁frenzy	-10742
▁interv	-10743
▁masses	-10744
▁oother	-10745
▁rabbit	-10746
▁sleeve	-10747
▁vertue	-10748
cription	-10749
▁Smiling	-10750
▁couldst	-10751
▁moonlit	-10752
▁reaches	-10753
▁tumbled	-10754
▁wakeful	-10755
▁wasting	-10756
▁painting	-10757
▁pastures	-10758
▁preserve	-10759
▁sometime	-10760
▁tumbling	-10761
▁exhausted	-10762
▁senseless	-10763
Ar	-10764
cut	-10765
lle	-10766
rup	-10767
sea	-10768
atre	-10769
reet	-10770
roun	-10771
stra	-10772
▁jam	-10773
▁mit	-10774
▁wig	-10775
imely	-10776
olate	-10777
▁cats	-10778
▁dide	-10779
▁grav	-10780
▁sere	-10781
▁stal	-10782
▁trap	-10783
▁wole	-10784
▁Begin	-10785
▁Moses	-10786
▁Perse	-10787
▁Teach	-10788
▁knell	-10789
▁riven	-10790
▁seeme	-10791
▁skirt	-10792
▁spurs	-10793
▁sulph	-10794
ication	-10795
olation	-10796
▁Crying	-10797
▁Maiden	-10798
▁Struck	-10799
▁Wealth	-10800
▁handle	-10801
▁loaded	-10802
▁maketh	-10803
▁mostly	-10804
▁othere	-10805
▁polite	-10806
▁reconc	-10807
▁singin	-10808
▁vigour	-10809
▁Science	-10810
▁approve	-10811
▁disturb	-10812
▁glanced	-10813
▁legions	-10814
▁mirrors	-10815
▁muffled	-10816
▁peacock	-10817
▁pursuit	-10818
▁stature	-10819
▁trusted	-10820
▁vessels	-10821
▁weighed	-10822
▁whereof	-10823
▁Methinks	-10824
▁expected	-10825
▁groaning	-10826
▁hundreds	-10827
▁lustrous	-10828
▁purchase	-10829
▁starving	-10830
▁strained	-10831
▁Somewhere	-10832
▁presently	-10833
▁struggled	-10834
▁woodlands	-10835
▁Friendship	-10836
:-	-10837
ga	-10838
afe	-10839
arc	-10840
gri	-10841
por	-10842
aude	-10843
ibus	-10844
ilet	-10845
▁Dow	-10846
▁Fif	-10847
▁Hol	-10848
▁Lim	-10849
▁Los	-10850
▁Wot	-10851
▁afl	-10852
▁lep	-10853
▁maz	-10854
▁paw	-10855
▁wad	-10856
▁wik	-10857
alted	-10858
icker	-10859
uckle	-10860
winds	-10861
▁CHOR	-10862
▁Iron	-10863
▁Knew	-10864
▁beet	-10865
▁haul	-10866
▁maim	-10867
▁pled	-10868
lights	-10869
rehens	-10870
stones	-10871
unched	-10872
▁Allah	-10873
▁Lands	-10874
▁Throw	-10875
▁Waves	-10876
▁beech	-10877
▁beene	-10878
▁brick	-10879
▁bunch	-10880
▁extra	-10881
▁lawns	-10882
▁loins	-10883
▁medit	-10884
▁pants	-10885
▁poppy	-10886
▁quell	-10887
▁rainy	-10888
▁slime	-10889
▁sprou	-10890
akening	-10891
retches	-10892
venture	-10893
▁Roland	-10894
▁assist	-10895
▁batter	-10896
▁bursts	-10897
▁creeds	-10898
▁destin	-10899
▁lances	-10900
▁margin	-10901
▁offend	-10902
▁pillar	-10903
▁restra	-10904
▁saving	-10905
▁shrewd	-10906
▁Present	-10907
▁achieve	-10908
▁borders	-10909
▁budding	-10910
▁commend	-10911
▁curling	-10912
▁endured	-10913
▁listens	-10914
▁partner	-10915
▁possest	-10916
▁resound	-10917
▁stomach	-10918
▁thanked	-10919
▁carrying	-10920
▁hovering	-10921
▁noontide	-10922
▁carefully	-10923
▁interrupt	-10924
▁labouring	-10925
▁solitudes	-10926
▁sorrowing	-10927
▁utterance	-10928
▁wholesome	-10929
?’	-10930
ez	-10931
het	-10932
wey	-10933
Some	-10934
brow	-10935
dens	-10936
mark	-10937
mony	-10938
oard	-10939
oria	-10940
wine	-10941
▁Non	-10942
▁Ran	-10943
▁sie	-10944
aunts	-10945
horse	-10946
icles	-10947
sooth	-10948
▁Bend	-10949
▁Bent	-10950
▁Lust	-10951
▁Turk	-10952
▁XXII	-10953
▁bays	-10954
▁beth	-10955
▁excl	-10956
▁jail	-10957
▁parl	-10958
▁pige	-10959
▁pran	-10960
▁tele	-10961
▁toad	-10962
▁unse	-10963
iments	-10964
nowing	-10965
onnets	-10966
udding	-10967
▁Phant	-10968
▁Shame	-10969
▁Shone	-10970
▁abuse	-10971
▁crows	-10972
▁gaine	-10973
▁lodge	-10974
▁perch	-10975
▁rears	-10976
▁recom	-10977
▁scars	-10978
▁squee	-10979
▁urged	-10980
▁valor	-10981
▁wiles	-10982
▁Depart	-10983
▁Pallas	-10984
▁Square	-10985
▁barred	-10986
▁causes	-10987
▁decide	-10988
▁echoed	-10989
▁foeman	-10990
▁galley	-10991
▁glowed	-10992
▁hailed	-10993
▁hurric	-10994
▁odours	-10995
▁shrank	-10996
▁sparks	-10997
▁subdue	-10998
▁boyhood	-10999
▁eclipse	-11000
▁partial	-11001
▁quality	-11002
▁quicken	-11003
▁rightly	-11004
▁starved	-11005
▁statues	-11006
▁swelled	-11007
▁tearful	-11008
▁torches	-11009
▁yawning	-11010
▁Southern	-11011
▁cheering	-11012
▁manifest	-11013
▁movement	-11014
▁torments	-11015
▁unworthy	-11016
▁advancing	-11017
▁murderous	-11018
▁screaming	-11019
▁suspended	-11020
▁blossoming	-11021
▁possession	-11022
azz	-11023
oys	-11024
rah	-11025
Give	-11026
bone	-11027
coat	-11028
kers	-11029
mist	-11030
stro	-11031
ucky	-11032
vyse	-11033
▁Wha	-11034
▁bou	-11035
▁kan	-11036
▁nut	-11037
▁sau	-11038
atisf	-11039
borne	-11040
eries	-11041
ician	-11042
phone	-11043
▁Felt	-11044
▁Glug	-11045
▁Ioye	-11046
▁Pour	-11047
▁Vers	-11048
▁feat	-11049
▁gait	-11050
▁rehe	-11051
isting	-11052
▁Cease	-11053
▁Scene	-11054
▁dawns	-11055
▁facts	-11056
▁plans	-11057
▁repay	-11058
▁sires	-11059
▁sloth	-11060
▁stale	-11061
▁tawny	-11062
▁vouch	-11063
fection	-11064
▁Lovely	-11065
▁Lovers	-11066
▁Nobody	-11067
▁abound	-11068
▁depend	-11069
▁disple	-11070
▁domain	-11071
▁emblem	-11072
▁fabric	-11073
▁harlot	-11074
▁heaves	-11075
▁mornin	-11076
▁scroll	-11077
▁shrunk	-11078
▁unable	-11079
▁vernal	-11080
▁Soldier	-11081
▁Washing	-11082
▁belongs	-11083
▁contest	-11084
▁cricket	-11085
▁earlier	-11086
▁profane	-11087
▁provide	-11088
▁smitten	-11089
▁yielded	-11090
▁Tristram	-11091
▁breakers	-11092
▁drowning	-11093
▁happiest	-11094
▁knightly	-11095
▁melodies	-11096
▁supplied	-11097
▁firmament	-11098
▁perfectly	-11099
▁straining	-11100
▁swallowed	-11101
▁affections	-11102
▁thoughtful	-11103
▁tremendous	-11104
▁underground	-11105
--------------	-11106
RY	-11107
elp	-11108
ima	-11109
mal	-11110
mic	-11111
oue	-11112
▁Tu	-11113
Poor	-11114
cade	-11115
eard	-11116
enth	-11117
nday	-11118
nies	-11119
onds	-11120
rich	-11121
wife	-11122
▁Isa	-11123
▁dow	-11124
▁jug	-11125
▁lic	-11126
▁mum	-11127
▁nun	-11128
▁pry	-11129
▁tas	-11130
asies	-11131
ephyr	-11132
stall	-11133
usset	-11134
water	-11135
▁Bank	-11136
▁Bost	-11137
▁Enid	-11138
▁Fond	-11139
▁Saul	-11140
▁Whit	-11141
▁besp	-11142
▁cake	-11143
▁guid	-11144
▁nede	-11145
▁twit	-11146
▁usur	-11147
▁Hours	-11148
▁Yield	-11149
▁adown	-11150
▁blent	-11151
▁crags	-11152
▁deity	-11153
▁enlar	-11154
▁fader	-11155
▁fared	-11156
▁ident	-11157
▁incon	-11158
▁litel	-11159
▁mines	-11160
rateful	-11161
▁Either	-11162
▁Ground	-11163
▁Taking	-11164
▁babies	-11165
▁blades	-11166
▁dearly	-11167
▁famine	-11168
▁forbid	-11169
▁framed	-11170
▁frolic	-11171
▁frowns	-11172
▁gaping	-11173
▁limpid	-11174
▁loveth	-11175
▁luxury	-11176
▁robber	-11177
▁shaggy	-11178
▁sheath	-11179
▁strewn	-11180
▁wisely	-11181
▁Whereby	-11182
▁clerkes	-11183
▁entreat	-11184
▁flicker	-11185
▁plunder	-11186
▁pouring	-11187
▁richest	-11188
▁sinners	-11189
▁travail	-11190
▁tyranny	-11191
▁winters	-11192
▁Judgment	-11193
▁Philosop	-11194
▁diamonds	-11195
▁horsemen	-11196
▁offering	-11197
▁quenched	-11198
▁unbroken	-11199
▁ascending	-11200
▁conqueror	-11201
▁remembers	-11202
▁sentiment	-11203
▁Translated	-11204
▁accomplish	-11205
▁mouldering	-11206
▁reflection	-11207
▁innumerable	-11208
apa	-11209
cat	-11210
▁Op	-11211
Take	-11212
adin	-11213
ager	-11214
boat	-11215
idel	-11216
inge	-11217
oons	-11218
rect	-11219
urse	-11220
▁mun	-11221
ardon	-11222
arter	-11223
cknow	-11224
erest	-11225
gnant	-11226
ingle	-11227
ocked	-11228
pheus	-11229
plain	-11230
▁Bard	-11231
▁Fain	-11232
▁Juno	-11233
▁Race	-11234
▁Shed	-11235
▁gull	-11236
▁lied	-11237
▁nets	-11238
▁para	-11239
▁pred	-11240
▁rats	-11241
▁skil	-11242
▁trad	-11243
icking	-11244
otions	-11245
▁Alice	-11246
▁Borne	-11247
▁Folly	-11248
▁Laura	-11249
▁Space	-11250
▁Times	-11251
▁XXIII	-11252
▁brace	-11253
▁dirge	-11254
▁fayre	-11255
▁flare	-11256
▁petty	-11257
▁reced	-11258
▁rigid	-11259
▁screw	-11260
▁sniff	-11261
▁stems	-11262
▁troth	-11263
▁vivid	-11264
▁Athens	-11265
▁Cannot	-11266
▁Columb	-11267
▁Ginger	-11268
▁Hector	-11269
▁Venice	-11270
▁advers	-11271
▁carpet	-11272
▁coldly	-11273
▁compos	-11274
▁enfold	-11275
▁invade	-11276
▁perils	-11277
▁remind	-11278
▁resort	-11279
▁richly	-11280
▁treads	-11281
▁wisest	-11282
▁wrecks	-11283
▁Calling	-11284
▁Comfort	-11285
▁Descend	-11286
▁Travell	-11287
▁charger	-11288
▁compact	-11289
▁complex	-11290
▁contend	-11291
▁corpses	-11292
▁horrors	-11293
▁individ	-11294
▁kissing	-11295
▁letting	-11296
▁sternly	-11297
▁studied	-11298
▁uncouth	-11299
▁hallowed	-11300
▁strongly	-11301
▁celebrate	-11302
▁freshness	-11303
▁privilege	-11304
▁afterwards	-11305
▁remembering	-11306
▁slaughtered	-11307
▁nightingales	-11308
eme	-11309
lim	-11310
uto	-11311
▁16	-11312
icit	-11313
▁Ara	-11314
▁Mos	-11315
▁Pay	-11316
▁obe	-11317
▁sty	-11318
▁wey	-11319
cible	-11320
▁Bees	-11321
▁Begg	-11322
▁Murm	-11323
▁Nept	-11324
▁Ship	-11325
▁Vill	-11326
▁card	-11327
▁cere	-11328
▁cram	-11329
▁flin	-11330
▁frog	-11331
▁fron	-11332
▁gret	-11333
▁latt	-11334
▁lick	-11335
▁lime	-11336
▁term	-11337
atters	-11338
ensive	-11339
itches	-11340
▁citiz	-11341
▁hairy	-11342
▁neuer	-11343
▁rusty	-11344
▁sways	-11345
▁unbel	-11346
▁whale	-11347
▁wider	-11348
▁wilds	-11349
▁Lights	-11350
▁Squire	-11351
▁ambush	-11352
▁blazed	-11353
▁choked	-11354
▁feebly	-11355
▁gallop	-11356
▁glossy	-11357
▁grands	-11358
▁knives	-11359
▁period	-11360
▁ranged	-11361
▁spires	-11362
▁stings	-11363
▁whiche	-11364
▁willed	-11365
together	-11366
▁Bearing	-11367
▁Italian	-11368
▁Passing	-11369
▁chatter	-11370
▁dervish	-11371
▁hateful	-11372
▁hissing	-11373
▁meanest	-11374
▁putting	-11375
▁renewed	-11376
▁sounded	-11377
▁threats	-11378
▁Daughter	-11379
▁Mistress	-11380
▁frowning	-11381
▁imprison	-11382
▁murdered	-11383
▁stooping	-11384
▁wheeling	-11385
▁whistled	-11386
▁falsehood	-11387
▁followers	-11388
▁mightiest	-11389
▁neighbors	-11390
▁overthrow	-11391
▁reflected	-11392
UE	-11393
May	-11394
Say	-11395
amy	-11396
bol	-11397
cry	-11398
jud	-11399
oph	-11400
yst	-11401
Lord	-11402
berg	-11403
door	-11404
eles	-11405
gedy	-11406
onge	-11407
pter	-11408
rink	-11409
uest	-11410
unts	-11411
▁Die	-11412
▁Rid	-11413
▁Und	-11414
▁Vol	-11415
▁fen	-11416
▁pac	-11417
These	-11418
acked	-11419
issed	-11420
itary	-11421
logue	-11422
opard	-11423
outhe	-11424
uding	-11425
▁Nell	-11426
▁Plow	-11427
▁Pret	-11428
▁aust	-11429
▁blur	-11430
▁clan	-11431
▁feud	-11432
▁fowl	-11433
▁newe	-11434
▁team	-11435
ithing	-11436
rament	-11437
▁Latin	-11438
▁achie	-11439
▁hazel	-11440
▁links	-11441
▁lotus	-11442
▁ruine	-11443
▁soars	-11444
▁surpr	-11445
▁Beware	-11446
▁altern	-11447
▁builds	-11448
▁insult	-11449
▁limits	-11450
▁molten	-11451
▁rarely	-11452
▁scorns	-11453
▁Forgael	-11454
▁builded	-11455
▁chances	-11456
▁fervent	-11457
▁furnish	-11458
▁mockery	-11459
▁praying	-11460
▁railway	-11461
▁sunbeam	-11462
▁teeming	-11463
▁banished	-11464
▁cataract	-11465
▁churches	-11466
▁conveyed	-11467
▁declared	-11468
▁exulting	-11469
▁perfumes	-11470
▁scorning	-11471
▁shrieked	-11472
▁supposed	-11473
▁trophies	-11474
▁discourse	-11475
▁hereafter	-11476
▁stripling	-11477
▁withstand	-11478
▁pilgrimage	-11479
▁repentance	-11480
▁illustrious	-11481
"?	-11482
ahs	-11483
bod	-11484
cre	-11485
got	-11486
haw	-11487
sil	-11488
war	-11489
▁15	-11490
▁MY	-11491
▁fy	-11492
alty	-11493
itar	-11494
rift	-11495
▁!--	-11496
▁Din	-11497
▁Hat	-11498
▁Psy	-11499
▁XXV	-11500
▁abl	-11501
▁hew	-11502
anche	-11503
bloom	-11504
human	-11505
mouth	-11506
times	-11507
worth	-11508
▁Evil	-11509
▁Flor	-11510
▁Hass	-11511
▁Park	-11512
▁Sabb	-11513
▁Weak	-11514
▁XXIV	-11515
▁cane	-11516
▁cant	-11517
▁fane	-11518
▁fuss	-11519
▁girt	-11520
▁gits	-11521
▁keel	-11522
▁oaks	-11523
▁reef	-11524
▁sith	-11525
▁thir	-11526
enting	-11527
gering	-11528
ggling	-11529
▁Brain	-11530
▁Haste	-11531
▁Sword	-11532
▁Twice	-11533
▁amiss	-11534
▁birch	-11535
▁caste	-11536
▁cells	-11537
▁clerk	-11538
▁lithe	-11539
▁sneer	-11540
▁tryst	-11541
▁yards	-11542
aculous	-11543
inished	-11544
▁Bishop	-11545
▁Chance	-11546
▁Hither	-11547
▁Sappho	-11548
▁Twenty	-11549
▁deject	-11550
▁eagles	-11551
▁feelin	-11552
▁forego	-11553
▁hearty	-11554
▁lavish	-11555
▁powder	-11556
▁selves	-11557
▁upland	-11558
▁warned	-11559
stricken	-11560
▁Someone	-11561
▁Thither	-11562
▁beggars	-11563
▁conceit	-11564
▁darkest	-11565
▁endures	-11566
▁forsook	-11567
▁fulfill	-11568
▁needful	-11569
▁observe	-11570
▁protest	-11571
▁shatter	-11572
▁spectre	-11573
▁summers	-11574
▁victims	-11575
▁whereby	-11576
▁whoever	-11577
▁continue	-11578
▁farthest	-11579
▁inclined	-11580
▁promises	-11581
▁ultimate	-11582
▁guiltless	-11583
▁unwilling	-11584
▁visionary	-11585
▁withering	-11586
▁Especially	-11587
▁considered	-11588
▁enterprise	-11589
▁slumbering	-11590
aba	-11591
cos	-11592
din	-11593
igo	-11594
via	-11595
▁ep	-11596
▁lu	-11597
anda	-11598
ardo	-11599
auld	-11600
cern	-11601
gade	-11602
loat	-11603
▁Ath	-11604
▁Cup	-11605
▁Dea	-11606
▁dot	-11607
▁sue	-11608
▁tig	-11609
▁wal	-11610
dream	-11611
ether	-11612
▁Jeho	-11613
▁Line	-11614
▁Prot	-11615
▁XXVI	-11616
▁asso	-11617
▁barb	-11618
▁cuts	-11619
▁mene	-11620
▁orac	-11621
▁shru	-11622
▁stup	-11623
▁tart	-11624
▁wary	-11625
Gainst	-11626
▁Diana	-11627
▁Frost	-11628
▁Glass	-11629
▁Lives	-11630
▁Wings	-11631
▁atone	-11632
▁baron	-11633
▁cards	-11634
▁casts	-11635
▁daisy	-11636
▁desir	-11637
▁labyr	-11638
▁manye	-11639
▁mused	-11640
▁sheds	-11641
▁slant	-11642
▁spire	-11643
ioneers	-11644
ruments	-11645
▁Alpine	-11646
▁Boston	-11647
▁Please	-11648
▁Sounds	-11649
▁Walter	-11650
▁afloat	-11651
▁beings	-11652
▁bolder	-11653
▁cousin	-11654
▁deform	-11655
▁devise	-11656
▁embers	-11657
▁gossip	-11658
▁loaths	-11659
▁poetic	-11660
▁polish	-11661
▁salute	-11662
▁shaded	-11663
▁sunlit	-11664
▁swiche	-11665
▁tables	-11666
▁Blossom	-11667
▁Johnnie	-11668
▁combine	-11669
▁hollows	-11670
▁knoweth	-11671
▁laurels	-11672
▁lawless	-11673
▁respons	-11674
▁schools	-11675
▁scratch	-11676
▁wronged	-11677
forgotten	-11678
▁Ambition	-11679
▁chilling	-11680
▁divinely	-11681
▁domestic	-11682
▁sluggish	-11683
▁thankful	-11684
▁blackness	-11685
▁complaint	-11686
▁forbidden	-11687
▁noiseless	-11688
▁Everything	-11689
▁flattering	-11690
▁brotherhood	-11691
▁immediately	-11692
Yea	-11693
ett	-11694
hap	-11695
jer	-11696
oro	-11697
Thus	-11698
agne	-11699
cted	-11700
erne	-11701
flow	-11702
itan	-11703
lees	-11704
nine	-11705
port	-11706
rade	-11707
vate	-11708
vous	-11709
ynth	-11710
▁Ign	-11711
▁Nat	-11712
▁Wre	-11713
▁upb	-11714
▁wro	-11715
aunch	-11716
▁coil	-11717
▁lyke	-11718
▁mone	-11719
▁pert	-11720
▁slid	-11721
▁tarn	-11722
▁walt	-11723
Behold	-11724
ciless	-11725
entine	-11726
▁Learn	-11727
▁Major	-11728
▁Ready	-11729
▁Skies	-11730
▁arrog	-11731
▁assay	-11732
▁bould	-11733
▁brist	-11734
▁copse	-11735
▁dower	-11736
▁passe	-11737
▁spilt	-11738
▁wages	-11739
▁wooed	-11740
ibility	-11741
owering	-11742
▁Accord	-11743
▁Answer	-11744
▁Breast	-11745
▁Graces	-11746
▁Norman	-11747
▁Passed	-11748
▁Tartar	-11749
▁affair	-11750
▁bigger	-11751
▁bowels	-11752
▁counts	-11753
▁futile	-11754
▁glades	-11755
▁impass	-11756
▁meteor	-11757
▁rocked	-11758
▁tumble	-11759
▁Creator	-11760
▁Romance	-11761
▁awkward	-11762
▁lessons	-11763
▁myriads	-11764
▁resolve	-11765
▁satisfy	-11766
▁captives	-11767
▁constell	-11768
▁gestures	-11769
▁hospital	-11770
▁merciful	-11771
▁reaching	-11772
▁restored	-11773
▁rippling	-11774
▁tempting	-11775
▁vanquish	-11776
▁fortunate	-11777
▁prophetic	-11778
▁sheltered	-11779
▁overthrown	-11780
▁worshipped	-11781
fo	-11782
xx	-11783
ANG	-11784
ARD	-11785
cur	-11786
dam	-11787
ely	-11788
jos	-11789
mel	-11790
ola	-11791
rig	-11792
▁CL	-11793
▁Ni	-11794
▁ti	-11795
dust	-11796
life	-11797
quin	-11798
uine	-11799
ulet	-11800
arice	-11801
eward	-11802
icted	-11803
ifter	-11804
oleon	-11805
ragon	-11806
ribly	-11807
▁Fled	-11808
▁Scri	-11809
▁assu	-11810
▁file	-11811
▁laps	-11812
▁lump	-11813
▁nupt	-11814
▁wipe	-11815
ctions	-11816
ension	-11817
handed	-11818
twould	-11819
▁Eager	-11820
▁Force	-11821
▁Judas	-11822
▁Louis	-11823
▁Loves	-11824
▁Titan	-11825
▁Troye	-11826
▁chide	-11827
▁deign	-11828
▁erthe	-11829
▁livid	-11830
▁looke	-11831
▁nests	-11832
▁regal	-11833
▁relie	-11834
▁synne	-11835
▁tolde	-11836
▁uncom	-11837
▁Hesper	-11838
▁Mighty	-11839
▁abject	-11840
▁aboard	-11841
▁dagger	-11842
▁glassy	-11843
▁goblet	-11844
▁heaved	-11845
▁hoping	-11846
▁kettle	-11847
▁lowest	-11848
▁observ	-11849
▁oceans	-11850
▁preced	-11851
▁shamed	-11852
▁turret	-11853
▁woeful	-11854
auncelot	-11855
▁Springs	-11856
▁Success	-11857
▁dispers	-11858
▁engines	-11859
▁exactly	-11860
▁hunters	-11861
▁violent	-11862
▁Midnight	-11863
▁conflict	-11864
▁spinning	-11865
▁supplies	-11866
▁unawares	-11867
▁vengeful	-11868
▁Knowledge	-11869
▁afflicted	-11870
▁continued	-11871
▁departing	-11872
▁forthwith	-11873
▁hurricane	-11874
▁strongest	-11875
▁churchyard	-11876
▁desolation	-11877
▁earthquake	-11878
▁contentment	-11879
!-	-11880
END	-11881
Ere	-11882
eye	-11883
god	-11884
hol	-11885
sey	-11886
▁Ec	-11887
▁GH	-11888
▁Il	-11889
▁vn	-11890
IRST	-11891
aver	-11892
clos	-11893
cont	-11894
hill	-11895
ikes	-11896
keep	-11897
lied	-11898
ndes	-11899
word	-11900
▁Cad	-11901
▁Fat	-11902
▁Hal	-11903
▁Lam	-11904
▁McG	-11905
▁Unf	-11906
▁Viv	-11907
▁aqu	-11908
▁fac	-11909
▁gam	-11910
▁pas	-11911
forms	-11912
onets	-11913
pents	-11914
uster	-11915
▁Aunt	-11916
▁Brad	-11917
▁Derv	-11918
▁Fury	-11919
▁Gosh	-11920
▁Holl	-11921
▁Lead	-11922
▁Oure	-11923
▁Rang	-11924
▁Sand	-11925
▁Shal	-11926
▁amor	-11927
▁deye	-11928
▁grac	-11929
▁phot	-11930
▁smok	-11931
▁syll	-11932
ograph	-11933
usions	-11934
▁GHOST	-11935
▁Going	-11936
▁Rosal	-11937
▁Sunne	-11938
▁Union	-11939
▁XXVII	-11940
▁avoid	-11941
▁brisk	-11942
▁edges	-11943
▁elbow	-11944
▁helle	-11945
▁maker	-11946
▁monot	-11947
▁prays	-11948
▁satin	-11949
▁scarf	-11950
▁snail	-11951
ishable	-11952
▁Common	-11953
▁Secret	-11954
▁Smooth	-11955
▁Unseen	-11956
▁agreed	-11957
▁arches	-11958
▁assign	-11959
▁bonnet	-11960
▁broods	-11961
▁christ	-11962
▁closes	-11963
▁matron	-11964
▁punish	-11965
▁rounds	-11966
▁stares	-11967
▁bestows	-11968
▁blended	-11969
▁cadence	-11970
▁dollars	-11971
▁misfort	-11972
▁nodding	-11973
▁penance	-11974
▁swarthy	-11975
▁villain	-11976
▁Strength	-11977
▁bestowed	-11978
▁brighten	-11979
▁brightly	-11980
▁confused	-11981
▁contract	-11982
▁mornings	-11983
▁politics	-11984
▁shivered	-11985
▁squadron	-11986
▁succeeds	-11987
▁whistles	-11988
▁clamorous	-11989
▁confessed	-11990
▁indignant	-11991
▁instantly	-11992
▁meanwhile	-11993
▁merciless	-11994
▁reluctant	-11995
▁shrinking	-11996
▁voiceless	-11997
▁enchantment	-11998
da	-11999
ERS	-12000
nay	-12001
omy	-12002
poc	-12003
▁03	-12004
▁RO	-12005
▁ef	-12006
arte	-12007
erth	-12008
hung	-12009
onis	-12010
post	-12011
ques	-12012
tong	-12013
your	-12014
▁Fan	-12015
▁Use	-12016
▁bin	-12017
▁dut	-12018
▁guy	-12019
▁mee	-12020
▁mos	-12021
▁upt	-12022
icest	-12023
ology	-12024
▁Mass	-12025
▁Mede	-12026
▁Thor	-12027
▁Want	-12028
▁beau	-12029
▁cope	-12030
▁cult	-12031
▁lave	-12032
▁lyve	-12033
▁omin	-12034
▁prel	-12035
▁puri	-12036
▁tips	-12037
▁vist	-12038
rating	-12039
▁Deity	-12040
▁Shade	-12041
▁chord	-12042
▁coude	-12043
▁downy	-12044
▁dropt	-12045
▁falle	-12046
▁harps	-12047
▁joust	-12048
▁local	-12049
▁lurid	-12050
▁oblig	-12051
▁outst	-12052
▁shops	-12053
▁taper	-12054
▁woful	-12055
colored	-12056
pecting	-12057
rewhile	-12058
ucation	-12059
▁Forest	-12060
▁Mister	-12061
▁School	-12062
▁arrest	-12063
▁daffod	-12064
▁devout	-12065
▁feasts	-12066
▁handed	-12067
▁manage	-12068
▁mourns	-12069
▁throbs	-12070
▁trifle	-12071
▁trusty	-12072
▁whiter	-12073
▁Unknown	-12074
▁beholds	-12075
▁chained	-12076
▁chiefly	-12077
▁cracked	-12078
▁dreaded	-12079
▁feeding	-12080
▁fiercer	-12081
▁glaring	-12082
▁lacking	-12083
▁mischie	-12084
▁prowess	-12085
▁prudent	-12086
▁reeking	-12087
▁reeling	-12088
▁sensual	-12089
▁trivial	-12090
▁whereso	-12091
fashioned	-12092
▁Likewise	-12093
▁exercise	-12094
▁mingling	-12095
▁murderer	-12096
▁snatched	-12097
▁striking	-12098
▁witnesse	-12099
▁crumbling	-12100
▁exclaimed	-12101
▁feathered	-12102
▁semblance	-12103
▁shrieking	-12104
▁transcend	-12105
▁withouten	-12106
▁admiration	-12107
▁gentleness	-12108
▁circumstance	-12109
-'	-12110
OP	-12111
'--	-12112
Old	-12113
jan	-12114
phy	-12115
▁vi	-12116
adel	-12117
cund	-12118
issa	-12119
lace	-12120
orms	-12121
skin	-12122
▁Dru	-12123
▁Kne	-12124
▁SHE	-12125
▁ark	-12126
▁err	-12127
▁hee	-12128
▁lac	-12129
▁nas	-12130
built	-12131
cross	-12132
erson	-12133
laden	-12134
ships	-12135
▁Beth	-12136
▁Camb	-12137
▁Diss	-12138
▁Dull	-12139
▁Fred	-12140
▁Glen	-12141
▁Joan	-12142
▁Merc	-12143
▁Myst	-12144
▁Roll	-12145
▁Sang	-12146
▁WHEN	-12147
▁XXIX	-12148
▁bait	-12149
▁cust	-12150
▁ende	-12151
▁goon	-12152
▁heau	-12153
▁jade	-12154
▁lurk	-12155
▁ware	-12156
enesse	-12157
itched	-12158
ucking	-12159
unting	-12160
verted	-12161
▁Began	-12162
▁Broke	-12163
▁Burns	-12164
▁Drawn	-12165
▁Heavy	-12166
▁Keats	-12167
▁Satur	-12168
▁Stern	-12169
▁accus	-12170
▁aspir	-12171
▁cobwe	-12172
▁decor	-12173
▁estab	-12174
▁ferns	-12175
▁ferry	-12176
▁flint	-12177
▁forge	-12178
▁foule	-12179
▁herde	-12180
▁infer	-12181
▁lungs	-12182
▁newsp	-12183
▁owene	-12184
▁piano	-12185
▁purif	-12186
▁scold	-12187
▁seene	-12188
▁shorn	-12189
▁speke	-12190
▁thigh	-12191
▁warms	-12192
▁Horace	-12193
▁Martha	-12194
▁Poetry	-12195
▁cathed	-12196
▁center	-12197
▁dearth	-12198
▁demons	-12199
▁eighty	-12200
▁hearse	-12201
▁hedges	-12202
▁joints	-12203
▁linked	-12204
▁mechan	-12205
▁ordain	-12206
▁poised	-12207
▁presum	-12208
▁rabble	-12209
▁sorely	-12210
▁speeds	-12211
▁trains	-12212
▁tropic	-12213
▁volume	-12214
▁Francis	-12215
▁Nations	-12216
▁Pandare	-12217
▁Sabbath	-12218
▁Walking	-12219
▁assault	-12220
▁augment	-12221
▁bloomed	-12222
▁bloomin	-12223
▁doctors	-12224
▁freight	-12225
▁longest	-12226
▁lurking	-12227
▁outrage	-12228
▁precept	-12229
▁records	-12230
▁refresh	-12231
▁Whenever	-12232
▁birthday	-12233
▁borrowed	-12234
▁darksome	-12235
▁infernal	-12236
▁listless	-12237
▁mounting	-12238
▁muttered	-12239
▁perfumed	-12240
▁skeleton	-12241
▁softness	-12242
▁tattered	-12243
▁assembled	-12244
▁cloudless	-12245
▁favourite	-12246
▁comprehend	-12247
'!	-12248
gre	-12249
hot	-12250
lam	-12251
tan	-12252
▁""	-12253
▁AM	-12254
ayne	-12255
cold	-12256
hair	-12257
lesh	-12258
llis	-12259
lyss	-12260
orns	-12261
town	-12262
west	-12263
▁Bod	-12264
▁Bon	-12265
▁Enc	-12266
▁Gil	-12267
▁Tea	-12268
▁bis	-12269
▁ned	-12270
▁sip	-12271
▁tul	-12272
avour	-12273
gered	-12274
ollen	-12275
ooped	-12276
ranch	-12277
ribut	-12278
twill	-12279
unity	-12280
▁Boys	-12281
▁Chat	-12282
▁Decl	-12283
▁Kyng	-12284
▁Mast	-12285
▁Mock	-12286
▁Post	-12287
▁Prim	-12288
▁Pull	-12289
▁Sour	-12290
▁beef	-12291
▁bien	-12292
▁clod	-12293
▁club	-12294
▁olde	-12295
▁pals	-12296
▁rice	-12297
▁shap	-12298
▁whar	-12299
illery	-12300
itious	-12301
orting	-12302
outing	-12303
raught	-12304
rising	-12305
shaped	-12306
▁Baron	-12307
▁Didst	-12308
▁Plain	-12309
▁besee	-12310
▁chere	-12311
▁churl	-12312
▁dazed	-12313
▁devel	-12314
▁famed	-12315
▁filth	-12316
▁roars	-12317
▁shack	-12318
▁shred	-12319
▁wagon	-12320
onsense	-12321
▁Filled	-12322
▁Ladies	-12323
▁ardour	-12324
▁climes	-12325
▁driver	-12326
▁eldest	-12327
▁immort	-12328
▁jungle	-12329
▁obeyed	-12330
▁robbed	-12331
▁roving	-12332
▁russet	-12333
▁wikked	-12334
▁Captive	-12335
▁Shadows	-12336
▁Subject	-12337
▁Suppose	-12338
▁austere	-12339
▁bearded	-12340
▁colored	-12341
▁descent	-12342
▁lullaby	-12343
▁prairie	-12344
▁screams	-12345
▁wrecked	-12346
▁Achilles	-12347
▁beguiled	-12348
▁eighteen	-12349
▁offended	-12350
▁overcome	-12351
▁smallest	-12352
▁steadily	-12353
▁unfathom	-12354
▁ambitious	-12355
▁emptiness	-12356
▁faltering	-12357
▁greenwood	-12358
▁loathsome	-12359
▁vanquished	-12360
'?	-12361
De	-12362
Re	-12363
ari	-12364
cas	-12365
ini	-12366
oty	-12367
par	-12368
ppe	-12369
pty	-12370
▁SH	-12371
iron	-12372
mill	-12373
test	-12374
ucks	-12375
▁Dig	-12376
▁Rea	-12377
▁jaw	-12378
▁lee	-12379
▁pel	-12380
▁rib	-12381
▁tan	-12382
Shall	-12383
ately	-12384
brown	-12385
cules	-12386
istle	-12387
ivere	-12388
maids	-12389
ption	-12390
stood	-12391
umped	-12392
▁Geor	-12393
▁Grim	-12394
▁Lesb	-12395
▁Side	-12396
▁Sits	-12397
▁Stud	-12398
▁desk	-12399
▁peas	-12400
▁shul	-12401
▁Arise	-12402
▁Bells	-12403
▁FIRST	-12404
▁Naked	-12405
▁beset	-12406
▁canoe	-12407
▁chalk	-12408
▁coach	-12409
▁coats	-12410
▁crops	-12411
▁daint	-12412
▁groom	-12413
▁holde	-12414
▁whine	-12415
ashions	-12416
ingling	-12417
strings	-12418
wrought	-12419
▁Beheld	-12420
▁Border	-12421
▁Brings	-12422
▁Broken	-12423
▁Psyche	-12424
▁XXVIII	-12425
▁confin	-12426
▁easier	-12427
▁falter	-12428
▁hazard	-12429
▁marred	-12430
▁mindes	-12431
▁racing	-12432
▁sicken	-12433
▁traces	-12434
▁trench	-12435
▁Jehovah	-12436
▁Maurice	-12437
▁Whoever	-12438
▁bashful	-12439
▁courtly	-12440
▁hopeful	-12441
▁nervous	-12442
▁noonday	-12443
▁pricked	-12444
▁scandal	-12445
▁society	-12446
▁softest	-12447
▁soothed	-12448
▁steeple	-12449
▁stilled	-12450
▁trained	-12451
▁turrets	-12452
▁verdure	-12453
▁weaving	-12454
▁wildest	-12455
▁wishing	-12456
▁bitterly	-12457
▁crawling	-12458
▁footstep	-12459
▁moisture	-12460
▁pressing	-12461
▁property	-12462
▁pursuing	-12463
▁reckoned	-12464
▁repeated	-12465
▁threaten	-12466
▁youngest	-12467
▁Launcelot	-12468
▁Wherewith	-12469
▁miserable	-12470
▁obedience	-12471
▁perceived	-12472
▁Throughout	-12473
▁appearance	-12474
▁confidence	-12475
▁resistless	-12476
▁whatsoever	-12477
▁straightway	-12478
CK	-12479
ATH	-12480
erd	-12481
jah	-12482
nis	-12483
say	-12484
two	-12485
▁Ta	-12486
Such	-12487
face	-12488
lars	-12489
▁Dey	-12490
▁Jub	-12491
▁Laz	-12492
▁Mom	-12493
▁Pig	-12494
▁bos	-12495
▁ine	-12496
▁jag	-12497
▁mul	-12498
▁tok	-12499
▁wry	-12500
Never	-12501
enser	-12502
happy	-12503
ibald	-12504
iners	-12505
iture	-12506
piece	-12507
rouds	-12508
▁Bapt	-12509
▁Firm	-12510
▁Rede	-12511
▁Ruin	-12512
▁Wing	-12513
▁caus	-12514
▁corp	-12515
▁cush	-12516
▁disd	-12517
▁fixt	-12518
▁hive	-12519
▁lyes	-12520
▁tint	-12521
▁unve	-12522
▁vind	-12523
estine	-12524
icable	-12525
inence	-12526
struck	-12527
tofore	-12528
▁Abbot	-12529
▁Beast	-12530
▁Bliss	-12531
▁Dance	-12532
▁Grown	-12533
▁Shake	-12534
▁Widow	-12535
▁acted	-12536
▁certe	-12537
▁elles	-12538
▁maner	-12539
▁novel	-12540
▁petal	-12541
▁prais	-12542
▁sangu	-12543
▁taint	-12544
▁Amidst	-12545
▁Lament	-12546
▁Parent	-12547
▁Stella	-12548
▁brutal	-12549
▁celebr	-12550
▁chimes	-12551
▁descry	-12552
▁events	-12553
▁lordes	-12554
▁oldest	-12555
▁partly	-12556
▁promis	-12557
▁quarry	-12558
▁ribbon	-12559
▁rooted	-12560
▁sentin	-12561
▁snares	-12562
▁stored	-12563
▁sucked	-12564
▁themes	-12565
▁untrue	-12566
▁weaves	-12567
▁whirls	-12568
▁Bellman	-12569
▁Courage	-12570
▁Neptune	-12571
▁burdens	-12572
▁cluster	-12573
▁consume	-12574
▁dashing	-12575
▁extends	-12576
▁gentler	-12577
▁missing	-12578
▁redress	-12579
▁seaward	-12580
▁spurred	-12581
▁Infinite	-12582
▁Saturday	-12583
▁Sergeant	-12584
▁comforts	-12585
▁overflow	-12586
▁overwhel	-12587
▁wretches	-12588
▁Returning	-12589
▁dissolved	-12590
▁poisonous	-12591
▁prisoners	-12592
▁struggles	-12593
▁travelled	-12594
▁marvellous	-12595
▁miraculous	-12596
▁Remembering	-12597
▁conversation	-12598
IND	-12599
ONG	-12600
TER	-12601
Was	-12602
dal	-12603
sar	-12604
▁HA	-12605
Tell	-12606
hinx	-12607
inke	-12608
isly	-12609
nest	-12610
said	-12611
walk	-12612
▁Nin	-12613
▁ope	-12614
▁soe	-12615
Young	-12616
craft	-12617
grass	-12618
ially	-12619
ilian	-12620
inish	-12621
olpho	-12622
oughs	-12623
smith	-12624
stead	-12625
▁Arts	-12626
▁Fold	-12627
▁Lips	-12628
▁Mere	-12629
▁Parn	-12630
▁THOU	-12631
▁balc	-12632
▁brew	-12633
▁dede	-12634
▁drou	-12635
▁euer	-12636
▁peal	-12637
▁reft	-12638
▁sich	-12639
▁skim	-12640
▁tack	-12641
▁trot	-12642
▁unif	-12643
▁wren	-12644
ically	-12645
idious	-12646
ounted	-12647
quered	-12648
ulsive	-12649
upiter	-12650
▁Knows	-12651
▁Order	-12652
▁Quoth	-12653
▁Sarac	-12654
▁Sharp	-12655
▁Snark	-12656
▁Whole	-12657
▁briny	-12658
▁embro	-12659
▁helps	-12660
▁lampl	-12661
▁moste	-12662
▁swims	-12663
crowned	-12664
emberbo	-12665
pitious	-12666
▁Hunger	-12667
▁attire	-12668
▁curves	-12669
▁diadem	-12670
▁exists	-12671
▁girdle	-12672
▁grains	-12673
▁hinder	-12674
▁kneels	-12675
▁knowne	-12676
▁minist	-12677
▁rudely	-12678
▁steers	-12679
atisfied	-12680
▁Ancient	-12681
▁Priests	-12682
▁beguile	-12683
▁bravest	-12684
▁claimed	-12685
▁courses	-12686
▁dancers	-12687
▁gallery	-12688
▁heavier	-12689
▁leaders	-12690
▁lighten	-12691
▁loftier	-12692
▁ominous	-12693
▁outcast	-12694
▁procure	-12695
▁rescued	-12696
▁scholar	-12697
▁sharply	-12698
▁surging	-12699
▁tempted	-12700
▁trewely	-12701
▁unaware	-12702
ourneying	-12703
▁defiance	-12704
▁descried	-12705
▁disaster	-12706
▁forsooth	-12707
▁gentlest	-12708
▁horseman	-12709
▁leafless	-12710
▁orchards	-12711
▁ornament	-12712
▁pleading	-12713
▁rattling	-12714
▁sapphire	-12715
▁secretly	-12716
▁shadowed	-12717
▁viewless	-12718
▁buildings	-12719
▁changeful	-12720
▁confident	-12721
▁continent	-12722
▁undaunted	-12723
▁proportion	-12724
?-	-12725
Bl	-12726
Can	-12727
ata	-12728
ghy	-12729
jar	-12730
wel	-12731
▁Gr	-12732
▁ME	-12733
COND	-12734
amer	-12735
anas	-12736
free	-12737
ggie	-12738
laid	-12739
oler	-12740
only	-12741
play	-12742
sino	-12743
uned	-12744
veys	-12745
writ	-12746
▁Cow	-12747
▁FOR	-12748
▁Hay	-12749
▁Len	-12750
▁Mol	-12751
▁Rhy	-12752
▁bor	-12753
▁bry	-12754
▁hie	-12755
▁liz	-12756
▁moo	-12757
atory	-12758
hetic	-12759
▁Dumb	-12760
▁Hide	-12761
▁Kill	-12762
▁Lane	-12763
▁Pole	-12764
▁XXXI	-12765
▁auld	-12766
▁bapt	-12767
▁claw	-12768
▁eyen	-12769
▁mold	-12770
▁odor	-12771
▁pans	-12772
▁pore	-12773
▁rans	-12774
▁wrap	-12775
▁zest	-12776
insing	-12777
olence	-12778
stream	-12779
urable	-12780
▁Abbey	-12781
▁Cheer	-12782
▁Dowel	-12783
▁Flesh	-12784
▁afore	-12785
▁ayein	-12786
▁bench	-12787
▁burne	-12788
▁chasm	-12789
▁dregs	-12790
▁fares	-12791
▁gulls	-12792
▁hards	-12793
▁ideas	-12794
▁lapse	-12795
▁lined	-12796
▁ridic	-12797
▁scrat	-12798
▁seith	-12799
▁shuts	-12800
▁sneak	-12801
▁staid	-12802
▁tails	-12803
▁theft	-12804
▁wende	-12805
▁wires	-12806
▁wiste	-12807
▁Africa	-12808
▁CHORUS	-12809
▁Itself	-12810
▁Orsino	-12811
▁Tender	-12812
▁Tongue	-12813
▁begged	-12814
▁envied	-12815
▁erring	-12816
▁oppose	-12817
▁paints	-12818
▁queens	-12819
▁savour	-12820
▁smould	-12821
▁turbul	-12822
▁twined	-12823
▁uproar	-12824
▁wilful	-12825
▁Elysian	-12826
▁Plowman	-12827
▁censure	-12828
▁college	-12829
▁drained	-12830
▁engaged	-12831
▁exalted	-12832
▁frowned	-12833
▁lantern	-12834
▁pebbles	-12835
▁recover	-12836
▁scarred	-12837
▁serving	-12838
▁singers	-12839
▁Astolpho	-12840
▁Napoleon	-12841
▁Prologue	-12842
▁composed	-12843
▁deceived	-12844
▁evenings	-12845
▁freezing	-12846
▁grieving	-12847
▁jewelled	-12848
▁portrait	-12849
▁trailing	-12850
▁untimely	-12851
▁burnished	-12852
▁remaining	-12853
▁revolving	-12854
▁accustomed	-12855
▁altogether	-12856
▁characters	-12857
▁conclusion	-12858
▁simplicity	-12859
▁stretching	-12860
▁surrounded	-12861
▁tempestuous	-12862
hu	-12863
Are	-12864
EAD	-12865
bru	-12866
ili	-12867
ubs	-12868
▁eb	-12869
aith	-12870
enix	-12871
rock	-12872
▁ARG	-12873
▁Fun	-12874
▁Hid	-12875
▁huh	-12876
▁ram	-12877
▁vit	-12878
estes	-12879
icide	-12880
lying	-12881
phisa	-12882
pture	-12883
roned	-12884
▁Been	-12885
▁Case	-12886
▁Gord	-12887
▁Hind	-12888
▁Joys	-12889
▁Tomb	-12890
▁Wear	-12891
▁bats	-12892
▁buoy	-12893
▁gnaw	-12894
▁paws	-12895
▁rind	-12896
▁roug	-12897
▁toun	-12898
▁twig	-12899
ethyst	-12900
lysses	-12901
oosing	-12902
rapped	-12903
versed	-12904
▁Brook	-12905
▁Canst	-12906
▁Chant	-12907
▁Cruel	-12908
▁Dwell	-12909
▁Early	-12910
▁Grows	-12911
▁Hangs	-12912
▁Hopes	-12913
▁Swept	-12914
▁bites	-12915
▁corse	-12916
▁curly	-12917
▁myght	-12918
▁negro	-12919
▁recre	-12920
▁slake	-12921
▁tasks	-12922
▁weake	-12923
ulating	-12924
▁Claude	-12925
▁Letter	-12926
▁Secure	-12927
▁Shines	-12928
▁Waters	-12929
▁aflame	-12930
▁ashore	-12931
▁benign	-12932
▁bettre	-12933
▁cruell	-12934
▁debate	-12935
▁defect	-12936
▁festal	-12937
▁gifted	-12938
▁indign	-12939
▁kinder	-12940
▁review	-12941
▁sunder	-12942
▁supple	-12943
▁trunks	-12944
▁vouchs	-12945
▁Geraint	-12946
▁anybody	-12947
▁blanket	-12948
▁fulness	-12949
▁healthy	-12950
▁mangled	-12951
▁remnant	-12952
▁severed	-12953
▁sliding	-12954
▁smaller	-12955
▁sympath	-12956
▁travels	-12957
▁twinkle	-12958
▁vagrant	-12959
▁warfare	-12960
▁washing	-12961
▁wearily	-12962
fortunate	-12963
▁Creation	-12964
▁Heavenly	-12965
▁Treasure	-12966
▁cautious	-12967
▁disdaine	-12968
▁divinity	-12969
▁drunkard	-12970
▁embraced	-12971
▁enduring	-12972
▁festival	-12973
▁pictured	-12974
▁poisoned	-12975
▁pregnant	-12976
▁slightly	-12977
▁unfurled	-12978
▁President	-12979
▁cigarette	-12980
▁departure	-12981
▁ministers	-12982
▁necessity	-12983
▁outspread	-12984
▁philosophy	-12985
▁intelligence	-12986
:'	-12987
alp	-12988
fal	-12989
ois	-12990
oli	-12991
uld	-12992
▁Az	-12993
▁FA	-12994
▁Ot	-12995
▁ae	-12996
Like	-12997
adas	-12998
amon	-12999
hole	-13000
ifix	-13001
pert	-13002
racy	-13003
▁Gab	-13004
▁Hit	-13005
▁Ice	-13006
▁Lib	-13007
▁NOT	-13008
▁Pel	-13009
▁Pit	-13010
▁Rap	-13011
▁fib	-13012
▁ioy	-13013
▁lew	-13014
▁org	-13015
blind	-13016
ensed	-13017
hound	-13018
onted	-13019
▁Amen	-13020
▁Avon	-13021
▁Bind	-13022
▁Door	-13023
▁Emer	-13024
▁Plan	-13025
▁aren	-13026
▁dank	-13027
▁fasc	-13028
▁frum	-13029
▁mice	-13030
▁sted	-13031
▁vnto	-13032
ulated	-13033
▁Neigh	-13034
▁beget	-13035
▁belle	-13036
▁bluff	-13037
▁carol	-13038
▁fangs	-13039
▁geese	-13040
▁glads	-13041
▁glitt	-13042
▁impro	-13043
▁longs	-13044
▁panic	-13045
▁parch	-13046
▁puiss	-13047
▁quail	-13048
▁sinew	-13049
▁spade	-13050
▁spice	-13051
▁turne	-13052
▁yeeld	-13053
angling	-13054
figured	-13055
inction	-13056
▁Fisher	-13057
▁Lincol	-13058
▁Senlin	-13059
▁Violet	-13060
▁actual	-13061
▁clocks	-13062
▁foemen	-13063
▁graced	-13064
▁invest	-13065
▁landed	-13066
▁linnet	-13067
▁menace	-13068
▁mutter	-13069
▁receiv	-13070
▁sodden	-13071
▁splash	-13072
▁warmed	-13073
▁weaker	-13074
▁wooing	-13075
▁Epitaph	-13076
▁Possess	-13077
▁Whereat	-13078
▁adamant	-13079
▁appeare	-13080
▁arrange	-13081
▁bayonet	-13082
▁beautif	-13083
▁casting	-13084
▁castles	-13085
▁emptied	-13086
▁furrows	-13087
▁groaned	-13088
▁injured	-13089
▁lattice	-13090
▁nuptial	-13091
▁peopled	-13092
▁presume	-13093
▁stamped	-13094
▁stubble	-13095
▁surmise	-13096
▁Laughing	-13097
▁Stranger	-13098
▁clothing	-13099
▁downcast	-13100
▁hillside	-13101
▁lightest	-13102
▁livelong	-13103
▁medicine	-13104
▁overlook	-13105
▁pathless	-13106
▁pressure	-13107
▁pretence	-13108
▁primrose	-13109
▁resolute	-13110
▁reverend	-13111
▁romantic	-13112
▁sparrows	-13113
▁Dervishes	-13114
▁conceived	-13115
▁dishonour	-13116
▁qualities	-13117
▁venerable	-13118
▁wherewith	-13119
▁womanhood	-13120
▁bewildered	-13121
▁discontent	-13122
▁generation	-13123
▁disappeared	-13124
▁instruments	-13125
▁thoughtless	-13126
▁threatening	-13127
Ac	-13128
En	-13129
ki	-13130
wa	-13131
▁)	-13132
BER	-13133
emn	-13134
toe	-13135
yth	-13136
zas	-13137
Will	-13138
agre	-13139
arie	-13140
asta	-13141
call	-13142
fing	-13143
iard	-13144
ighe	-13145
ihil	-13146
itud	-13147
mare	-13148
oled	-13149
oops	-13150
part	-13151
rays	-13152
ride	-13153
rily	-13154
▁Hap	-13155
▁Ile	-13156
▁Ned	-13157
▁gap	-13158
▁jub	-13159
▁poy	-13160
▁sem	-13161
▁tub	-13162
▁urg	-13163
Would	-13164
erers	-13165
gends	-13166
grims	-13167
oused	-13168
plete	-13169
ustry	-13170
▁Envy	-13171
▁Gate	-13172
▁Goth	-13173
▁Laws	-13174
▁Thri	-13175
▁bund	-13176
▁cash	-13177
▁hilt	-13178
▁loaf	-13179
▁mens	-13180
▁oxen	-13181
▁rood	-13182
▁wily	-13183
filled	-13184
houses	-13185
inions	-13186
▁Blown	-13187
▁Carol	-13188
▁Curse	-13189
▁Faces	-13190
▁Fiend	-13191
▁Hymen	-13192
▁Langu	-13193
▁Memor	-13194
▁Scots	-13195
▁Shore	-13196
▁Shows	-13197
▁Slave	-13198
▁Worth	-13199
▁cords	-13200
▁crisp	-13201
▁diver	-13202
▁dross	-13203
▁fable	-13204
▁goode	-13205
▁knots	-13206
▁lewed	-13207
▁plank	-13208
▁sobre	-13209
▁unsha	-13210
▁veget	-13211
embered	-13212
forward	-13213
▁Accept	-13214
▁Affect	-13215
▁Famine	-13216
▁Fields	-13217
▁Ghosts	-13218
▁Lucret	-13219
▁Naught	-13220
▁Redeem	-13221
▁Serene	-13222
▁aisles	-13223
▁bleeds	-13224
▁bruise	-13225
▁brutes	-13226
▁carven	-13227
▁colder	-13228
▁filthy	-13229
▁grimly	-13230
▁keeper	-13231
▁lasses	-13232
▁revive	-13233
▁smoked	-13234
▁stoops	-13235
▁surges	-13236
▁system	-13237
▁werkes	-13238
▁History	-13239
▁Husband	-13240
▁Lincoln	-13241
▁Whereof	-13242
▁Wrought	-13243
▁breadth	-13244
▁cleaves	-13245
▁dispute	-13246
▁diverse	-13247
▁efforts	-13248
▁grasped	-13249
▁plagues	-13250
▁saddest	-13251
▁servile	-13252
▁shields	-13253
▁superst	-13254
▁teacher	-13255
▁trample	-13256
▁vaulted	-13257
▁Marphisa	-13258
▁Proclaim	-13259
▁Promethe	-13260
▁assembly	-13261
▁caresses	-13262
▁fondness	-13263
▁mystical	-13264
▁occurred	-13265
▁practice	-13266
▁resplend	-13267
▁speeches	-13268
▁stalwart	-13269
▁tinkling	-13270
▁displayed	-13271
▁galloping	-13272
▁increased	-13273
▁despairing	-13274
▁unexpected	-13275
▁contemplation	-13276
IST	-13277
hee	-13278
▁Ga	-13279
▁SP	-13280
▁os	-13281
best	-13282
bolt	-13283
core	-13284
lass	-13285
much	-13286
orce	-13287
▁Bus	-13288
▁Eth	-13289
▁Gri	-13290
▁Jap	-13291
▁Nan	-13292
▁jer	-13293
▁loc	-13294
▁rip	-13295
▁wif	-13296
blems	-13297
chery	-13298
ights	-13299
shore	-13300
▁Conv	-13301
▁Gran	-13302
▁Hipp	-13303
▁Jean	-13304
▁Loch	-13305
▁Mour	-13306
▁Nest	-13307
▁Pros	-13308
▁Stir	-13309
▁Vast	-13310
▁dred	-13311
▁dyed	-13312
▁hack	-13313
▁hove	-13314
▁loit	-13315
▁owls	-13316
▁plea	-13317
▁pris	-13318
▁ribs	-13319
clouds	-13320
ements	-13321
ilence	-13322
▁Built	-13323
▁Eagle	-13324
▁Enjoy	-13325
▁Glugs	-13326
▁Laure	-13327
▁Moved	-13328
▁Plato	-13329
▁alwey	-13330
▁barge	-13331
▁choke	-13332
▁clank	-13333
▁cramp	-13334
▁feith	-13335
▁fifth	-13336
▁joint	-13337
▁moder	-13338
▁route	-13339
▁shawl	-13340
▁shiny	-13341
▁stove	-13342
▁thyng	-13343
▁waxed	-13344
itution	-13345
▁Darius	-13346
▁Easter	-13347
▁Hidden	-13348
▁Regard	-13349
▁Sacred	-13350
▁barley	-13351
▁bifore	-13352
▁bygone	-13353
▁canopy	-13354
▁clamor	-13355
▁collar	-13356
▁dancer	-13357
▁denies	-13358
▁ebbing	-13359
▁fitted	-13360
▁flanks	-13361
▁gravel	-13362
▁grudge	-13363
▁highly	-13364
▁issued	-13365
▁loosen	-13366
▁plates	-13367
▁repres	-13368
▁scents	-13369
▁shifts	-13370
▁tastes	-13371
▁thatch	-13372
▁timber	-13373
▁Certain	-13374
▁Fairies	-13375
▁Ulysses	-13376
▁boiling	-13377
▁compose	-13378
▁crawled	-13379
▁damsels	-13380
▁devoted	-13381
▁dresses	-13382
▁effects	-13383
▁follies	-13384
▁huddled	-13385
▁massive	-13386
▁noticed	-13387
▁odorous	-13388
▁regular	-13389
▁sleeper	-13390
▁tainted	-13391
▁yearned	-13392
▁clutched	-13393
▁controul	-13394
▁fastened	-13395
▁haunting	-13396
▁husbands	-13397
▁loosened	-13398
▁manfully	-13399
▁nonsense	-13400
▁ordained	-13401
▁peerless	-13402
▁pitiless	-13403
▁renowned	-13404
▁steaming	-13405
▁withhold	-13406
▁writhing	-13407
▁Gentlemen	-13408
▁labyrinth	-13409
▁sensation	-13410
▁discipline	-13411
▁shimmering	-13412
Ow	-13413
oir	-13414
▁Ob	-13415
IGHT	-13416
agon	-13417
anse	-13418
dale	-13419
ipes	-13420
ombs	-13421
pale	-13422
stre	-13423
ynes	-13424
▁Cit	-13425
▁Hem	-13426
▁Jon	-13427
▁Lur	-13428
▁Oth	-13429
▁Tou	-13430
▁Won	-13431
▁hey	-13432
▁sov	-13433
▁vom	-13434
acity	-13435
asket	-13436
enses	-13437
falls	-13438
gence	-13439
iders	-13440
istic	-13441
odied	-13442
ossed	-13443
rails	-13444
these	-13445
urnal	-13446
▁Chir	-13447
▁Crom	-13448
▁Dove	-13449
▁Hate	-13450
▁Huge	-13451
▁Jews	-13452
▁Stan	-13453
▁Stat	-13454
▁adds	-13455
▁cind	-13456
▁copy	-13457
▁flor	-13458
▁goad	-13459
▁igno	-13460
▁pose	-13461
▁sale	-13462
▁soap	-13463
▁soup	-13464
▁spak	-13465
▁unri	-13466
▁unsh	-13467
▁vote	-13468
▁weel	-13469
anders	-13470
intage	-13471
ocracy	-13472
▁Adieu	-13473
▁Athen	-13474
▁Ceres	-13475
▁Fates	-13476
▁Fleet	-13477
▁Isaac	-13478
▁Mabel	-13479
▁Mirth	-13480
▁Thick	-13481
▁bored	-13482
▁brawn	-13483
▁carri	-13484
▁excel	-13485
▁fumes	-13486
▁lured	-13487
▁oaths	-13488
▁piles	-13489
▁skins	-13490
▁tires	-13491
▁tools	-13492
▁undef	-13493
ression	-13494
▁Charms	-13495
▁Goddes	-13496
▁Onward	-13497
▁Prison	-13498
▁Romans	-13499
▁Worthy	-13500
▁allure	-13501
▁behest	-13502
▁cloven	-13503
▁confer	-13504
▁droops	-13505
▁intric	-13506
▁knocks	-13507
▁paynim	-13508
▁raving	-13509
▁rubies	-13510
▁tavern	-13511
▁tigers	-13512
▁vaults	-13513
▁Forward	-13514
▁Jupiter	-13515
▁Picture	-13516
▁Somehow	-13517
▁commune	-13518
▁cutting	-13519
▁darting	-13520
▁diviner	-13521
▁glisten	-13522
▁mission	-13523
▁modesty	-13524
▁passive	-13525
▁pastime	-13526
▁poplars	-13527
▁retired	-13528
▁rounded	-13529
▁sharpen	-13530
▁shrines	-13531
▁skilful	-13532
▁summits	-13533
▁swollen	-13534
▁Egyptian	-13535
▁Hercules	-13536
▁Somebody	-13537
▁bubbling	-13538
▁conspire	-13539
▁exchange	-13540
▁fashions	-13541
▁fragment	-13542
▁gigantic	-13543
▁grinning	-13544
▁homeless	-13545
▁instance	-13546
▁miracles	-13547
▁mistaken	-13548
▁mourners	-13549
▁plunging	-13550
▁proudest	-13551
▁sanguine	-13552
▁Chieftain	-13553
▁Thousands	-13554
▁believing	-13555
▁blindness	-13556
▁mortality	-13557
▁rapturous	-13558
▁sightless	-13559
▁southward	-13560
▁stumbling	-13561
▁suppliant	-13562
▁heretofore	-13563
''	-13564
SS	-13565
ya	-13566
ANT	-13567
ATE	-13568
URE	-13569
did	-13570
mud	-13571
rof	-13572
▁04	-13573
▁05	-13574
▁Gi	-13575
▁Ir	-13576
▁PO	-13577
alms	-13578
anim	-13579
boys	-13580
cups	-13581
erva	-13582
gued	-13583
hrab	-13584
iall	-13585
ilar	-13586
leth	-13587
mont	-13588
pane	-13589
vary	-13590
ymes	-13591
yrus	-13592
▁Dad	-13593
▁Equ	-13594
▁Kat	-13595
▁MER	-13596
▁Obl	-13597
▁Sid	-13598
▁Sym	-13599
▁bly	-13600
▁pic	-13601
oster	-13602
raced	-13603
rites	-13604
rophe	-13605
since	-13606
▁Anna	-13607
▁Cock	-13608
▁Cong	-13609
▁Diam	-13610
▁Hood	-13611
▁Rail	-13612
▁Temp	-13613
▁agon	-13614
▁ayre	-13615
▁drow	-13616
▁hust	-13617
▁huts	-13618
▁judg	-13619
▁logs	-13620
▁pend	-13621
▁snap	-13622
▁uses	-13623
▁vase	-13624
aining	-13625
formed	-13626
inable	-13627
ission	-13628
otence	-13629
▁Chaos	-13630
▁Climb	-13631
▁Keeps	-13632
▁Takes	-13633
▁Verse	-13634
▁bonny	-13635
▁carve	-13636
▁clink	-13637
▁fated	-13638
▁flits	-13639
▁forme	-13640
▁havoc	-13641
▁hints	-13642
▁ingen	-13643
▁maist	-13644
▁model	-13645
▁odors	-13646
▁plaid	-13647
▁sette	-13648
▁swans	-13649
▁sward	-13650
▁total	-13651
▁vocal	-13652
▁wrack	-13653
ictions	-13654
through	-13655
velling	-13656
▁Bitter	-13657
▁Excell	-13658
▁Persia	-13659
▁Powers	-13660
▁Purple	-13661
▁Rememb	-13662
▁XXXIII	-13663
▁bileve	-13664
▁craggy	-13665
▁craven	-13666
▁formal	-13667
▁frames	-13668
▁gloves	-13669
▁guided	-13670
▁ladder	-13671
▁parade	-13672
▁piping	-13673
▁streak	-13674
▁toilet	-13675
▁Amongst	-13676
▁Breathe	-13677
▁Herself	-13678
▁Orpheus	-13679
▁Russian	-13680
▁Shelley	-13681
▁Shining	-13682
▁balcony	-13683
▁channel	-13684
▁craving	-13685
▁dappled	-13686
▁decrees	-13687
▁dragons	-13688
▁handful	-13689
▁infancy	-13690
▁issuing	-13691
▁loathed	-13692
▁schemes	-13693
▁stifled	-13694
▁suspect	-13695
▁topmost	-13696
▁trodden	-13697
▁visited	-13698
▁Angelica	-13699
▁advanced	-13700
▁crowding	-13701
▁entirely	-13702
▁fettered	-13703
▁fugitive	-13704
▁huntsman	-13705
▁impotent	-13706
▁intimate	-13707
▁luckless	-13708
▁screamed	-13709
▁searched	-13710
▁thickets	-13711
▁Traveller	-13712
▁champions	-13713
▁chieftain	-13714
▁fluttered	-13715
▁ponderous	-13716
▁stretches	-13717
▁surprised	-13718
▁willingly	-13719
▁Forgetting	-13720
▁distracted	-13721
▁intellectual	-13722
-1	-13723
PH	-13724
UL	-13725
sk	-13726
AST	-13727
Aye	-13728
OME	-13729
bac	-13730
eus	-13731
lan	-13732
uds	-13733
▁Io	-13734
acre	-13735
ador	-13736
anch	-13737
bing	-13738
cery	-13739
gold	-13740
have	-13741
issh	-13742
leaf	-13743
orth	-13744
otic	-13745
pose	-13746
roof	-13747
step	-13748
tico	-13749
tips	-13750
▁Bad	-13751
▁Fem	-13752
▁Mex	-13753
▁Nod	-13754
▁Unm	-13755
▁Wol	-13756
▁enl	-13757
▁laz	-13758
oures	-13759
veled	-13760
venue	-13761
▁Bess	-13762
▁Drop	-13763
▁Eliz	-13764
▁Hugh	-13765
▁Lena	-13766
▁Ling	-13767
▁Pent	-13768
▁Pine	-13769
▁Sage	-13770
▁ampl	-13771
▁bamb	-13772
▁bulw	-13773
▁clap	-13774
▁gums	-13775
▁hats	-13776
▁hond	-13777
▁hump	-13778
▁stam	-13779
▁volu	-13780
iament	-13781
manent	-13782
minded	-13783
▁Cenci	-13784
▁Feast	-13785
▁Lethe	-13786
▁Meant	-13787
▁Nurse	-13788
▁Raven	-13789
▁Spect	-13790
▁Swell	-13791
▁Trade	-13792
▁bolts	-13793
▁braid	-13794
▁calam	-13795
▁divin	-13796
▁idiot	-13797
▁lends	-13798
▁lurks	-13799
▁motor	-13800
▁omnip	-13801
▁preye	-13802
▁retir	-13803
▁scree	-13804
▁shrub	-13805
▁silks	-13806
▁witty	-13807
clouded	-13808
compass	-13809
uttered	-13810
▁Health	-13811
▁Moving	-13812
▁ablaze	-13813
▁contag	-13814
▁corrid	-13815
▁crouch	-13816
▁errors	-13817
▁giants	-13818
▁highte	-13819
▁intend	-13820
▁nothin	-13821
▁paines	-13822
▁shares	-13823
▁submit	-13824
▁suspic	-13825
▁thorny	-13826
▁thwart	-13827
▁tranqu	-13828
▁triple	-13829
▁truthe	-13830
▁welcom	-13831
insingen	-13832
▁Confess	-13833
▁Minerva	-13834
▁Thyself	-13835
▁Triumph	-13836
▁bridges	-13837
▁capital	-13838
▁clatter	-13839
▁concent	-13840
▁doleful	-13841
▁honored	-13842
▁improve	-13843
▁naughty	-13844
▁nourish	-13845
▁respond	-13846
▁slander	-13847
▁stumble	-13848
▁thinkin	-13849
▁treated	-13850
▁wheeled	-13851
▁workman	-13852
▁Bedivere	-13853
▁accursed	-13854
▁amethyst	-13855
▁contrary	-13856
▁deserved	-13857
▁designed	-13858
▁despised	-13859
▁dissolve	-13860
▁drenched	-13861
▁idleness	-13862
▁launched	-13863
▁shooting	-13864
▁solemnly	-13865
▁sportive	-13866
▁tempered	-13867
▁trenches	-13868
▁worthier	-13869
▁cathedral	-13870
▁condemned	-13871
▁deepening	-13872
▁intervals	-13873
▁plenteous	-13874
▁stockings	-13875
▁Themselves	-13876
▁completely	-13877
▁confession	-13878
▁enchanting	-13879
▁misfortune	-13880
▁questioned	-13881
▁relentless	-13882
▁continually	-13883
▁foundations	-13884
▁surrounding	-13885
:"	-13886
ni	-13887
rh	-13888
sn	-13889
AIN	-13890
Did	-13891
LIN	-13892
dog	-13893
gus	-13894
olv	-13895
▁20	-13896
▁ny	-13897
amor	-13898
appy	-13899
eace	-13900
four	-13901
lark	-13902
lost	-13903
mast	-13904
▁Eat	-13905
▁Hig	-13906
▁Pot	-13907
▁Qui	-13908
▁Tus	-13909
▁hug	-13910
▁poo	-13911
While	-13912
akers	-13913
anges	-13914
eares	-13915
ethin	-13916
fered	-13917
mbled	-13918
never	-13919
▁Abra	-13920
▁Anne	-13921
▁Budd	-13922
▁Fine	-13923
▁Gawd	-13924
▁Kate	-13925
▁Main	-13926
▁Mead	-13927
▁PART	-13928
▁Prod	-13929
▁Rode	-13930
▁Sore	-13931
▁dips	-13932
▁ensh	-13933
▁film	-13934
▁fuel	-13935
▁gamb	-13936
▁gram	-13937
▁pads	-13938
▁scow	-13939
▁spec	-13940
▁stew	-13941
▁stun	-13942
istent	-13943
legged	-13944
ppling	-13945
rishna	-13946
uction	-13947
utions	-13948
▁Febru	-13949
▁Phara	-13950
▁Santa	-13951
▁Spart	-13952
▁Write	-13953
▁acres	-13954
▁alert	-13955
▁blink	-13956
▁blunt	-13957
▁camel	-13958
▁dropp	-13959
▁paces	-13960
▁pinch	-13961
▁plane	-13962
▁ruler	-13963
▁safer	-13964
▁stopt	-13965
▁wiped	-13966
▁worke	-13967
stances	-13968
▁Adonis	-13969
▁Breaks	-13970
▁Gawain	-13971
▁Gospel	-13972
▁Repent	-13973
▁Riding	-13974
▁Rivers	-13975
▁Saturn	-13976
▁Smiles	-13977
▁Sohrab	-13978
▁Speech	-13979
▁acknow	-13980
▁betide	-13981
▁blinds	-13982
▁brands	-13983
▁cheery	-13984
▁cherub	-13985
▁clasps	-13986
▁coasts	-13987
▁cracks	-13988
▁dipped	-13989
▁lashes	-13990
▁launch	-13991
▁milder	-13992
▁nether	-13993
▁ninety	-13994
▁noises	-13995
▁progen	-13996
▁relics	-13997
▁rumour	-13998
▁sinews	-13999
▁Saracen	-14000
▁adorned	-14001
▁checked	-14002
▁chilled	-14003
▁confine	-14004
▁drought	-14005
▁flights	-14006
▁horrour	-14007
▁humbled	-14008
▁incline	-14009
▁insects	-14010
▁legends	-14011
▁palfrey	-14012
▁pausing	-14013
▁respite	-14014
▁scanned	-14015
▁shelves	-14016
▁sunless	-14017
▁tourney	-14018
▁workmen	-14019
▁Brothers	-14020
▁Laughter	-14021
▁bayonets	-14022
▁clusters	-14023
▁confined	-14024
▁consumed	-14025
▁disorder	-14026
▁erewhile	-14027
▁favorite	-14028
▁fireside	-14029
▁humility	-14030
▁lovingly	-14031
▁mansions	-14032
▁outright	-14033
▁perforce	-14034
▁possibly	-14035
▁probably	-14036
▁serpents	-14037
▁stedfast	-14038
▁throwing	-14039
▁trusting	-14040
▁villages	-14041
▁wreathed	-14042
▁Wandering	-14043
▁direction	-14044
▁oppressed	-14045
▁uttermost	-14046
▁individual	-14047
▁minstrelsy	-14048
▁multitudes	-14049
▁scattering	-14050
▁Imagination	-14051
▁resurrection	-14052
!’	-14053
uf	-14054
ITH	-14055
ITY	-14056
Per	-14057
aza	-14058
dis	-14059
iem	-14060
loe	-14061
nty	-14062
spe	-14063
ulp	-14064
uph	-14065
!'--	-14066
Just	-14067
comb	-14068
cond	-14069
holy	-14070
rils	-14071
urbs	-14072
vice	-14073
▁Ash	-14074
▁Cot	-14075
▁Doe	-14076
▁Inn	-14077
▁Ram	-14078
▁Wil	-14079
▁gur	-14080
▁sic	-14081
▁sym	-14082
Since	-14083
locks	-14084
quire	-14085
their	-14086
▁Dane	-14087
▁Dare	-14088
▁Died	-14089
▁Dire	-14090
▁Disp	-14091
▁Eats	-14092
▁Flag	-14093
▁Gene	-14094
▁Stop	-14095
▁Tort	-14096
▁blem	-14097
▁chis	-14098
▁grot	-14099
▁gush	-14100
▁kepe	-14101
▁meas	-14102
▁opal	-14103
▁pelf	-14104
▁plus	-14105
▁sane	-14106
atives	-14107
ourage	-14108
▁Brand	-14109
▁Damas	-14110
▁Flies	-14111
▁Image	-14112
▁Madam	-14113
▁Maria	-14114
▁Rough	-14115
▁Steal	-14116
▁Tells	-14117
▁Woods	-14118
▁XXXII	-14119
▁deems	-14120
▁dooth	-14121
▁gazes	-14122
▁girth	-14123
▁glens	-14124
▁heron	-14125
▁latch	-14126
▁maple	-14127
▁patri	-14128
▁plies	-14129
▁psalm	-14130
▁redou	-14131
▁relax	-14132
▁ropes	-14133
▁siege	-14134
▁slepe	-14135
▁trowe	-14136
▁truce	-14137
▁twigs	-14138
▁wrang	-14139
▁Magdal	-14140
▁Morals	-14141
▁Queens	-14142
▁SECOND	-14143
▁Seraph	-14144
▁Willie	-14145
▁boasts	-14146
▁casque	-14147
▁crafty	-14148
▁delays	-14149
▁detect	-14150
▁doubly	-14151
▁eleven	-14152
▁entran	-14153
▁errand	-14154
▁habits	-14155
▁healed	-14156
▁holden	-14157
▁inclin	-14158
▁inviol	-14159
▁jumped	-14160
▁learns	-14161
▁merits	-14162
▁offers	-14163
▁poplar	-14164
▁poster	-14165
▁result	-14166
▁sadder	-14167
▁tapers	-14168
▁tapest	-14169
▁truest	-14170
▁turtle	-14171
▁uphold	-14172
▁wattle	-14173
▁yearly	-14174
▁Burning	-14175
▁Dancing	-14176
▁Godfrey	-14177
▁Holland	-14178
▁Krishna	-14179
▁Lucasta	-14180
▁Sisters	-14181
▁accurst	-14182
▁adverse	-14183
▁affords	-14184
▁bathing	-14185
▁classic	-14186
▁comment	-14187
▁languor	-14188
▁lowered	-14189
▁portals	-14190
▁Cristene	-14191
▁Cromwell	-14192
▁February	-14193
▁Twilight	-14194
▁accepted	-14195
▁dismayed	-14196
▁ecstatic	-14197
▁eyeballs	-14198
▁intended	-14199
▁prepares	-14200
▁raptures	-14201
▁serenely	-14202
▁straying	-14203
▁summoned	-14204
▁thrushes	-14205
▁Trembling	-14206
▁authority	-14207
▁comforted	-14208
▁commanded	-14209
▁incessant	-14210
▁merriment	-14211
▁powerless	-14212
▁sepulchre	-14213
▁shuddered	-14214
▁stainless	-14215
▁thronging	-14216
▁Prometheus	-14217
▁affliction	-14218
▁changeless	-14219
▁government	-14220
▁journeying	-14221
▁mournfully	-14222
▁travellers	-14223
▁travelling	-14224
▁Highlanders	-14225
▁distinguish	-14226
▁resplendent	-14227
▁forgetfulness	-14228
▁understanding	-14229
bee	-14230
iop	-14231
obs	-14232
ubl	-14233
▁''	-14234
▁VV	-14235
avan	-14236
icon	-14237
nons	-14238
orde	-14239
thew	-14240
▁Ung	-14241
▁hog	-14242
▁jes	-14243
▁mug	-14244
▁pew	-14245
encia	-14246
found	-14247
guard	-14248
loved	-14249
merce	-14250
ordes	-14251
osity	-14252
uriel	-14253
▁Chic	-14254
▁Kent	-14255
▁News	-14256
▁Ours	-14257
▁Toil	-14258
▁Vale	-14259
▁awry	-14260
▁chew	-14261
▁dice	-14262
▁guts	-14263
▁halo	-14264
▁hies	-14265
▁irre	-14266
▁joyn	-14267
▁mode	-14268
▁mole	-14269
▁perj	-14270
▁poke	-14271
▁pump	-14272
▁ranc	-14273
acinth	-14274
attled	-14275
ensity	-14276
erring	-14277
▁Admir	-14278
▁Belie	-14279
▁Bread	-14280
▁Calls	-14281
▁Drunk	-14282
▁Empty	-14283
▁Flame	-14284
▁Flung	-14285
▁Minst	-14286
▁Sands	-14287
▁Ships	-14288
▁Tempt	-14289
▁backe	-14290
▁bened	-14291
▁chrys	-14292
▁coals	-14293
▁dilig	-14294
▁disar	-14295
▁dishe	-14296
▁dunno	-14297
▁evils	-14298
▁felon	-14299
▁goats	-14300
▁hotel	-14301
▁idols	-14302
▁modes	-14303
▁posts	-14304
▁prate	-14305
▁proff	-14306
▁robed	-14307
▁saugh	-14308
▁seeke	-14309
▁sleet	-14310
▁smoot	-14311
▁turmo	-14312
▁wreak	-14313
istence	-14314
lighted	-14315
▁Author	-14316
▁Danger	-14317
▁Giving	-14318
▁Hoping	-14319
▁Sunset	-14320
▁abides	-14321
▁assume	-14322
▁boards	-14323
▁decked	-14324
▁dimmed	-14325
▁disast	-14326
▁dollar	-14327
▁flutes	-14328
▁humour	-14329
▁judged	-14330
▁lawyer	-14331
▁muster	-14332
▁repine	-14333
▁Clothed	-14334
▁Command	-14335
▁Fathers	-14336
▁applied	-14337
▁butcher	-14338
▁clarion	-14339
▁consort	-14340
▁dreamer	-14341
▁exhaust	-14342
▁ignoble	-14343
▁mourner	-14344
▁relieve	-14345
▁undying	-14346
▁upbraid	-14347
▁upwards	-14348
▁vassals	-14349
▁acquaint	-14350
▁avenging	-14351
▁becoming	-14352
▁chearful	-14353
▁counsels	-14354
▁daybreak	-14355
▁discreet	-14356
▁illusion	-14357
▁knocking	-14358
▁observed	-14359
▁ordinary	-14360
▁pavilion	-14361
▁prisoned	-14362
▁scatters	-14363
▁stumbled	-14364
▁thronged	-14365
▁Linsingen	-14366
▁abundance	-14367
▁beholding	-14368
▁blameless	-14369
▁declining	-14370
▁doubtless	-14371
▁presented	-14372
▁preserved	-14373
▁trackless	-14374
▁Providence	-14375
▁Washington	-14376
▁meditation	-14377
▁protection	-14378
▁quickening	-14379
▁rebellious	-14380
▁temptation	-14381
"!	-14382
fu	-14383
cap	-14384
eek	-14385
gge	-14386
sou	-14387
usk	-14388
▁Ef	-14389
Time	-14390
abit	-14391
asty	-14392
bore	-14393
bout	-14394
cche	-14395
gery	-14396
must	-14397
nous	-14398
rend	-14399
scar	-14400
tail	-14401
utor	-14402
▁MAN	-14403
▁THY	-14404
▁Vul	-14405
▁dor	-14406
▁smo	-14407
▁soj	-14408
▁tab	-14409
Allas	-14410
arked	-14411
atoes	-14412
epend	-14413
heard	-14414
inter	-14415
orter	-14416
ulent	-14417
yards	-14418
▁Fish	-14419
▁Gala	-14420
▁Harp	-14421
▁Heat	-14422
▁Lean	-14423
▁Shan	-14424
▁Shot	-14425
▁Tear	-14426
▁Toss	-14427
▁alma	-14428
▁aure	-14429
▁bags	-14430
▁cors	-14431
▁dyes	-14432
▁foil	-14433
▁fram	-14434
▁gape	-14435
▁hips	-14436
▁loke	-14437
▁pell	-14438
▁pyre	-14439
▁seer	-14440
▁wick	-14441
closes	-14442
idents	-14443
ingled	-14444
isions	-14445
ivious	-14446
oughed	-14447
▁Eliza	-14448
▁Guine	-14449
▁Haply	-14450
▁Honey	-14451
▁Japan	-14452
▁Revol	-14453
▁Sheep	-14454
▁Sighs	-14455
▁XXXIV	-14456
▁appar	-14457
▁ashen	-14458
▁begot	-14459
▁camps	-14460
▁crude	-14461
▁curst	-14462
▁drags	-14463
▁entre	-14464
▁fluid	-14465
▁ledge	-14466
▁muddy	-14467
▁pined	-14468
▁poise	-14469
▁rails	-14470
▁refus	-14471
▁reste	-14472
▁saves	-14473
▁scrub	-14474
▁squat	-14475
▁whips	-14476
▁wines	-14477
quently	-14478
rations	-14479
▁Attend	-14480
▁Flying	-14481
▁Mammon	-14482
▁Palmer	-14483
▁Sphinx	-14484
▁Yonder	-14485
▁abrupt	-14486
▁alleys	-14487
▁ambros	-14488
▁blamed	-14489
▁duties	-14490
▁fetter	-14491
▁fringe	-14492
▁halted	-14493
▁honors	-14494
▁imagin	-14495
▁infamy	-14496
▁lawful	-14497
▁musket	-14498
▁permit	-14499
▁pistol	-14500
▁restor	-14501
▁sighte	-14502
▁threes	-14503
▁tokens	-14504
▁trails	-14505
▁Despite	-14506
▁Further	-14507
▁Perfect	-14508
▁Pharaoh	-14509
▁arrives	-14510
▁artless	-14511
▁ascends	-14512
▁bracken	-14513
▁buckler	-14514
▁chicken	-14515
▁delayed	-14516
▁fretted	-14517
▁genuine	-14518
▁glamour	-14519
▁marches	-14520
▁marshes	-14521
▁padshah	-14522
▁parched	-14523
▁raining	-14524
▁rotting	-14525
▁seventh	-14526
▁steamer	-14527
▁telleth	-14528
▁vantage	-14529
▁Gardener	-14530
▁autumnal	-14531
▁awakened	-14532
▁clenched	-14533
▁covering	-14534
▁crouched	-14535
▁embraces	-14536
▁fourteen	-14537
▁jealousy	-14538
▁mariners	-14539
▁meanings	-14540
▁penaunce	-14541
▁practise	-14542
▁quarters	-14543
▁ramparts	-14544
▁regiment	-14545
▁released	-14546
▁securely	-14547
▁slanting	-14548
▁smoothly	-14549
▁indulgent	-14550
▁interpret	-14551
▁methought	-14552
▁nightfall	-14553
▁soundless	-14554
▁Government	-14555
▁confounded	-14556
▁corruption	-14557
▁determined	-14558
▁distressed	-14559
AG	-14560
Ho	-14561
UD	-14562
hi	-14563
Too	-14564
VER	-14565
eer	-14566
ela	-14567
eze	-14568
ibi	-14569
iva	-14570
nic	-14571
urt	-14572
yte	-14573
▁BO	-14574
!"--	-14575
alus	-14576
anke	-14577
ario	-14578
hips	-14579
mens	-14580
rize	-14581
yers	-14582
▁Fil	-14583
▁Ide	-14584
▁Pry	-14585
▁Rad	-14586
▁dub	-14587
▁orl	-14588
▁str	-14589
▁tug	-14590
▁wex	-14591
avish	-14592
bacco	-14593
idian	-14594
issus	-14595
odden	-14596
three	-14597
▁Cand	-14598
▁Fare	-14599
▁Lyre	-14600
▁Repe	-14601
▁Ruth	-14602
▁Sway	-14603
▁THEE	-14604
▁Wash	-14605
▁XXXV	-14606
▁bass	-14607
▁dand	-14608
▁doin	-14609
▁espy	-14610
▁fere	-14611
▁gory	-14612
▁lorn	-14613
▁nece	-14614
▁owes	-14615
▁rape	-14616
▁sall	-14617
▁secl	-14618
▁slee	-14619
▁unim	-14620
▁whet	-14621
entive	-14622
loving	-14623
uthors	-14624
▁Clean	-14625
▁Demon	-14626
▁Large	-14627
▁Needs	-14628
▁Pagan	-14629
▁Reson	-14630
▁Spare	-14631
▁Wheel	-14632
▁allas	-14633
▁beque	-14634
▁chaps	-14635
▁coraz	-14636
▁covet	-14637
▁crump	-14638
▁downs	-14639
▁exhal	-14640
▁horde	-14641
▁jokes	-14642
▁loses	-14643
▁noche	-14644
▁plied	-14645
▁rover	-14646
▁smoky	-14647
▁truck	-14648
▁unrel	-14649
▁waxen	-14650
▁whore	-14651
▁wreat	-14652
blossom	-14653
entimes	-14654
landers	-14655
▁Gazing	-14656
▁Harold	-14657
▁Leeona	-14658
▁Loving	-14659
▁Miriam	-14660
▁Orient	-14661
▁Vivien	-14662
▁associ	-14663
▁awakes	-14664
▁bricks	-14665
▁cleans	-14666
▁compar	-14667
▁greens	-14668
▁grisly	-14669
▁lulled	-14670
▁pitied	-14671
▁povere	-14672
▁ranges	-14673
▁seemes	-14674
▁speedy	-14675
▁swerve	-14676
▁talkin	-14677
Farewell	-14678
▁January	-14679
▁Perseus	-14680
▁Rosalie	-14681
▁Touched	-14682
▁appease	-14683
▁barrier	-14684
▁boasted	-14685
▁contact	-14686
▁designs	-14687
▁disgust	-14688
▁fainter	-14689
▁hardest	-14690
▁holiest	-14691
▁infants	-14692
▁pockets	-14693
▁raising	-14694
▁skilled	-14695
▁sleight	-14696
▁streaks	-14697
▁wayside	-14698
▁Memoriam	-14699
▁Nighting	-14700
▁Persians	-14701
▁Tomorrow	-14702
▁achieved	-14703
▁crowning	-14704
▁doubting	-14705
▁entering	-14706
▁flitting	-14707
▁proceeds	-14708
▁resigned	-14709
▁silences	-14710
▁sparkles	-14711
▁stepping	-14712
▁studious	-14713
▁terrific	-14714
▁Bradamant	-14715
▁Valentine	-14716
▁communion	-14717
▁darknesse	-14718
▁earnestly	-14719
▁foreheads	-14720
▁heartless	-14721
▁momentary	-14722
▁patiently	-14723
▁shapeless	-14724
▁slightest	-14725
▁sprightly	-14726
▁sumptuous	-14727
▁resistance	-14728
▁staggering	-14729
1)	-14730
LY	-14731
UB	-14732
OLD	-14733
OUR	-14734
awa	-14735
bal	-14736
bbe	-14737
iii	-14738
ito	-14739
rus	-14740
tra	-14741
King	-14742
Sing	-14743
avel	-14744
cons	-14745
days	-14746
ello	-14747
ephe	-14748
glow	-14749
hine	-14750
hour	-14751
iece	-14752
ilda	-14753
imer	-14754
keys	-14755
lord	-14756
olus	-14757
omes	-14758
orum	-14759
pool	-14760
spir	-14761
▁Bag	-14762
▁Bob	-14763
▁Caf	-14764
▁Der	-14765
▁Fig	-14766
▁Gan	-14767
▁Phy	-14768
▁Sep	-14769
▁Shr	-14770
▁Sup	-14771
▁bum	-14772
▁cum	-14773
▁eft	-14774
▁ese	-14775
▁goe	-14776
▁ich	-14777
▁ker	-14778
▁lim	-14779
▁pom	-14780
▁tog	-14781
▁wak	-14782
▁yit	-14783
aying	-14784
eteen	-14785
fling	-14786
month	-14787
swept	-14788
uddle	-14789
uffle	-14790
woman	-14791
▁----	-14792
▁Afar	-14793
▁Arri	-14794
▁Cats	-14795
▁Crit	-14796
▁Feet	-14797
▁Mild	-14798
▁Monk	-14799
▁Poll	-14800
▁Wars	-14801
▁Worn	-14802
▁adul	-14803
▁aunt	-14804
▁chas	-14805
▁clue	-14806
▁dall	-14807
▁elms	-14808
▁kine	-14809
▁lewd	-14810
▁mule	-14811
▁onto	-14812
▁sequ	-14813
▁vers	-14814
▁warp	-14815
Mother	-14816
ippers	-14817
iquity	-14818
outhed	-14819
▁Drops	-14820
▁Judah	-14821
▁Lying	-14822
▁Negro	-14823
▁Sever	-14824
▁Tread	-14825
▁apply	-14826
▁bacon	-14827
▁blanc	-14828
▁cakes	-14829
▁chirp	-14830
▁cowsl	-14831
▁elfin	-14832
▁heirs	-14833
▁lasts	-14834
▁logic	-14835
▁looms	-14836
▁maken	-14837
▁marge	-14838
▁massy	-14839
▁reels	-14840
▁remot	-14841
▁scape	-14842
▁sheaf	-14843
▁spraw	-14844
▁strut	-14845
▁tease	-14846
▁tress	-14847
▁wroth	-14848
ardinal	-14849
looking	-14850
reshing	-14851
tongued	-14852
▁Albion	-14853
▁Mahmud	-14854
▁Rising	-14855
▁Sevent	-14856
▁Window	-14857
▁august	-14858
▁braver	-14859
▁candid	-14860
▁casual	-14861
▁chills	-14862
▁drench	-14863
▁dwelle	-14864
▁furled	-14865
▁incarn	-14866
▁insane	-14867
▁kicked	-14868
▁lichen	-14869
▁litter	-14870
▁loiter	-14871
▁maimed	-14872
▁meagre	-14873
▁meaner	-14874
▁soiled	-14875
▁squeak	-14876
▁sultan	-14877
▁timely	-14878
▁womman	-14879
▁wrists	-14880
........	-14881
▁Bending	-14882
▁Brigade	-14883
▁Galahad	-14884
▁Lifting	-14885
▁Mankind	-14886
▁artific	-14887
▁chalice	-14888
▁cleanse	-14889
▁critics	-14890
▁directs	-14891
▁eagerly	-14892
▁feigned	-14893
▁hymself	-14894
▁partake	-14895
▁sainted	-14896
▁shrouds	-14897
▁sixteen	-14898
▁theatre	-14899
breathing	-14900
▁Bringing	-14901
▁Glorious	-14902
▁approved	-14903
▁channels	-14904
▁chariots	-14905
▁confines	-14906
▁crashing	-14907
▁dejected	-14908
▁plighted	-14909
▁seething	-14910
▁slippery	-14911
▁warbling	-14912
▁Innocence	-14913
▁Yesterday	-14914
▁assurance	-14915
▁crackling	-14916
▁crucified	-14917
▁distresse	-14918
▁glorified	-14919
▁harmonies	-14920
▁	-14921
e	-14922
t	-14923
o	-14924
a	-14925
n	-14926
s	-14927
h	-14928
r	-14929
i	-14930
l	-14931
d	-14932
u	-14933
m	-14934
,	-14935
w	-14936
g	-14937
f	-14938
y	-14939
c	-14940
p	-14941
b	-14942
v	-14943
k	-14944
.	-14945
T	-14946
'	-14947
A	-14948
I	-14949
-	-14950
W	-14951
;	-14952
S	-14953
B	-14954
L	-14955
H	-14956
O	-14957
!	-14958
E	-14959
F	-14960
M	-14961
"	-14962
C	-14963
:	-14964
N	-14965
D	-14966
G	-14967
?	-14968
K	-14969
P	-14970
R	-14971
j	-14972
x	-14973
q	-14974
Y	-14975
z	-14976
—	-14977
U	-14978
V	-14979
(	-14980
J	-14981
)	-14982
X	-14983
2	-14984
0	-14985
’	-14986
3	-14987
1	-14988
`	-14989
“	-14990
4	-14991
”	-14992
Q	-14993
5	-14994
6	-14995
[	-14996
